#version: 0.2
a r
e r
Ã ¼
a n
i n
Å Ł
Ġ b
e n
± n
Ä ±n
i r
i l
Ä Ł
Ã §
Ġ k
Ġ d
Ġ s
a l
Ġ y
a k
l ar
Ġ g
e l
e k
Ã ¶
Ġ o
Ġ v
e t
a y
Ġ t
Ġ i
a s
a m
u n
l er
d e
o r
a t
d a
e s
Ġ h
i y
Ġv e
i z
o n
e m
i m
± r
Ä ±r
i k
Ġb ir
Ġ m
u r
Ġo l
a ÅŁ
Ġ B
e d
u l
± l
Ä ±l
a d
Ã¼ n
Ġ Ã§
± k
Ä ±k
i s
Ġ A
Ã¼ r
a z
Ä °
± m
Ä ±m
a p
l e
a h
a b
i t
i ÅŁ
Ġ K
± ÅŁ
Ä ±ÅŁ
e y
u m
Ġ S
Ġ p
Ġ Ã¶
± z
Ä ±z
Ġd e
Ġ il
Ġ T
a ÄŁ
l i
o l
Ġi Ã§
Ġ M
Ġ f
a c
" "
l an
lar Ä±n
Ġ al
s t
o k
Ġg Ã¶
d an
± ÄŁ
Ä ±ÄŁ
Ã¼ z
in i
Ġ n
Ġ ÅŁ
Ä±n da
d i
Ġ D
d u
ĠiÃ§ in
Ġy ap
e v
in e
lar Ä
larÄ ±
as Ä
asÄ ±
Ġ ar
e c
l a
Ġ H
Ġ 1
Ġ 2
Ġ Ä°
Ġ E
es i
d en
Ã¼ k
u y
Ġ Ã
in de
± y
Ä ±y
u z
â Ģ
Ġ G
Ġb u
Ġ Y
a Ã§
ler i
el er
il er
t i
al ar
l Ä
lÄ ±
Ã¼ m
Ġd a
iy or
a f
Ä±n Ä
Ä±nÄ ±
Ġ z
m ak
. .
Ġil e
y a
e ÄŁ
Ġ r
Ġ et
ĠgÃ¶ r
± s
Ä ±s
il ir
Ġ ed
u t
Ġ P
in in
Ġb aÅŁ
Ã¼ l
u ÅŁ
d ir
Ġ an
m a
o ÄŁ
l ik
a v
e Ã§
e b
u s
l am
iy e
Ġ c
Ġg er
Ã¶ n
t ir
Ġk ar
Ġv er
in iz
ĠÃ¶ n
Ġg el
Ġs on
Ä±n a
e z
d Ä±r
il m
Ã¼ y
Ġ O
u k
Ã¼ ÅŁ
lar ak
' d
Ġol du
i p
l en
Ġi ÅŁ
c e
e ÅŁ
Ġo larak
Ġ in
Ä±ÄŁ Ä
Ä±ÄŁÄ ±
i b
Ġ F
o m
Ġk on
l em
Ġ en
Ġb il
t Ä±r
Ġ (
Ġ C
Ġ2 0
Ġde ÄŁ
Ġ ay
i ÄŁ
Ä±y or
t a
r o
Ġ ""
m ek
Ġt ar
Ä±n dan
t e
ay a
Å ŀ
ac ak
l Ä±k
Ġk ul
Ġol m
Ġb ul
ah a
an Ä
d Ä
anÄ ±
dÄ ±
ĠÃ§ ok
Ġol an
Ġy er
s e
o p
Ã¼r k
un u
ĠB u
t Ä
tÄ ±
ay Ä
ayÄ ±
Ġkul lan
Ġ aÃ§
Ġo r
m an
t an
Ä±n Ä±n
Ġk al
Ġ N
en i
l u
im iz
e de
i h
ib i
Ã¶ r
i c
Ã¶ y
y on
Ġd aha
Ġi st
ĠÃ ĩ
Ġg Ã¼n
Ġ ad
Ġs Ã¼r
Ġk ad
Ġoldu ÄŁ
Ġy Ä±l
Ġ R
ar k
ak i
ÄŁ i
al Ä±ÅŁ
Ġv ar
Ġk ur
Ġh er
r a
is i
am an
âĢ Ļ
Ġ uy
m Ä±ÅŁ
Ġb el
ler in
m e
ec ek
ek i
m asÄ±
c Ä
cÄ ±
ab ilir
k i
ĠÃ§ Ä±k
a da
c a
Ġg ibi
Ġg eÃ§
ĠÃ§ alÄ±ÅŁ
o s
t er
s an
0 0
ed en
Ġy ar
Ġger ek
Ġ Ã¼z
Ä±m Ä±z
Ġ V
Ġy aÅŁ
ĠÃ ĸ
il en
e h
al Ä
alÄ ±
Ġk en
il i
Ġs aÄŁ
am a
is t
e p
Ä±n Ä±z
ĠT Ã¼rk
Ġ -
le ÅŁ
ĠÃ¼z er
as Ä±nda
Ġbul un
Ġ el
Ġ 3
k en
l aÅŁ
Ġ ek
ay an
Ġyap Ä±l
Ã¶ z
ek t
Ġo n
m et
r u
an s
Ã¼ t
ey e
l et
i d
Ġ Åŀ
ÄŁ r
ĠÃ¶ z
ed i
iy et
Ġz aman
m iÅŁ
in den
Ġy Ã¶n
un da
g i
Ã ¢
el i
Ġp ar
Ġo y
er s
Ġ L
o y
Ġd Ã¼ÅŁ
Ġs or
iy le
Ġkad ar
č Ċ
Ġ20 1
s a
t ur
ed ir
a de
Ġd ur
o t
l Ã¼
ĠA n
Ġ l
Ġkar ÅŁ
Ã¼ c
e f
i f
Ġt ek
Ġde v
Ã¼y Ã¼k
ar ak
2 0
lar a
d aki
es t
Ġy az
er i
Ġtar af
larÄ±n Ä
larÄ±nÄ ±
Ã¶ l
Ġ ak
Ġ U
aÅŁ k
Ġs ah
Ġp ro
Ġh al
Ġ âĢ
Ġd oÄŁ
ĠÅŁ ek
un un
Ġuy g
Ġt op
c ak
y i
ac aÄŁ
Ġ Ã¼r
i Ã§
o c
Ġd Ã¶n
Ã¼ Ã§
ar t
Ġy an
Ġk at
Ġk ay
Ġk ap
Ġbel ir
n in
t ad
Ġs ay
Ġson ra
.. .
ec eÄŁ
ab er
m en
Ġi se
le y
s iniz
m alar
ler ini
Ã ľ
im i
uy or
l at
l ad
Ġh ak
Ġy eni
er ek
Ã¼ s
eler i
iy at
ar Ä
arÄ ±
m as
Ġy ak
Ġ at
t r
Ġk iÅŁ
ĠA r
er k
Ġh ay
Ġve ya
Ġal an
Ġger Ã§
d eki
el ik
Ġy ol
l ay
Ġ 5
il di
Ġn e
s el
Ġt ak
ĠÃ ľ
ĠÃ¶z el
Ġ 4
ĠaÃ§ Ä±k
Ä±s Ä
Ä±sÄ ±
Ġg ir
es inde
Ġb Ã¼yÃ¼k
Ġy Ã¼z
Ġ uz
Ġ ev
d Ã¼r
st er
c u
u Ã§
tad Ä±r
k in
lar da
Ġy Ã¼k
ĠÃ¶n em
Ġor t
i v
ĠA l
Ġg en
ĠÃ¶ ÄŁr
r am
Ġd en
ĠdeÄŁ il
un a
Ġdur um
Ġd Ã¼z
Ġb ak
o d
Ġb en
or um
Ġs iz
at Ä±r
eb ilir
Ġs ev
ĠÅŁek il
ler e
ĠB ir
Ġil g
Ä±l an
as yon
ĠTÃ¼rk iye
Ġb aÄŁ
iÅŁ tir
Ġin san
Ġk az
iz met
Ġken d
ed iÄŁ
Ġs Ã¶y
Ġs eÃ§
Ġtaraf Ä±ndan
Ġh em
Ġt em
Ġf ark
ar et
Ġ I
Ġi yi
h t
v en
Ġil k
Ä±y la
ĠgÃ¶ ster
ÄŁ u
c i
Ġs it
uÅŁ tur
t en
a at
an Ä±n
d Ä±m
as Ä±l
o z
Ġb iz
. "
aÄŁ Ä
aÄŁÄ ±
ab il
ĠgerÃ§ ek
ĠgÃ¶r e
s un
Ġb Ã¶l
Ġh ar
ĠolduÄŁ u
ey i
ĠÅŁekil de
et im
m aya
m esi
Ġo k
Ġn eden
Ä±ÄŁ Ä±nÄ±
ĠB aÅŁk
iler i
ad an
Ġt am
E R
larÄ±n Ä±n
Ġ eÄŁ
b ir
Ġ a
as t
A R
Ġal t
Ġ '
ĠÃ§ ek
et ir
r Ä
rÄ ±
ar a
en in
al Ä±k
Ġy ok
p or
mak tadÄ±r
t Ä±k
o b
Ã¼ ven
Ġh izmet
Ġk i
d ur
h an
Ã ĩ
Ġuyg ul
Ġt Ã¼m
Ġ es
n Ä
nÄ ±
Ä±m Ä
Ä±mÄ ±
Ã¼ st
r an
Ġ ul
ay Ä±n
n Ä±n
r e
r et
iÄŁ er
Ä±l Ä
Ä±lÄ ±
Ġy et
Ġg etir
u p
Ġm il
Ġbil g
A N
Ġsah ip
Ġd er
ist em
Ġ Ã¼l
c el
ĠiÃ§ er
li ÄŁi
Ġi z
Ġs er
Ġkaz an
d er
ĠgÃ¶ z
Ã ĸ
Ġ Z
Ġs at
Ġs an
Ġs Ä±r
ĠA y
ĠiÅŁ lem
Ġtar ih
Ġf az
s iz
o ÅŁ
ĠÅŁ ey
alar Ä
alarÄ ±
larÄ±n a
t ar
leÅŁ tir
Ġy a
ol o
Ġdev am
ĠÃ¶nem li
m am
ĠdeÄŁ er
r af
ĠE r
ĠolduÄŁ unu
Ġal Ä±n
es ine
az Ä
azÄ ±
Ġt ut
Ġ1 9
d Ä±ÄŁÄ±
ĠdÃ¼ÅŁ Ã¼n
Ġ as
us u
Ġd Ã¼n
Ġs Ã¶z
Ġet ti
Ġ 6
Ġilg ili
iy as
d Ã¼
l Ä±ÄŁÄ±
Ġoy un
b et
ĠÃ¶ÄŁr en
Ġ az
Ġd ol
ler de
ĠÃ¶n ce
en iz
Ġs un
it im
Ġd uy
Ġ ede
s ek
Ġt er
Ġ am
mek t
Ġ aÅŁ
Ġ 0
ĠÃ¼l k
ler inin
u b
± cÄ±
Ä ±cÄ±
ĠÄ° n
li ÄŁ
Ġb in
Ġk ol
iÅŁ im
i g
oc uk
len dir
Ġ ama
B u
es ini
iy on
k a
Ġ aÄŁ
Ã¼n de
em ek
il ik
t Ã¼r
Ġk Ä±s
Ã¶y le
Ġb ah
olo j
or m
ler ine
lik le
âĢ ¦
ik a
Ġet k
Ġar asÄ±nda
s Ä±z
t u
erk ez
Ġz or
al an
ĠB el
± p
Ä ±p
Ġm u
Ġ1 0
Ġbir lik
Ä±n daki
ĠK ur
em iz
' t
k et
Ġ 7
ĠdÃ¼z en
mekt edir
Ġs istem
Ã§ a
Ġt an
Ã§ e
b ul
larÄ±n da
Ġhak k
Ġi s
Ã¼y or
Ã¼n Ã¼
Ġi ki
az Ä±r
Ġg Ã¼ven
ul u
Ã¼z el
Ġol ur
Ġfaz la
lar dan
ĠÃ¶ l
ĠiÃ§in de
lam a
i de
y al
Ġt aÅŁ
Ġb ek
abilir siniz
ĠÄ° l
Ġhay at
di ÄŁ
y e
es in
eh ir
Ġd est
g Ã¼n
t Ã¼
Ġf iyat
Ġy atÄ±r
Ġh iÃ§
ĠÃĸ z
Ġkon uÅŁ
iyor um
Ġd iÄŁer
s i
Ġd Ä±ÅŁ
st an
Ġb as
o g
t Ä±ÄŁÄ±
as ar
di ÄŁi
t ik
k an
d ik
ey en
Ġi m
Ġk r
Ġt es
ade ce
m az
ac Ä
acÄ ±
Ġol acak
ilm esi
n e
in g
. ""
m eye
Ġbirlik te
ĠA k
ru p
ĠÃ¼r Ã¼n
Ġi f
Ġay nÄ±
ic i
Ġgel en
Ġn asÄ±l
iler in
Ã¼ p
Ġd ik
Ġm es
ĠdÃ¶n em
Ġul aÅŁ
lad Ä
ladÄ ±
âĢ Ŀ
Ġol mak
g ram
Ġ W
Ġh azÄ±r
Ä±l Ä±k
Ġk or
eÄŁ i
Ġd iye
Ġk ab
ĠÄ° ÅŁ
Ġ 8
Ġar k
o v
l Ä±ÄŁ
Ġs aat
ĠgÃ¶r Ã¼n
stan bul
k at
l ah
Ġo t
ĠK ar
Ġk Ã¶
ĠG en
Ġfark lÄ±
Ġk im
ĠB ak
lar la
Ġb oy
Ġed en
n et
Ġd edi
ĠyapÄ±l an
Ġb ur
ĠE n
ĠdoÄŁ ru
Ġ J
as Ä±na
n a
e g
Ġ u
Ġkon u
ĠÃ¶ r
Ġ Ã¼st
Ġs en
ĠâĢ ĵ
ĠkarÅŁ Ä
ĠkarÅŁÄ ±
iyor uz
y la
20 1
Ġt Ã¼r
Ġs al
k Ã¼
ek et
ti ÄŁ
Ġd il
l uk
Ġpar a
ĠÃ§Ä±k ar
ler inde
Ġg Ã¼zel
Ġ eÅŁ
Ġar t
d ar
.. ..
ir ket
Ã¼t Ã¼n
Ġk an
Ġ :
Ġyar dÄ±m
Ġtam am
Ġh af
Ġi ht
n un
lar Ä±mÄ±z
Ġ er
Ġs Ä±k
ĠyÃ¼k sek
Ġan lam
ĠÃ§ ocuk
Ä±z Ä
Ä±zÄ ±
ĠdeÄŁ iÅŁ
Ġm al
lem e
aÅŁ tÄ±r
ĠBaÅŁk anÄ±
2 1
u v
ĠbÃ¶l g
Ã ®
Ġh es
Ġkur ul
ĠÃ¶n c
d Ä±ÄŁ
Ġkullan Ä±l
Ġkar ar
o st
Ġken di
Ġtek n
Ġb an
Ġk am
Ġol uÅŁtur
s iyon
Ġ |
Ġt el
em e
Ġs adece
is inde
f a
Ġil iÅŁ
iniz i
ĠyatÄ±r Ä±m
Ġm Ã¼
ah at
ada ÅŁ
Ġolm asÄ±
ĠgÃ¶r ev
es inin
un uz
Ġdest ek
Ġi k
d Ä±k
E N
h ur
m i
ad Ä
adÄ ±
Ã¼n e
Ġ em
an lÄ±
as Ä±nÄ±
ĠÄ° s
Ġdik kat
en d
Ġm ak
Ġh av
Ġ 9
h e
av aÅŁ
os yal
t al
l Ã¼k
ĠâĢ ľ
mÄ±ÅŁ tÄ±r
ay laÅŁ
ler den
Ġt ab
ĠG Ã¼n
oÄŁ lu
ĠÃ§ ev
ĠBel ed
Ġoldu k
Ġ w
Ġbelir t
Ġda v
ekt Ã¶r
or e
Ġet m
us unda
Ä° N
Ġm od
ÄŁ Ã¼
at Ä
atÄ ±
ĠS on
Ġg Ã¼Ã§
an da
l ayan
Ġh aber
Ġed er
Ġh Ä±z
ĠA v
Ġ Ã¼y
iv ers
Ġuyg un
ĠE k
ok t
Ġbulun an
Ġgen el
on om
Ġ1 5
r ak
Ä±r ak
az ar
ĠgÃ¶ n
l ak
ĠB il
ĠP ro
ivers it
ĠeÄŁ itim
g el
Ġoy n
ĠC um
Ġb un
ĠO r
ĠsÃ¶y l
Ġk it
Ġkat Ä±l
rÄ± ca
ĠÄ° stanbul
s am
g e
Ġb it
n ak
ĠK on
A L
1 9
ĠM Ã¼
Ġm ut
Ġbil e
c om
Ġm ad
ĠkarÅŁ Ä±l
Ġg id
m uÅŁ
Ġbir i
ec e
Ġsor un
Ã§ ok
Ġg it
ĠÃ¼zer e
ĠgerÃ§ek leÅŁtir
h al
lan an
b ol
Ġh at
s al
eler in
Ġhakk Ä±nda
A K
ĠE ÄŁ
et i
Ġhar eket
Ġol uÅŁ
ĠÃ§alÄ±ÅŁ malar
an t
il ecek
en t
Ġb Ä±rak
lerin den
r i
Ġb azÄ±
Ä ŀ
ĠH aber
I N
Ġm i
ĠÅŁ irket
larÄ±n dan
E T
Ġpro j
en k
ĠÃ¼zer inde
ĠÃ¼r et
Ġiht iy
r es
Ġark adaÅŁ
ĠbaÅŁ ar
Ġson r
du ÄŁu
l um
Ġed ilm
Ġk aÃ§
Ġf ir
a j
Ġy Ã¼r
1 0
ĠÃ§ Ã¶z
Ġs Ä±n
g il
b ar
ĠyaÅŁ am
Ġs u
lam ak
Ġ /
Ġuz un
Ġan lat
Ġ #
ler le
ĠdÃ¼n y
ĠM u
Ã¼m Ã¼z
ĠgeÃ§ ir
Ġort aya
k Ä
iÄŁ i
ler imiz
kÄ ±
t Ä±ÄŁ
ĠÃ¼zer ine
ed ik
Ġuygul am
Ã§ i
Ġ20 0
A n
m ayÄ±
de m
ef on
Ġet mek
Ġm ev
m ay
Ġt al
Ġed iyor
Ã¼n kÃ¼
ekt edir
s in
v er
Ġbah is
Ġh ast
am az
r ar
g an
Ġm erkez
ĠB aÅŁ
m in
Ġt eÅŁ
Ġs eb
u cu
ĠyÃ¶n et
ĠbaÅŁ ka
d Ä±ndan
Ġp lan
e da
Ġf a
Ġif ade
eÅŁ it
ĠGen el
Ã¼ÅŁ ter
ak at
el im
ĠB ur
at ik
Ġ1 2
Ġkol ay
Ġgel iÅŁ
ad Ä±ÄŁÄ±
E L
len en
mas Ä±nÄ±
Ġ Ġ
Ġpro gram
Ã¼c ret
um uz
Ġd em
Ġan cak
m er
Ġb Ã¼tÃ¼n
ĠgÃ¶r Ã¼ÅŁ
ol u
Ġp ol
ĠyÄ±l Ä±nda
Ġh as
ĠÅŁ u
B ir
Ġ Ã¼cret
Ġt asar
ab a
Ġy ay
Ġp aylaÅŁ
ter net
Ġp iyas
Ġkab ul
ĠM il
Ġm et
san Ä±z
Ġk oy
ur t
Ġ Ã¼Ã§
g ul
g Ä
Ġ ,
gÄ ±
s uz
Ġay r
Ã¼Ã§ Ã¼k
Ġkad Ä±n
anÄ± t
Ä±y a
is tan
ede f
ĠkiÅŁ i
ĠaÃ§Ä±k lam
ay Ä±s
ti f
ab ilm
Ġo p
Ġyak laÅŁ
l im
Ġ un
tr ol
Ġt ah
d et
Ġbir Ã§ok
Ġy orum
ĠT L
o h
c h
Ġy as
Ã¶ k
Ġh an
Ġm aÃ§
ĠÃľ n
v ur
Ġbil gi
Ġter c
ĠsaÄŁ lÄ±k
Ä° L
ĠbÃ¶l Ã¼m
r ik
Ġs Ä
iz e
ĠsÄ ±
ob il
Ġk om
Ġ Â
g in
Ġd in
t em
ĠgÃ¶n der
ediÄŁ i
Ġd iy
Ġk es
ĠyÃ¼z de
du ÄŁ
ĠT ek
A T
c ek
as Ä±nÄ±n
Ġh is
Ġy ayÄ±n
Ä±yor uz
in deki
ĠT ar
ĠA B
eceÄŁ i
Ġede b
is ini
a g
ĠP ar
Ġar aÃ§
Ġol abilir
) ,
az et
m eler
Ġ %
acaÄŁ Ä
acaÄŁÄ ±
Ġbil in
Ġyak Ä±n
mas Ä±na
Ġb Ã¶yle
ĠÃ§ eÅŁit
T Ã¼rk
Ġ1 1
Ġed ilen
eda v
Ġm Ä
ĠmÄ ±
ĠAn cak
ĠE l
Ġ uÃ§
Ġz iy
m ez
Ġmil yon
Ġkon usunda
Ġh ep
Ġar dÄ±ndan
r ans
al t
en ek
Ä±l Ä±r
Ġkur um
Ġ1 8
Ä±l masÄ±
Ä° R
ĠiÃ§er isinde
oÄŁ an
il iyor
Ġr es
Ġf ilm
im di
Ã¼l tÃ¼r
ĠS an
b er
Ġyer ine
k Ã¼n
Ä±l dÄ±
Ġk Ä±r
ĠBaÅŁk an
v an
m adan
Ġm ah
ore x
ĠdeÄŁer lendir
Ä±yor um
ĠH er
il e
ĠCum hur
an an
el e
Ġterc ih
ĠMÃ¼ dÃ¼r
Ġi d
iler e
ĠA d
an k
Ġgel ir
A S
Ġr ahat
2 2
Ġtel efon
Ġvar dÄ±r
Ġk av
un dan
man Ä±n
Ġkap sam
Ġd o
is ine
Ġd ah
Ġ av
oÄŁ raf
ĠY ap
m alÄ±
al i
Ġson uÃ§
Ġyap an
ay et
s ik
Ġh edef
oÄŁ u
n de
Ä±m a
Ġv at
Ä±ÅŁ tÄ±r
Ġgel iÅŁtir
ĠÃ¼zer inden
acak tÄ±r
or t
ic aret
ley en
ĠB en
iz i
ey in
ĠÃ¶ÄŁren c
rup a
ĠD ev
E S
Ġ Ã¼n
ĠA t
em m
n ek
Ġk ez
ab Ä
abÄ ±
anda ÅŁ
Ġs osyal
Ġm an
Ġs es
u d
miÅŁ tir
Ä±ÅŁ Ä
Ä±ÅŁÄ ±
ĠY ar
Ġ e
Ġdev let
ek k
Ġ1 4
Ġyap mak
Ġm Ã¼ÅŁter
ĠA s
Ġkon trol
Ġm Ã¼m
Ġkal it
ĠgÃ¶r Ã¼l
oÄŁ un
Ġzaman da
ar asÄ±
O R
han gi
A M
ul uk
Ġin cel
Ä±r s
A Y
er li
ĠY Ä±l
o w
Ã¼c ad
Ã¼n Ã¼n
Ġ1 3
Ġek onom
Ġm ey
g Ä±n
v et
Ġt ur
Ġbu gÃ¼n
E K
ĠdÃ¶n Ã¼ÅŁ
un ca
Ġar aÅŁtÄ±r
sun uz
u c
ebilir siniz
Ġm as
Ġv ur
ar i
ĠBak an
Ġel de
Ġkay nak
Ġd ak
k ara
ĠmÃ¼m kÃ¼n
is yon
Ġziy aret
Ã¼ b
Ġyap tÄ±ÄŁÄ±
lan dÄ±r
r im
Ġ1 6
Ã¼k Ã¼m
Ġs ektÃ¶r
ĠbaÄŁ lÄ±
iy esi
Ġ li
Ġm er
ĠhiÃ§ bir
Ġgir iÅŁ
Ġt av
5 0
Ġgerek en
alar Ä±n
er j
Ġo d
Ġb or
Ġb Ã¼y
Ġtop lum
Ġhes ap
ak k
Ġben z
± t
Ä ±t
ĠkÄ±s a
Ġolduk Ã§a
Ġin dir
Ġar tÄ±k
v e
ĠbaÅŁ vur
ilm iÅŁ
Ġger i
g u
Ġin an
Ġz ar
d Ä±ÄŁÄ±nÄ±
1 2
ĠK an
ĠyÃ¶n tem
ĠM ah
Ġy en
ĠÃ§alÄ±ÅŁ an
o f
ĠY Ã¶n
ĠdÃ¼n ya
lem ek
ĠD Ã¼n
ĠB Ã¼yÃ¼k
am ak
at e
) .
ĠÃľn iversit
Ġb er
Ġi ti
Ġc ev
Ġo f
abil ecek
al iyet
L AR
acaÄŁ Ä±nÄ±
p an
Ġyar at
Ġalt Ä±nda
Ġtak ip
Â ł
Ġol ay
Ġk Ä±z
ĠS er
Ġtop lan
oloj i
ek li
Ġkal dÄ±r
kin ci
it ik
Ġol sun
Ġil et
Ġb unu
iy i
Ġgel di
ĠÃĸz el
Ġsiz e
r en
l as
ĠyÃ¼k sel
s il
ĠB iz
ta j
00 0
Ġk Ã¼Ã§Ã¼k
Ġhem en
ĠsÄ±n Ä±r
Ġis im
ĠÃ¶zel lik
Ġtak Ä±m
Ġ1 7
Ġm ik
ĠsÃ¼r e
Ġk ayÄ±
Ġneden iyle
Ġy ine
Ġy aÄŁ
ĠÄ° Ã§
u h
ĠgeÃ§ en
E M
Ã§ Ä
Ã§Ä ±
Ġp er
ĠO n
ti ÄŁi
um lu
Ġan laÅŁ
m em
is inin
Ġvat andaÅŁ
Ä±l mÄ±ÅŁ
Ġp ek
ĠE s
Ġben im
er n
d im
ĠÃ¶ de
U R
ĠAv rupa
ĠseÃ§ im
Ġtem el
ad Ä±ÄŁ
Ġher hangi
is k
Ġver en
m ir
eÄŁ in
us lar
Ġgerek ir
t Ä±m
Ġiti bar
Ġher k
el en
Ġm Ã¼cad
Ġd ir
Ġm em
ĠgÃ¼n Ã¼
Ġk oÅŁ
ĠB unun
al e
Ġ ac
l Ã¼l
Ġad am
eler ini
ĠM erkez
Ġgen Ã§
f er
ab an
f or
ad Ä±k
Ġkullan Ä±cÄ±
um u
Ġb ey
ĠAB D
Ġmod el
ĠsÃ¶yl edi
1 1
du k
ĠN e
d in
d oÄŁan
t in
ĠH al
uy la
ĠA ma
Ġs iyas
ĠAl lah
Ġn okt
Ġor an
ĠD r
Ġb ar
c o
ul an
Ġt at
ĠY eni
ĠÃĸ n
Ã¼s Ã¼
ĠhÄ±z lÄ±
ot oÄŁraf
Ġen gel
Ġt edav
Ġm ark
Ġ3 0
d um
Ġal mak
l o
p r
eceÄŁ ini
Ġf ay
3 0
Ġm ed
ĠdeÄŁiÅŁ ik
A B
eler e
Ġ20 20
an i
H P
m Ã¼ÅŁ
man Ä±z
Ġok ul
Ġet kin
r on
O N
Ġol up
ĠK as
ĠÄ° z
Ġs ab
Ġk il
c ut
ĠE y
c Ã¼
Ġt Ã¼k
ĠbaÅŁ ladÄ±
ĠdeÄŁ iÅŁtir
lan dÄ±
ekk Ã¼r
Ġi h
Ġs avaÅŁ
al l
Ġhaf ta
ĠO l
Ġol uyor
Ġuz ak
Ġs por
Ġr ek
er Ã§
ĠaÄŁ Ä±r
it e
b r
t im
Ġhal k
Ġed ildi
ĠT op
Ġb ilm
n da
Ġtek rar
d Ä±n
ĠAy rÄ±ca
ĠÃ§Ã¶z Ã¼m
Ä±s Ä±nda
b aÅŁk
dan a
Ġc ez
ĠÃ¶l Ã§
Ġkon usu
Ġes ki
Ġb unun
Ġin ternet
Ä° K
ĠT ur
Ġon un
Ġyeni den
Ġil Ã§
ĠK ul
ut bol
A D
ĠO k
Ġbil dir
ĠdeÄŁil dir
Ġs ak
Ġa it
alar da
Ġfa aliyet
ĠyÃ¶n elik
Ġbiz im
ĠsÃ¼r ec
Ġs in
an a
ĠiliÅŁ k
Ġtem iz
imiz in
Ġ20 21
iler ini
malar Ä
malarÄ ±
ad Ä±ÄŁÄ±nÄ±
Ġn er
es el
am p
Ġbir az
y le
ĠH az
Ġk esin
f orm
ĠÅŀ ub
k er
Ġc anlÄ±
ĠÃ¶zel likle
Ġs ey
b ak
n Ä±z
ekt en
lÃ¼ ÄŁÃ¼
ĠK al
al Ä±m
ĠE v
Ġgen iÅŁ
Ä° M
Ġk ir
ĠbaÄŁ lan
s man
i j
Ġsor u
Ã¼ f
Ä° Y
L ER
eler de
n i
ĠÃ§ aÄŁ
Ġsat Ä±ÅŁ
A r
if t
al at
ti v
Ġad et
larÄ± yla
ey im
Ġr aÄŁ
Ġ .
Ġek ip
Ġber aber
as Ä±ndaki
l Ä±yor
b u
imiz i
iniz e
Ġr enk
ed im
Ġist em
A l
Ġolm ayan
ĠÅŁ eh
al nÄ±z
Ġkit ap
ĠK ay
Ġ201 9
uk uk
Ġk ut
es inden
et men
en c
Ġk Ä±y
at i
Ġihtiy aÃ§
Ġs av
Ã¼ ler
lar dÄ±r
ĠyardÄ±m cÄ±
Ä±nÄ±z Ä
Ä±nÄ±zÄ ±
Ġh Ã¼kÃ¼m
TÃ¼rk iye
Ġv ak
ĠBeled iye
Ġs il
iz m
Ġy at
af a
Ġsal dÄ±r
Ġgerek li
c an
ĠS aÄŁ
Ġo tur
er asyon
Ä±s Ä±ndan
in ce
Ä±r ken
.... ....
1 5
iyet i
Ġc ih
Ä±nÄ± f
ÅŁ ehir
ĠraÄŁ men
as in
Ġ201 8
ĠO y
Ġbir bir
ĠÃ§alÄ±ÅŁ ma
ĠsÃ¼r dÃ¼r
Ġs ayÄ±
d Ã¼l
Ġm Ã¼z
Ġon u
de ÅŁ
uy u
ĠdoÄŁ r
et ay
Ġid di
ĠÃľniversit esi
ĠK o
ĠÃ§eÅŁit li
Ġd iz
acaÄŁ Ä±z
al et
ĠÃ§Ä±k an
ĠAn kara
l ilik
Ã¼n den
ĠÅŁ art
er e
u ÄŁ
Ġs uÃ§
ark en
A Åŀ
iler ine
ĠK ad
ĠT r
dÃ¼ ÄŁ
Ġmev cut
Ġyar ar
Ġda ir
Ġhis s
Ġort am
Ġb oz
k aÃ§
Ġs tr
is an
ĠÃ¶n er
ĠB Ã¶l
b e
Ġtan Ä±m
ĠEÄŁ itim
Ġal Ä±ÅŁ
Ġsay f
ĠyÃ¶n etim
at en
Ġort ak
ler iyle
Ġsay esinde
Ġpar Ã§
oh bet
ĠM art
m eden
Ġd ers
b ah
Ġad Ä±m
ir an
m eyi
imiz e
lat form
Ġar ac
as Ä±ndan
w w
Ġc an
Ġa il
Ġ201 7
ĠH as
Ġs ar
ÅŁ am
ĠÅŁek l
Ġd ayan
Ġw eb
larÄ±n Ä±z
ĠM ar
Ġb oÅŁ
Ġsan at
ĠG el
uslar arasÄ±
Ġt icaret
im de
Ġdol ayÄ±
ĠÃ§ iz
ĠU y
Ġel ekt
S on
l Ä±nda
ĠH ay
l is
Ġam aÃ§
v is
ap or
ĠiliÅŁ kin
ĠgerÃ§ek leÅŁ
Ġp azar
k il
Ġ2 4
ĠsÄ±r a
Ġu ÄŁr
Ġsat Ä±n
is ay
ĠB ey
ĠF orex
Ä±n tÄ±
Ġtal ep
ĠÃĩ Ã¼nkÃ¼
es iyle
l ek
ĠEr doÄŁan
Ġzar ar
ĠÃ§ev r
ĠB ay
Ġyan i
h at
ĠG Ã¶r
ĠD aha
Ä° n
l k
ez on
l ine
ĠV e
Ġmil let
Ã¼c Ã¼
ĠA K
Ġist eyen
Ġt eh
Ġneden le
Ġt Ä±k
im e
Ġot om
ĠÃ¼r etim
Ġy anÄ±
ĠaÃ§ Ä±l
Ġdah il
tiÄŁ ini
am Ä±z
Ġboy unca
Ġy oÄŁun
ĠR us
Ġtekn ik
Ġan da
Ġ erk
d ay
Ġf in
L I
az i
Ġoyun cu
Ġk Ã¼ltÃ¼r
ĠteÅŁ ekkÃ¼r
Ġed il
Ġ1 00
ok r
Ġed in
emm uz
b a
Ġf otoÄŁraf
Ġgel ecek
Ġist ediÄŁ
Ã¶r t
E D
lÃ¼ ÄŁ
s Ä±nÄ±z
ĠdÄ±ÅŁ Ä±nda
m al
Ġist iyor
Ġi y
ay fa
ĠÃ§ ar
Ġt he
is el
y ar
ĠÄ°n gil
Ġol sa
Ġd ok
ĠKas Ä±m
ĠkÄ±s m
an lar
Ġi kinci
Ġg ez
Ġin ÅŁ
ĠM ayÄ±s
Ġs ok
ĠH ar
Ġolacak tÄ±r
on s
ĠsaÄŁ lay
Ġ Ċ
ĠiÅŁ let
t aÅŁ
Ġdurum da
ers on
ĠaÅŁ aÄŁÄ±
at if
ĠkayÄ± t
Ġl is
ĠK r
Ġam ac
ĠseÃ§ enek
ĠI n
Ġhal e
ĠDev let
Ġg rup
s Ä±n
1 8
Ã »
Ġsiz in
Ġ2 5
ĠD em
ĠÃ¶r g
Ġt ep
Ġver di
ĠU z
Ġkor k
it al
Ġal dÄ±
Ġtop lam
Ġban a
o ok
Ġb ay
Ġb iÃ§
ĠÅŁ ehir
Ġbur ada
Ġi p
Ġhan gi
ef er
Ġsev iy
Ġ ey
Ġbek len
ĠO t
ĠE m
ĠA h
Ġbak Ä±m
in ci
Ġr ak
Ġkapsam Ä±nda
Ġsah ibi
il iÄŁ
Ä±ÅŁ Ä±k
ĠK om
eler inin
Ġgerek iyor
eh met
ĠBeled iyesi
Ġfay d
m esini
ĠkonuÅŁ tu
p it
as a
Ġim z
ĠA b
Ġar tÄ±r
ĠyaklaÅŁ Ä±k
Ġs aÃ§
Ġyap tÄ±
ĠO cak
isay ar
et in
ĠT emmuz
alar Ä±nda
Ġs t
ĠB ah
Ġun ut
ide o
ĠkarÅŁÄ±l aÅŁ
u an
Ġk ah
lu ÄŁ
Ġd etay
diÄŁ ini
Ġay rÄ±
Ġseb ep
l uluk
Ġyap Ä
ĠyapÄ ±
Ġen erj
c Ä±sÄ±
y o
en er
ĠyaÅŁ an
Ġgid er
Ġ2 1
Ġcev ap
Ġ201 6
Â Ń
Ġed erek
ĠA li
Ġetti ÄŁ
Ä° S
Ġmad de
ĠÄ°l k
em i
Ġan al
li f
Ġbilg iler
ĠA mer
on e
Ä° Z
ĠO sman
Ġor gan
Ġdo lar
ĠDÃ¼n ya
Ġh ey
eÅŁ tir
Ġy emek
ĠgÃ¼n cel
Ġy alnÄ±z
eceÄŁ iniz
Ġuygul an
ĠTek n
Ġ le
Ġgel iyor
ĠÃĸ r
ĠEy lÃ¼l
Ġbiz e
Ä±l Ä±m
ate j
oloj ik
Ġsit esi
Ġdak ika
Ġ2 3
Ã¼ le
Ġm aÄŁ
Ġ2 2
h ar
Ġn um
Ġf ik
eler ine
te p
Ã¼ ÄŁ
Ġcih az
Ġil er
in d
Ã¼m Ã¼
ĠPar ti
t ay
Ã¼l en
ĠN isan
Ġetk il
Ġen d
Ġede cek
Ä±l Ä±ÄŁ
Ġbir kaÃ§
ĠsÃ¼r eÃ§
Ġr isk
Ġm ek
Ġkullan Ä±m
Ã¢ n
Ġh atÄ±r
Ġhal inde
m ey
Ġetti ÄŁi
ir a
. |
Ġtarih i
Ġist er
l ayÄ±
Ġf Ä±rs
Ġc id
men in
Ġkay bet
m esine
Ġm a
em in
Ġan a
Ġkurul uÅŁ
an Ä±ÅŁ
ĠaÃ§ Ä±sÄ±ndan
* *
Ġdav ran
Ġmal z
l in
A y
ĠH av
mas Ä±nÄ±n
ĠS ur
ĠÃ§Ä±k tÄ±
Ġs Ä±nÄ±f
ĠÃĸ ÄŁr
ĠAr alÄ±k
2 00
I R
aban cÄ±
in c
asin o
ĠEk im
2 4
alar a
ĠE t
Ġbek l
ĠHaz iran
alar Ä±nÄ±
Ġm en
us al
on u
Ä±y Ä
Ä±yÄ ±
eb il
Ġg azet
Ġilet iÅŁim
Ä±r Ä
Ä±rÄ ±
iler inin
ĠB un
1 4
eb ek
et ler
m ayan
Ġf utbol
ĠÃ¶r nek
ĠÅŁ Ã¶yle
Ġak tar
B en
E n
Ġmes aj
orm al
Ġver ilen
Ġ j
Ġbel g
f es
eli dir
Ġde p
h am
ĠsaÄŁ lan
ed iye
Ġtes pit
s u
Ġk Ã¶y
g un
D E
Ġyan Ä±nda
raf ik
ĠtÃ¼r lÃ¼
t o
Ġs ezon
Ġtar t
Ġbel li
Ġn it
at Ã¶r
ĠdÃ¼ÅŁ Ã¼k
okt or
Ġp latform
ĠbaÅŁ lat
Ġuz man
1 6
ĠdoÄŁ al
Ġad Ä±na
2 5
U N
i i
Ġvar dÄ±
Ġk orum
c eÄŁ
l Ä±ÅŁ
ĠkÃ¶ tÃ¼
uv ar
Ġhav a
Ãľ N
am asÄ±
ab et
ĠkiÅŁ inin
Ġyaz Ä
ĠyazÄ ±
Ġad ay
Ġtem sil
Ġd ar
Ġiz in
Ġkonu da
ĠbaÅŁ lam
ĠsÃ¼r ekli
Ġkullan Ä±lan
ĠyÃ¼r Ã¼t
um a
ĠiÅŁ aret
Ġan lay
ad aki
tal ya
Ä° T
Ġerk ek
ildi ÄŁ
ĠsÄ± cak
Ġk o
Ġad Ä
ĠadÄ ±
1 3
mÄ±ÅŁ tÄ±
ĠTar ih
Ġkay b
Ġkap at
ĠbaÅŁar Ä±lÄ±
' s
Ä±s Ä±nÄ±
Ġsistem i
ev i
ĠÅŁ imdi
Ġ ab
Ġb on
ĠbaÅŁ kan
Ġy Ä±k
ĠtÃ¼k et
Ġn et
Ġ5 0
ĠsÄ±r asÄ±nda
Ġc in
m eyen
Ġtarih inde
s iy
v ek
Ã¼l t
il iÄŁi
abil iyor
st afa
g Ã¼r
Ġedeb ilir
ĠM ehmet
Ġm ez
Ġkar deÅŁ
l Ã¼m
ĠK ap
ĠsaÄŁ lamak
Ġg iy
ĠÅŁekl inde
Ġl ist
Ġp at
al ama
ac a
Ġn ak
ĠA Ã§
an taj
ĠP ol
ĠT ak
Ä±nÄ±z a
st os
elik le
Ġk as
ĠÂ »
Ġi t
Ġd al
uy a
b i
co in
Ġtart Ä±ÅŁ
ĠgÃ¼Ã§ lÃ¼
Ġad res
1 7
ĠS por
Ġtasar Ä±m
Ãľ R
A Z
ĠKur ulu
aÄŁ a
ĠAl man
lad Ä±ÄŁÄ±
asÄ± yla
Ġn edir
l Ã¢
ecek tir
ot or
Ġp r
Ġmik tar
Ġherk es
Ã¶ v
ĠsaÄŁ lam
Ġmu ht
Ġb ab
Ġd iyor
ĠEÄŁ er
ĠB it
y an
2 3
ĠsÃ¶z leÅŁ
Ġd emek
Ġh am
ĠyÃ¼z den
Ġolm uÅŁ
Ġ [
Ġg ec
Ã¼n cÃ¼
Ġon a
ĠY Ã¼k
st a
eb ilm
Ġbil im
Ġkal k
U L
ĠkoÅŁ ul
ĠU l
ĠH at
ir i
A P
Ġar asÄ±ndaki
emiz de
ĠÃ§ Ã¼nkÃ¼
Ä±mÄ±z a
ĠV er
ac k
Ġban k
len di
Ġmed ya
l og
Ġh ukuk
Ġder ece
eler inde
Ä±m da
Ġkal an
eg or
Ġinsan lar
r esi
Ġmey dana
or k
s en
ĠS Ã¶z
lu ÄŁu
Ġt r
Ġekonom ik
ler ce
ir Ã¼s
ĠgÃ¼ven lik
Ġpol itik
ĠgeÃ§ miÅŁ
I M
ĠbaÅŁ k
Ġan d
p er
Ä° ÅŁ
Ġs ohbet
Ġhas tan
ad olu
Ġr apor
ÄŁu stos
ak et
ĠD oÄŁ
Ä±yor du
ĠbaÅŁ lay
uk arÄ±
ĠÃĩ ok
ĠM an
t p
Ġy urt
b lem
Ġtamam en
Ġak Ä±l
ay acak
for man
Ġd os
ade m
ĠÃ¼cret siz
Ġb az
am Ä
amÄ ±
an Ä±z
ĠÅŀub at
os u
Ġseb eb
Ġtes lim
Ġim k
Ġsav un
Ġyar Ä±ÅŁ
Ġhes ab
Ġel e
ec i
g a
Ġp oz
g isi
ar lar
ĠH ak
Ġf orm
Ġd on
ĠÃ§ oc
s ak
Ä±s Ä±na
h a
laÅŁ tÄ±r
m eleri
k em
Ġs ol
Ä±mÄ±z da
Ġver ilm
mak ta
D A
ĠBakan lÄ±ÄŁÄ±
Ġ201 5
ĠÃ§ ift
ĠkiÅŁ iler
em ez
Ä±mÄ±z Ä
Ä±mÄ±zÄ ±
ĠÅŁ ah
liÄŁ ini
Ġm is
s er
ĠY aÅŁ
ĠHaber leri
Ã¢ r
Ġay rÄ±ca
Ġstr atej
eÅŁ il
Ġcid di
alar Ä±nÄ±n
malÄ± dÄ±r
baÅŁk anÄ±
ĠB ar
Ġyap tÄ±k
Ġn ok
dÃ¼ ÄŁÃ¼
± da
Ä ±da
n eÄŁin
Ġt ip
/ /
i den
im leri
f en
d Ä±z
len me
Ġek ran
miÅŁ ti
Ġpar t
ĠA f
Ġ X
Ä±n ca
Ġter Ã¶r
Ġbulun du
Ġyan lÄ±ÅŁ
lan mÄ±ÅŁ
Ġson ucu
Ġ Ä±s
Ġv Ã¼c
lÄ±k la
ĠD er
ĠH an
g o
Ġhast alÄ±k
ĠgÃ¼n lÃ¼k
t Ä±ÄŁÄ±nÄ±
Ġkam u
iz yon
ĠK at
iler ek
ĠSaÄŁ lÄ±k
Ġpol is
Ġson unda
ĠMerkez i
? ""
ver iÅŁ
ĠyapÄ±l acak
Ġ ah
Ġp erson
Ġkar t
Ġs ig
Ġyap tÄ±r
em al
b aÅŁ
ĠG ir
Ġkur al
a ir
Ġhal ine
ĠG Ã¼ven
Ġb es
tiÄŁ imiz
Ġop siyon
' '
ĠD eÄŁ
Ġolm az
Ä±yor lar
Ġ um
men iz
Ä±l Ä±ÄŁÄ±
Ġr uh
ĠA ÄŁustos
Ġol un
ans Ä
ansÄ ±
Ġkat kÄ±
Ġed ilir
ĠT Ã¼m
y um
Ġmer ak
ler dir
ers iz
Ġver ir
Ġvar sa
Ġan n
m ed
ĠYar dÄ±m
Ġ emek
ĠGÃ¼n cel
ad de
Ġsonr asÄ±
d ak
Ġm obil
Ġboy ut
Ġk elim
en gin
ĠB ank
Ġyer de
ĠD eniz
ĠÄ°z mir
ildi ÄŁi
ĠMil let
ĠÄ° st
ĠT er
: //
t ul
Ġc am
Ġb eni
Ġver mek
ĠyÄ±l lÄ±k
Ġser vis
Ġbilg isayar
Ġmu h
iniz in
Ġitibar en
Ġp an
ĠÃ¶ÄŁr etmen
Ġz aten
Ġor ta
ĠÃ¼lk e
pan y
er ler
Ġden eyim
Ġ19 9
m iyor
at a
Ä±nÄ±z da
ĠÄ°n san
d Ã¼k
G Ã¼n
ĠÃ¶ yle
ĠMu stafa
Ġtekn oloj
t Ã¶r
ĠÃ¶l Ã¼m
Ġbulun maktadÄ±r
Ġist en
Ġbulun duÄŁu
Ġalt Ä±na
l ulu
m anÄ±
t Ä±n
o u
ĠB Ã¶yle
Ġver diÄŁi
ov a
ĠÃ¶l dÃ¼r
ĠÃ¼n iversit
Ġyap tÄ±ÄŁ
forman s
len mesi
Ġg iz
Ġpro blem
ĠdÃ¼z ey
Ġmil yar
Ġsay Ä±sÄ±
b ilir
aÄŁÄ± t
Ġamac Ä±yla
dÄ±ÄŁ Ä±nda
ost a
Ġk af
Ã¼n Ã¼z
Ġal dÄ±ÄŁÄ±
in Ã§
ĠT ab
Ġt est
Ġh ik
ĠÃ¶rg Ã¼t
ĠG azet
ĠB ul
amp iyon
da ÄŁ
iniz de
Ã¼y orum
l Ä±lÄ±k
Ġmak in
ĠY az
Ġy um
Ġkend ini
Ġsor um
Ġsil ah
lad Ä±k
im li
Ġt rans
ĠgÃ¼n de
ĠsÄ±n av
ĠM es
ĠR es
0 5
ĠÃ¶de me
Ġzor unda
imiz de
Ġduy ur
i a
ĠsaÄŁ lar
Ġek sik
aÅŁ a
alar Ä±na
m adÄ±
ĠoluÅŁ an
ĠbaÅŁ layan
Ġas ker
ĠK Ã¼r
Ġot el
Ã ½
mam Ä±z
lak a
ay i
ĠbaÅŁ Ä±na
alÄ± dÄ±r
Ġyet erli
m ar
iy di
H er
az Ä±m
et r
s im
Ġv ideo
± c
Ä ±c
ĠV E
ati on
Ġd Ã¶rt
ĠalÄ±n an
eÄŁ en
ĠS it
Ġay ak
ĠF akat
ĠS u
k e
og le
Ġbas Ä±n
abilm ek
ĠN asÄ±l
Ġf akat
ĠK Ä±r
it ap
Ġ201 4
Ġm in
Ġg ar
y Ä±l
Ġkay n
Ġken t
ilen dir
Ġk um
em en
Ġetk ili
g en
ĠbaÅŁvur u
en Ã¼z
Ġyol u
ĠdÃ¶nem de
Ġk ey
Ġn eler
ĠdoÄŁr ul
O L
ĠdÃ¼ny anÄ±n
Ġt ec
ĠgerÃ§ ekten
E r
K ar
f ak
Ġner ede
id det
Ġinsan larÄ±n
Ġyok tur
Ġy em
art esi
Ġyer e
ĠfÄ±rs at
t on
Ġtek lif
ĠBak anÄ±
m el
Ġh oÅŁ
Ġg ru
Ġhat ta
Âł Âł
Ġmem nun
Ġif ad
Ġes n
ĠmÃ¼cad ele
ĠsÃ¶y lem
Ġas lÄ±nda
Ġdurum u
eb ilecek
et ik
ĠkatÄ±l Ä±m
ter n
ĠÃĩ in
ĠmÃ¼cad el
in a
Ġyan a
im ler
ĠKul lan
ĠS t
I L
. )
Ġf ak
Ġart Ä±ÅŁ
ĠAn adolu
Ã¼s lÃ¼m
ayÄ±s Ä±yla
ad Ä±m
Ġbir ey
Ġk uÅŁ
ĠÄ°s lam
m ayÄ±n
Ġf or
p ar
Ġav antaj
ro s
Ġg ece
am sun
Ġ201 3
ĠbaÅŁ lan
ĠY ani
Ġkr edi
Ġb una
Ġv az
un larÄ±
ĠbaÄŁ Ä±m
ĠMÃ¼dÃ¼r lÃ¼ÄŁÃ¼
Ġkar ak
ĠS al
o ogle
Ġhizmet i
Ġmalz em
Ġuy ar
Ġbah s
Ġhay van
Ã¼m e
en ler
ĠdeÄŁiÅŁik lik
s iye
Ä±n t
Ġd ost
tan d
Ġt ed
Ġbulun uyor
Ġsonr asÄ±nda
ĠÃĩ alÄ±ÅŁ
ey n
ek siyon
g Ã¶r
mam Ä±ÅŁ
ĠG eÃ§
am am
ĠÃĩ ocuk
ĠS iz
U M
Ġk Ä±l
Ġkalit eli
ĠM ec
Ġy abancÄ±
Ġb eÅŁ
Ġop erasyon
Ġ20 22
f i
Ġon ay
ĠP er
Ġok uy
Ġed ilmesi
Ġr e
Ġson uc
0 3
Ġolm adÄ±ÄŁÄ±nÄ±
Ġ2 8
t eki
Ä±mÄ±z Ä±n
A H
u ar
0 1
ĠT el
Ġp uan
ĠF rans
Ġal Ä±yor
ĠBÃ¼yÃ¼k ÅŁehir
eceÄŁ iz
Ġden iz
ĠdÃ¼ÅŁÃ¼n c
r ac
y Ä
yÄ ±
ĠKad Ä±n
Ġet tik
uv vet
O S
ĠRus ya
k ili
ĠA ÅŁ
ĠdÃ¼zen lenen
yon el
iÅŁ i
g eÃ§
ĠÄ°ÅŁ te
ĠS en
ĠsayÄ± da
Ġrek lam
âĢ ľ
ĠM er
ĠyaÅŁ ayan
ĠgÃ¶ tÃ¼r
Ġc il
iz ik
s eniz
asyon u
g esi
Ġn ormal
z er
Ä±s Ä±nÄ±n
at Ã¼rk
Ġper formans
erÃ§ ev
Ġsun ul
fes yonel
eb ook
ij ital
Ġil aÃ§
Ġanal iz
ĠyaÅŁ anan
ĠH izmet
ĠÃľ r
Ã¼n y
Ġsiz i
Ġd oktor
Ġdil e
m uÅŁtur
Ġtar z
Ġes er
ĠsÃ¶y ley
l Ä±ÄŁÄ±nÄ±
ĠM al
Ġzor un
Ġ aÅŁk
ĠK am
Ġ2 7
Ġu c
Ġ ...
y as
s por
ediÄŁ ini
0 9
ip ar
ĠPro f
ĠyÄ±l Ä
ĠyÄ±lÄ ±
Ġtop rak
r ek
Ãĸ z
ĠA ÄŁ
u st
ĠS or
ĠS el
Ġg ol
p p
et e
ĠaÅŁ am
Ġr ol
Ġar aya
Ġt anÄ±t
Ġ ?
larÄ±n Ä±zÄ±
ĠS Ã¼r
2 8
Ġdurum unda
A k
ab z
Ġz engin
ĠT an
0 4
ed iy
ar d
Ġetkin lik
Ġ >
Ã¼p h
lan masÄ±
Ġ ir
s on
2 6
Ġgerek tiÄŁini
lad Ä±ÄŁ
ð Ł
ĠÃ¶ dÃ¼l
ek s
h er
un an
ĠÄ°ngil iz
Ġbenz er
Ġay Ä±nda
Ġdev r
ĠbaÅŁ Ä±nda
iyor du
Ġfir malar
ur um
ĠÃ¶n Ã¼nde
mam ak
. ,
Ġyan dan
Ġ2 6
0 6
le v
m asÄ±nda
ĠDem ir
Ġb al
d it
ĠGen Ã§
Ġo ÄŁ
ĠB as
Ġb eri
Ġed iyorum
at Ä±ÅŁ
ĠiÃ§er ik
ĠgÃ¶rÃ¼n tÃ¼
Ġtedav i
ĠC HP
Ġyap arak
lar ca
Ġi c
ist ik
Ġar ada
ĠMil li
um suz
Ġbelir ten
- -
or d
Ġ &
i ir
ĠS ar
Ġm otor
ĠÃ§ar p
Ġkan al
ĠyapÄ±l masÄ±
0 8
uz ey
ĠtaÅŁ Ä±m
ĠÃĸzel likle
ĠbaÅŁ arÄ±
ĠgÃ¼ven ilir
B ur
len miÅŁ
0 7
Ġay Ä±r
ĠP art
Ġyarar lan
ĠS ev
Ġal Ä±m
Ġf Ä±r
um hur
Ä±ÄŁ Ä±n
Ġkarak ter
Ġkullan arak
d al
ĠS osyal
ĠÃ¶nc eki
2 7
g ar
Ġalt Ä±n
Ġres mi
ĠAh met
ĠM ak
Ġuygul ama
ark Ä
arkÄ ±
ac ebook
Ġder ec
ĠuÃ§ ak
Ã§ ak
m Ä±yor
b ur
Ġolm adÄ±ÄŁÄ±
duÄŁ unu
Ġyap ar
Ġnok ta
Ġbas it
Ġak ÅŁam
ast ik
ĠyatÄ±rÄ±m cÄ±
im in
Ġil an
n iyet
ĠAy nÄ±
Ġm ar
ĠmÃ¼ da
Ġh Ã¢
ik ayet
Ġsiyas i
Ġgir iÅŁim
eler den
Ġaz al
Ġs oÄŁ
ma da
Ġgerek mektedir
ĠY ak
Ġn es
Ġalan da
ĠÃ§ erÃ§ev
ĠMÃ¼dÃ¼r Ã¼
Ġok um
Ġkim s
Ġad lÄ±
Ġfin ans
Ġtes is
ĠÃ§oc uÄŁ
Ġalan Ä±nda
Ã¼p er
ĠsaÄŁlÄ±k lÄ±
Ġn ef
Ã§ iler
Ã¼l Ã¼
ed eki
Ġd am
Ġul uslararasÄ±
ĠYÃ¶n et
Ġfik ir
len ir
Ġmut laka
Ġyap Ä±yor
Ġay ar
vek ili
bak an
Ġf on
ĠÃ§ev ir
Ä±l Ä±yor
g am
Ġal Ä±r
Ä° Åŀ
ĠÃ§ ab
Ġs p
Ġist iyorum
Ġd aÄŁ
tand art
l isi
Ġhay al
Ġelekt rik
Ġteh lik
Ġar z
o da
Ã¼mÃ¼z de
Ġil eri
Ġhal de
ĠYÃ¶n etim
lar Ä±m
ĠmÃ¼ÅŁter i
ĠB or
Ġsahip tir
ĠT em
Ġy anÄ±t
y en
I K
Ġbiz i
ter e
ĠgÃ¶r mek
Ġh enÃ¼z
Ġat eÅŁ
acaÄŁ Ä±nÄ±z
uz ur
ay la
s Ä
ĠÃ¶z gÃ¼r
Ġz am
Ġhaf t
ĠC h
w it
m Ä±zÄ±
sÄ ±
Ġenerj i
Ġkar arÄ±
ĠPro j
s ay
Ġk eÅŁ
0 2
ĠgÃ¶rÃ¼n t
ĠÅŁ iddet
S T
ĠsaÄŁ layan
Ġp op
Ġil gi
ĠÅŁey ler
Ġperson el
ĠÅŁ eyi
Ġt o
ler inizi
ad Ä±r
Ġc asino
Ġbel ki
Ġkur tar
ĠO d
Ġvur gul
Ġey lem
aÅŁ Ä±r
acaÄŁ Ä±m
Ġmerkez i
Ġsen e
Ã¼y le
as i
Ġgenel likle
Ġyaz ar
L E
Ġder in
eÅŁ ik
ĠkiÅŁ isel
Ġart tÄ±r
Ġd Ã¶v
Ġet miÅŁ
Ġdol dur
ĠCumhur iyet
ĠiÃ§in e
Ġhar c
2 9
ĠYÃ¼k sek
es s
Ġm Ã¼k
A C
is e
Ġmut lu
ilm iÅŁtir
sÄ±z lÄ±k
Y eni
Ġp o
in k
ĠK im
Ġkav ram
ĠtaÅŁ Ä±n
Ġy avaÅŁ
l edi
Ġbil et
d am
ĠÃ§ oÄŁu
Ã¢ h
Ġdos y
Ġsit eleri
Ġg Ã¼l
Ä±l maz
ĠK az
ĠS istem
tad an
t ak
mek te
Ġon line
Ġ2 9
Ġc ep
Ġmek an
ĠyalnÄ±z ca
Ġg ay
lÄ±ÄŁ Ä±n
il ebilir
"" ,
Ġkam er
4 0
ĠtaÅŁ Ä±y
ĠA m
al tÄ±
ĠalÄ±ÅŁ veriÅŁ
Ġs em
ĠK Ã¶
h end
. âĢĿ
ĠeÄŁ it
Ġk Ã¼r
y ap
Ġkend isine
Ġhal a
ey le
Ġsay Ä±lÄ±
ĠeÄŁ er
g r
Ġihtiy ac
ul lah
Ġkazan Ã§
Ä° stanbul
r em
ĠOsman lÄ±
Ġod ak
Ġli der
Ġd Ã¶k
om an
Ġd iÅŁ
ĠY orum
ĠÃ§ al
Ġhast al
Ġkon um
il im
ĠyapÄ±l Ä±r
ĠSur iye
Ġdak ik
g ili
Ġ4 0
Ġtah min
t iler
Ġal acak
b est
Ġd ek
Ä±l acak
r Ã¼b
ĠB in
Ġtar if
Ġ201 2
Ġbilg ileri
Ġi dar
Ġel eÅŁtir
ĠK Ã¼ltÃ¼r
Ġtoplan t
Ġkur tul
on a
lan Ä±r
Ġol umsuz
Ù İ
ĠsÄ±r ada
ĠD ol
Ġ +
Ġbul uÅŁ
en e
al a
ï ¿
Ġnum ar
ĠmÃ¼z ik
Ġbelir li
ĠeÄŁ len
ï¿ ½
ĠK emal
Ġede ceÄŁ
larÄ±mÄ±z Ä±n
b ay
ipar iÅŁ
at ur
Ġver iyor
ĠdÄ±ÅŁ Ä
ĠdÄ±ÅŁÄ ±
ed eni
Ġn ot
d iler
alat asar
Ãĸ n
es iz
c il
Ġy ans
Ġbey az
ĠbaÅŁ ta
Ġar asÄ±
ĠD o
ener bah
k ar
Ġon larÄ±
s as
ĠiÅŁ i
Ġsit e
y se
Ġl azÄ±m
ĠK ol
Ġtal eb
h i
el iÄŁ
Ġm ec
alatasar ay
Ġar acÄ±
Ġtav siye
O K
Ġs oy
Ġs efer
ĠÃ§alÄ±ÅŁmalar Ä
ĠÃ§alÄ±ÅŁmalarÄ ±
ĠL ig
ĠÃ¶ ÄŁ
ĠB r
Ġfaz l
ĠG Ã¶
Ġal arak
ĠgÃ¶ster en
Ġyol c
E V
Ġkazan dÄ±r
Ġolur sa
an d
Ġyap acak
Ġb i
ĠBir liÄŁi
ken in
ti on
Ġs ur
ĠB aÄŁ
en g
iÃ§ ek
ĠHas tan
ĠÃ¼y e
el t
ron ik
Ġbor Ã§
ĠÃ¶ÄŁrenc iler
Ġg Ã¼c
Ġsiz lere
lar dÄ±
lay Ä±n
ĠAt atÃ¼rk
ĠBu gÃ¼n
Ġyap mÄ±ÅŁ
o ur
dÄ±k tan
r in
Ġkay det
Ä±l dÄ±ÄŁÄ±
Ġ eg
lÄ±ÄŁ a
Ġem in
Ġkor un
Ġy ukarÄ±
Ġcez a
Ġkay de
ur u
on ya
Ġed iyoruz
B iz
ul masÄ±
Ġfa iz
ĠÃ¶n Ã¼ne
ĠÄ° yi
k Ä±n
Ä±sÄ± t
Ã¼slÃ¼m an
t aki
c Ä±lÄ±k
ĠmÃ¼da hal
ĠdeÄŁer li
ĠÅŁ ans
Ġsab ah
Ġk op
ĠÃ¶n e
Ġt e
20 21
Ã¼yor uz
acaÄŁ Ä±na
Ġeder im
er ken
dik leri
ĠaÃ§Ä±klam ada
Ġg ide
ĠiÅŁ e
8 0
Ġik ti
Ġyer i
m Ã¼r
esin deki
abil eceÄŁi
Ġon larÄ±n
Ġde f
ĠÃ¼n lÃ¼
Ġde fa
ter ek
Ġh Ã¼c
l iye
Ã¼t fen
ĠĠ ĠĠ
Ġl im
emm el
ĠD Ã¶n
ĠiÃ§ i
iy ah
ĠÅŀ imdi
âĢ ĵ
Ġt Ã¶r
i di
ĠD iÄŁer
ĠG Ã¼l
ip to
G en
iv il
r om
uyor uz
Ġk ok
I Z
ĠK end
ĠTÃ¼rk Ã§e
Ġhey ec
ĠS ay
Ġyer leÅŁ
Ġhaf if
ra il
ĠBit coin
Ġ ef
ĠS in
Ġdem okr
ĠK Ä±z
am ay
da ÅŁ
ĠS eÃ§
........ ........
± larak
Ä ±larak
K K
E ÄŁ
E k
ev izyon
Ġhayat Ä±nÄ±
ĠÄ°Ã§ in
ĠÃ¶nemli dir
Ġsonr aki
ĠC an
ĠâĢ ĺ
ĠgÃ¼ven li
Ġlis ans
in al
ĠD ern
Ġal anÄ±
ĠÅŁ Ã¼ph
Ġa ile
ĠCumhur baÅŁkanÄ±
Ä±s Ä±nÄ±z
ĠK or
Ġpro fesyonel
ĠsaldÄ±r Ä
ĠsaldÄ±rÄ ±
ĠTarih i
iy an
Ġet mektedir
ĠkarÅŁ Ä±sÄ±nda
ĠAÃ§ Ä±k
ĠF iyat
lay arak
ek im
Ġdol u
6 0
iÅŁ leri
Ġol ma
E Y
Ġolm uÅŁtur
Ġyay Ä±m
iz asyon
ĠgÃ¶r en
Ġiz ley
Ġh uzur
l iyor
Ġf il
Ġp aket
Ġbit ir
ah im
Ġmes af
ĠY er
Ġen f
ĠM ed
Ġg al
al lah
ĠÃĩ ev
Ġtut uk
ĠT he
Ġyay gÄ±n
aÄŁ an
Ġfiyat larÄ±
Ġbir isi
Ġmal iyet
ĠkarÅŁ Ä±lÄ±k
p ek
m edi
k eri
ĠdeÄŁ iÅŁim
enerbah Ã§e
U S
h is
eler inden
Ġay lÄ±k
ĠsÃ¼r ede
Ġkesin likle
E C
lÄ±ÄŁ Ä±na
ĠAmer ika
Ġm at
Ġtec rÃ¼b
Ġproj e
ĠS ayfa
Ã¼ ya
ok er
P ro
B aÅŁ
ĠMah all
wit ter
Ġ la
20 20
Ġpoz isyon
E l
Ġak l
Ġtemsil c
ĠT ay
al am
q u
ĠP azar
Ġhayat a
ĠH akk
Ġdavran Ä±ÅŁ
Ġanlam da
ĠdÃ¶nem inde
Ġes as
an dÄ±r
H aber
siz lik
us un
Ġb at
ĠSan at
ĠG Ã¶k
ĠdÃ¼ÅŁ Ã¼r
Ġmad d
ĠF at
3 5
ĠF ilm
ĠdÃ¼nya da
Ġhiss et
Ġbelirt ti
ĠF ak
ĠD av
ĠL is
Ġet tir
eÅŁik taÅŁ
ĠaÃ§Ä±k lama
ur o
Ġyaz Ä±lÄ±m
ĠyÃ¶net ic
iy im
âĢ ¢
ĠÃ¼rÃ¼n leri
Ġak tif
ĠO L
ĠBur ada
Ġd Ã¼ÄŁ
liÄŁ e
ĠiÅŁlem i
ey gam
ĠÃ¶n lem
ĠAlman ya
k u
Ġd el
dÄ±k larÄ±
Ġtak dir
af ir
ĠAy dÄ±n
Ġ us
mam asÄ±
ib er
Ġar ay
ĠyÄ±l dÄ±r
ĠAn d
Ġkat egor
Ġyer el
ul tan
Ġ: )
n am
Ġ' '
Ġyok sa
r aman
Ġaz alt
Ġs Ã¼t
ĠK Ä
Ġt az
ĠS avaÅŁ
Ġmes el
Ä±lÄ± Ã§
Ġy iy
Ġbon us
Ġkend ine
ik let
Ġtoplan tÄ±
liÄŁ inde
Ġyer inde
t uk
ĠOy un
ar e
Ġkal dÄ±
Ġedilm iÅŁ
Ġb ol
ĠsÄ±k Ä±ntÄ±
Ä±s Ä±z
ĠB unu
Ġar ama
diÄŁ imiz
Ġtrans fer
ayÄ± f
Ġpro t
ĠKÄ ±
4 5
Ġs ek
ĠÃ¶ dem
Ġor anÄ±
Ä±ÅŁ tÄ±
Ġtab i
Ġyer leÅŁtir
en di
abil eceÄŁiniz
Ä° s
Ã¶y l
bet te
Ġet me
ĠÃľ y
Ġkap Ä
ĠkapÄ ±
ĠyapÄ±l dÄ±
Ġv b
O r
Ġf el
ĠM od
ĠyÄ±l larda
Ġak s
g al
Ġn Ã¼f
Ġp sik
ĠbaÄŁlan tÄ±
ma il
Ġg az
Ġgerek tir
ed iler
at Ä±n
ĠT es
ĠdÃ¼zen lem
Ġtut ar
Ġb ed
ĠÃ ¢
z e
Ġb eÄŁen
ĠV al
eler le
Ġsonuc unda
d Ã¼m
Ġanlam Ä±na
Ġd ay
Ġs el
ĠPro gram
Ġkullan dÄ±
Ġol umlu
lÄ±k lÄ±
lam asÄ±
Ġ Ä±ÅŁ
g er
uyor um
A V
Ġim kan
ĠKur ul
l y
Ġdav et
Ġ *
ti c
Ġbun dan
iy er
Ġs ap
Ġfiyat Ä
ĠfiyatÄ ±
gÄ± Ã§
Ġkam pany
Ġ0 9
ak ar
Ġiddi a
as ayfa
Ġ ap
ĠM Ã¼z
Ġip tal
Ġs tandart
Ġson a
Ġal dÄ±ÄŁ
ĠdoÄŁru dan
ĠÅŁ if
eygam ber
tern atif
Ġf izik
er v
atÄ±r Ä±m
ac Ä±lÄ±k
a i
Ġp iÅŁ
Ġal ma
Ġbun lar
Ġm eÅŁ
Ġd anÄ±ÅŁ
Ġer iÅŁ
ĠG Ã¶z
Ġduy gu
ĠD Ã¼z
ĠT icaret
ĠgÃ¼n lerde
abilm ektedir
al im
ĠbiÃ§ imde
Ġd u
z et
ĠT aÅŁ
r ed
Â »
Ġb ebek
ĠC am
ĠgÃ¼n eÅŁ
ĠA lan
ĠyaÅŁ Ä±ndaki
hend is
ut an
ĠÃ¶ den
ĠDern eÄŁi
ĠA L
il li
ĠB al
Ġh ap
as Ä±n
liÄŁ in
Ġkim se
Ġtat il
ĠO p
ĠUy gul
Ġbilin en
l iler
ĠakÄ±l lÄ±
Ġh ac
Ã¼st Ã¼
Ġl ira
on av
l ediÄŁi
s ur
Ġ201 1
ĠV ar
Ġolm asÄ±na
ĠN o
Ġhik ay
Ġbelir terek
Ġyas ak
Ġar a
Ġolm adan
ĠkiÅŁ ilerin
ĠaÃ§Ä±k ladÄ±
may acak
larÄ±mÄ±z Ä
larÄ±mÄ±zÄ ±
Ġuc uz
Ġver i
ĠBur sa
Ġsor unu
Ġb Ã¼t
Ġ Ä±ÅŁÄ±k
Ġbir im
T ar
f et
ĠistediÄŁ iniz
em iÅŁ
Ġ asÄ±l
Ã¼n deki
ĠuÃ§ uÅŁ
ĠÃ§ ap
Ä±r Ä±m
ĠB et
o ca
lÄ±k lar
Ġinsan Ä±n
ĠHal k
ĠY ayÄ±n
ĠÃĸr neÄŁin
Ġser t
ĠH am
ĠAr aÅŁtÄ±r
ĠM ur
ĠY ol
ĠG oogle
Ġal mÄ±ÅŁ
A Äŀ
Ġk Ä
ĠiÅŁlem leri
Ġyet iÅŁ
br Ä±s
ĠÅŁ ar
Ġer ken
ĠkÄ ±
ad i
ĠT V
N e
m ur
ĠY Ã¼z
Ġ af
ĠseÃ§ en
Ġp as
Ġk uvvet
Ġt on
r y
ĠS amsun
t arÄ±
alar dan
is inden
m eli
Ġ )
Ġhay Ä±r
ĠeÅŁ it
A na
Ġle z
Ġoy unu
Ġvaz geÃ§
ĠÃľ st
Ä±s Ä±r
I Åŀ
eÄŁ ini
Ġhizmet leri
ic ari
ĠhazÄ±r lan
rac at
diÄŁ inde
ro id
ĠBil g
ĠÃ§Ä±k Ä±ÅŁ
Ġet meye
ĠÃ¶zel liÄŁi
r um
Ġsey ahat
Ġsok ak
ĠaÅŁaÄŁÄ± daki
A d
201 9
b an
Ġotom obil
tep e
liÄŁ ine
Ġtem in
t el
Ġk em
Ġolan ak
leÅŁ me
Ġyas al
Ġedebilir siniz
Ġ â
as it
An asayfa
em a
emiz in
L Ä°
Ġkar Ä±ÅŁ
at or
ĠolduÄŁ una
H ay
Ġas la
Ä±l mÄ±ÅŁtÄ±r
ĠÃ¼Ã§ Ã¼ncÃ¼
ĠÃ¶zellik leri
on d
Ġay dÄ±n
ES Ä°
Ġotom atik
Ġyet iÅŁtir
Ġyap maya
ĠÃ¶lÃ§ Ã¼
r ah
ebilir iz
Ġbir ik
ĠgeÃ§ erli
Ġpop Ã¼ler
dik ten
ow s
Ġ5 00
ĠÅŁ ikayet
lik leri
ww w
et leri
Ġdah i
ĠiÅŁ Ã§
p osta
h one
em ey
ĠbaÅŁ lar
Ġf orex
Ġd ijital
n dan
pan ya
ĠS ah
ak a
± f
Ä ±f
Ġhakk Ä
ĠhakkÄ ±
Ġiy il
Ġhis se
ĠaraÅŁtÄ±r ma
T C
Ġal Ä±p
est or
Ġok un
Ġan ne
ĠH em
ĠU n
ĠÄ° ran
D P
Ġor ada
Ġal tÄ±
em be
Ġn edeni
Ġs ipariÅŁ
a in
us unu
ĠÅŀ irket
Ġted bir
ĠBank asÄ±
t is
201 8
Ġi de
ĠÃ§ek en
Ġkend isini
Ġetk isi
Ġkon ut
Ġkullan Ä±mÄ±
D ev
ez i
is iniz
av i
s ini
ĠÃ¼rÃ¼n ler
sta gram
A s
Ġp ay
ĠyÄ±l da
Ġson u
ĠyÃ¼z yÄ±l
Y A
Ġdir en
Ġbun larÄ±
Ġok u
Ġvak it
ĠD Ä±ÅŁ
ediÄŁ iniz
O M
Ġon lar
ĠÃľ lk
Ġser best
ĠA z
ĠÃĩ ar
ĠÅŀ ah
ĠiÅŁ te
Ġal g
cÄ± lar
ĠY an
ĠHaber ler
ĠB una
ĠÃ¼l kenin
Ä±l abilir
Ġor tadan
ĠYardÄ±m cÄ±sÄ±
ĠB azÄ±
ĠKÃ¼r t
Ġt as
ĠK ah
ĠH ol
em esi
Ġbun larÄ±n
Ġ6 0
Ġh us
ayÄ± p
m adÄ±ÄŁÄ±
az a
A v
ur ken
g Ã¼
ĠsÃ¼r esi
unuz u
r ay
ĠD ur
Ġon lara
Ä±z a
Ġg iden
i e
ĠsÃ¼rec i
ĠD en
ĠgeÃ§ ti
Ġev de
ĠBÃ¶yle ce
es tiv
ĠKo ca
Ġkor uy
Ġkend isi
. '
ĠÄ°l Ã§e
Ġk od
Ã§ uk
Ġyaz Ä±lÄ±
ers in
Ġik ili
it y
Ġden ey
ĠA R
Ġ201 0
ĠR e
ul du
ĠTr abz
Ġk aÅŁ
Ġh t
r ika
ĠAn talya
Ġ ez
Ġb ec
Ä±m Ä±n
ĠmÃ¼k emmel
lerimiz i
T ek
am et
Ġoyun c
Ġd uvar
ĠV ak
3 3
n den
Ä±y dÄ±
ers eniz
es e
mem iÅŁ
Ä±n dÄ±r
Ġbaz en
ĠÃ¶nc esi
ĠM as
Ġtekn oloji
1 00
ĠmÃ¼ dÃ¼r
Ġnit elik
eÄŁ e
ĠS adece
Ġl ir
ĠG azi
Ġy ada
ĠF ir
Ġs enin
ĠMahall esi
Ġmod ern
ĠyÃ¶net imi
an lÄ±k
ĠinÅŁ a
Ġyet kil
ĠM ark
ĠiÃ§er en
Ġist ih
s Ã¼z
ĠS p
ley ici
B il
eceÄŁ im
edik leri
Ġser may
Ġprogram Ä
ĠprogramÄ ±
ĠD oÄŁu
Ġt a
Ġet mesi
Ä±nÄ±z Ä±n
ĠTekn ik
o j
ĠdÃ¶nÃ¼ÅŁ tÃ¼r
ĠÃ¶ÄŁren ci
ĠK Ä±s
Ã¼le bilir
ĠAmer ik
ilm ektedir
ĠÄ°ÅŁ lem
Ã¼m Ã¼ÅŁ
E v
K ay
Ġgetir en
Ġtan e
Ġrak am
ĠaÅŁ Ä±rÄ±
k iler
is iyle
eb iliyor
ĠiÅŁ bir
ub e
Ġbas kÄ±
diÄŁ iniz
Ġk m
ĠdoÄŁ um
ĠE ÅŁ
s at
er t
Ġanlay Ä±ÅŁ
im ar
ĠÃ¼zer indeki
ĠH af
Ġi b
4 4
ĠG erÃ§
, ""
ĠY et
Ġyol a
tp s
han e
ar y
lan ma
ĠgÃ¶n Ã¼l
ĠR ec
Ġbir inci
Ġk ans
Ġkey if
Ġb l
ĠyÃ¼r Ã¼y
Ġ3 1
at es
Ä±lÄ±ÄŁ Ä±yla
m eni
ĠeÅŁ y
ĠhatÄ±r lat
3 1
ĠBay ram
Ġm on
iy ar
ab ilen
D Ã¼n
ĠM Ã¼slÃ¼man
Ġoyun larÄ±
E B
oc k
Ġkil o
ĠkatÄ±l dÄ±
I S
Ġy or
ĠÄ° m
Ġkullan mak
Ġort alama
Ġkar Ä±ÅŁtÄ±r
ĠM et
Ġar ab
ĠkÃ¶ ÅŁ
ĠYÄ±l maz
Ġdiy erek
Ġsor umlu
un ma
n ik
Ġbil iyor
Ġam el
ĠÄ°ngil tere
ĠdoÄŁrul t
Ġet raf
Ġp eÅŁ
ĠsÄ± f
ĠB er
s it
Ġnerede yse
Ä° l
Ġk Ä±ÅŁ
Ġbir den
ĠSon ra
Ġyak alan
3 6
ĠkullanÄ±l Ä±r
layÄ± p
Ġyap arken
Ġyap abilirsiniz
Ġal ternatif
K on
M A
ĠS h
ĠaÃ§ Ä
ĠaÃ§Ä ±
Ġb alÄ±k
Ġbak Ä±ÅŁ
Ġfak tÃ¶r
m acÄ±
Ġyak al
ĠbaÄŁÄ±m sÄ±z
ĠgÃ¶ Ã§
ĠE d
D aha
ĠGÃ¼n ey
Ġimz a
Ġp ark
ind ows
Ġgel iÅŁim
Ġm o
Ġv it
alar Ä±ndan
Ġyar alan
Ġdetay lÄ±
Ġbel ediye
ler iniz
ĠFak Ã¼lt
5 5
ĠÅŁ iir
Ġkal p
il l
el l
lÄ±k larÄ±
Ġdur dur
Ġas keri
Ġdest eÄŁi
Ġkad ro
Ġz ayÄ±f
ediÄŁ imiz
ĠN ur
Ġyet er
de v
Ġkap alÄ±
ic iler
Ġolm asÄ±nÄ±
Ġiht im
l iliÄŁ
AS I
ĠÃ§ ay
om b
ĠÃ§ocuk lar
Ġr ez
Ġayr Ä±l
ĠD ak
Ġ Ä
Ġsor uÅŁtur
ĠÅŁ ampiyon
Ġek ib
Ġed ip
Ġver ildi
ĠEk onom
Ġpar ti
eceÄŁ ine
Ġisim li
Ġfir ma
Ġr ed
Ġsiyas et
Ġkit ab
Ġr ad
ĠM a
v ik
Ġtut ul
Ġy eÅŁil
Ġhar ika
z u
ĠÄ°n ternet
Ġc en
ĠF il
ĠÃ§ oÄŁ
y Ã¼z
Ġd aÄŁÄ±t
m esinin
uz u
onav irÃ¼s
it er
t s
9 0
Ġ Q
Ġz ih
LAR I
ĉ Ċ
ab rik
Ġv ad
Ġ acÄ±
iyat ro
ĠÅŀ u
Ġarac Ä±lÄ±ÄŁÄ±yla
ĠdeÄŁ eri
ley in
iy a
Ġb Ã¼ny
ĠyÃ¶n lendir
ek il
Ġolm ay
ĠM ev
Ã¼mÃ¼z deki
ĠÅŁ er
Ġc iv
ĠÃ§Ä±k Ä±yor
Ä±n ar
Ġbelir len
Ġal maktadÄ±r
ĠdÄ±ÅŁ arÄ±
Ġmes lek
baÅŁk an
den iz
ĠKÄ± brÄ±s
ĠPart isi
Ä° D
Ġb ilir
Ġfayd alan
! ""
201 7
ĠolduÄŁ undan
ab ilmesi
ĠY atÄ±rÄ±m
ar Ä±m
ĠÃ¶ÄŁr et
Ã§ esi
ĠG Ã¼r
dÄ±r Ä±m
ĠkayÄ± p
ĠyÄ±l dÄ±z
Ġgir en
Ġyap abilir
C umhur
ĠY unan
Ġtep ki
Ġyap Ä±m
Ġolm aya
Ġs ivil
Ġduy g
c ar
ey tin
ĠGÃ¼ncel leme
mas Ä±ndan
ĠilÃ§ esinde
ĠG alatasaray
ĠBah is
7 0
ĠkÄ±sm Ä
ĠkÄ±smÄ ±
Ġuy um
Ġg r
ĠdoÄŁrult usunda
us una
ĠAK P
ĠdÃ¼ÅŁÃ¼n Ã¼yorum
ĠOr ta
iÃ§ i
ĠÃľr Ã¼n
ĠÃ¶n gÃ¶r
ĠAl t
Ġdok un
Ġg ur
ĠÃ¶nc eden
Ġh oc
Ġt ers
y et
c ret
ĠN edir
Ġay Ä
ĠayÄ ±
Ġc Ã¼m
layÄ± cÄ±
ĠÃ§Ä±k art
ir e
ĠdÃ¼zen len
ĠDÃ¼n y
v isi
ĠdÃ¼ÅŁ tÃ¼
ĠgÃ¼n dem
Ġteh dit
iy iz
Ġ =
ĠÅŁeh it
aÄŁ Ä±n
ir ken
Ġikti dar
m ut
ĠdÃ¼zen li
3 4
Ġed iliyor
al le
ĠUl uslararasÄ±
ĠÃ¼y esi
Ġtar Ä±m
larÄ±mÄ±z a
ĠsÃ¶y leyen
I I
ĠC ev
Ġ19 8
Ã¶n der
Ġmark a
enc er
br ahim
o ut
b in
ĠCum a
ĠT ah
! !
p t
ĠhÃ¼kÃ¼m et
Ġkr iz
an e
k Ä±r
tan siy
T Ã¼m
Ġi tir
Ġyar g
Ġ x
E s
Ġd es
Ġc m
ĠP eki
Ġer iÅŁim
Ġheyec an
Ġsan a
ĠkÄ±r mÄ±zÄ±
ĠB Ä°R
abil eceÄŁini
Ġfutbol cu
ey iz
ĠolduÄŁ umuz
Ġuygulam asÄ±
ĠL e
ĠkiÅŁ ilik
ah met
Ġyer ini
t h
Ġr eh
ĠuÄŁr aÅŁ
uk at
diÄŁ im
ĠsoÄŁ uk
w e
Ġend iÅŁ
M er
ĠinÅŁ aat
Ġg em
masÄ± yla
Ġcil t
ĠW eb
Ġmil li
Ġb et
Ġel em
ĠbaÄŁlan t
ah tar
AB D
Ø §
ĠAr ap
Ġkr ipto
Ġs uyu
Ġetk ilen
ĠD est
ro p
LER Ä°
lad Ä±m
Ġherk esin
Ġed ilecek
larÄ±n daki
lulu ÄŁ
ĠÄ°s rail
ĠÃ¼lk ede
ĠdÃ¶v iz
Ġgru b
ed er
Ã¶ ÄŁr
Ġdol aÅŁ
Ġol maktadÄ±r
Ġihtiy acÄ±
ĠB at
ĠD E
Ġt icari
ĠÃĩ ek
Ġver gi
Ä±ÄŁ Ä±nda
Ġr ast
Ġma aÅŁ
Ġin s
Ġolm am
ĠM ut
ĠÃ§ oÄŁun
O Äŀ
3 9
ĠB eÅŁiktaÅŁ
ĠK ab
ĠalÄ±n dÄ±
lar daki
b il
Ġad resi
ĠmÃ¼ÅŁter iler
ĠC ez
Ġbelirt ilen
ĠF in
ĠT am
3 8
ĠS ab
Ġdiy en
ĠyÄ±l Ä±n
ĠD ir
Ġdikkat e
Ġbin lerce
Ġt anÄ±n
ĠM obil
amaz an
Ãĸz el
ĠÄ° k
tu ÄŁ
Ġgelen ek
3 7
ob Ã¼s
Ġgetir di
Ġt Ä±r
ĠgÃ¶r dÃ¼ÄŁ
az artesi
d ek
b on
Ġiz le
ĠM ad
Ġres im
ĠG erek
let iÅŁim
ot el
iyor lar
Ġkap asit
ĠH Ã¼s
Ġs im
oy u
lan d
Ãĩ ok
ĠÃ§alÄ±ÅŁ Ä±yor
O n
Ġ3 5
Ġam acÄ±
ĠK Ã¶y
Ġistiyor sanÄ±z
am ayan
ilm ek
Ġor du
c ilik
Ä° lk
ĠF enerbahÃ§e
Ġb Ã¼r
ĠL i
u lar
etr ol
is a
ĠD air
Ġsal on
Ġis m
n er
ĠgeÃ§ iÅŁ
ĠhÄ±z la
Ġh ad
3 2
ĠNe w
m m
k ol
ĠD il
ĠS ey
tik etler
Ġilg ilen
Ġbulun ur
Ġhaber leri
Ġun sur
Ġbulun dur
Ð °
ĠâĢ ¦
ĠtÃ¶r en
Ġtel evizyon
ÃľR K
d Ã¼z
res s
L AN
ĠettiÄŁ ini
ĠÂ «
ulu ÄŁ
ĠP ara
ĠD Ã¼ÅŁ
k adaÅŁ
or i
Ġolan lar
Ġt eb
k ek
y er
Ġb uy
± b
ĠeÄŁit imi
ĠDak ika
Ġo da
Ġden etim
Ġtoplum sal
las ik
Ġzaman larda
mak tan
Ġincel em
Ä ±b
ĠMillet vekili
ĠY ine
Ġbilg ilendir
Ġhas ta
of t
iÅŁ ehir
Ġp il
Ġkan un
an Ä±m
Ġd izi
Ġl Ã¼tfen
Ġvar lÄ±k
b o
ĠMec lis
ĠS av
Ġver ecek
Ġrahat sÄ±z
Ġsah n
z a
ĠFrans a
Ġde pr
ĠH iÃ§
T op
ĠAl tÄ±n
u di
Ġb oÄŁ
b al
as Ä±z
l ot
m it
Ġnokta da
Ġgel miÅŁ
U T
ĠdÃ¼ÅŁ man
4 6
G eÃ§
ev k
an ti
ĠUz un
Ġgid erek
Ä±y Ä±z
Ãľ K
ĠS aat
ĠKur um
ĠÅŀ eh
em li
y ip
Ġol acaÄŁÄ±nÄ±
ĠS ultan
Ġbec er
ĠBaÅŁkan lÄ±ÄŁÄ±
ĠBiz im
ĠS ayÄ±n
ĠFat ih
emiz e
Ġb Ã¶
ĠA N
E O
ĠH z
Ġpiyas a
ĠBaÅŁ bakan
c isi
Ġ0 8
ĠK Ã¼Ã§Ã¼k
Ġm Ã¼t
ĠparÃ§ asÄ±
lÄ± dÄ±r
ov id
B ak
ĠMur at
g re
B el
u f
Ġ ðŁ
ĠkiÅŁ iye
ĠÅŁ unlarÄ±
ĠKar ÅŁ
ĠÄ° ki
or ta
ay Ä±m
Ġek len
Ġt anÄ±
ĠgÃ¶z lem
Ġolduk larÄ±
4 8
ar Ä±nda
f Ä
Ġ200 9
B M
bak Ä±r
ĠK Ä±lÄ±Ã§
lulu ÄŁu
fÄ ±
ĠkaÃ§ Ä±r
o ma
Ġpo tansiy
ĠG Ã¼zel
ĠK iÅŁ
ĠkÃ¼r esel
ĠRec ep
ĠyapÄ±l mÄ±ÅŁ
ĠÅŁ iÅŁ
ÄŁ ur
l al
Ġad r
Ġyap ma
ĠsÃ¶yl Ã¼yor
Â ´
ĠG Ã¼nÃ¼
ĠÃ¶ t
ĠsÃ¶y len
olo g
ler im
ĠseÃ§enek leri
ĠgÃ¶ster ir
s em
Ġkom p
ĠvÃ¼c ut
Ġat an
9 9
ĠFakÃ¼lt esi
D I
liÄŁ inin
Ġtan Ä±ÅŁ
ĠGÃ¼ven lik
ĠOd asÄ±
Ġh az
Ġmis afir
ul muÅŁ
Ġg Ã¼cÃ¼
Ġkazan mak
Ġt Ã¼rk
Ġinsan larÄ±
ĠGazet esi
b ey
Ġsorum luluk
Ġdurum larda
b en
Ġist ik
Ġhas sas
Ġsay ede
dem ir
ĠH ep
Ġi P
Ġv ade
baÅŁ Ä
baÅŁÄ ±
Ġi ade
ĠaÄŁ aÃ§
Ġk Ä±sÄ±t
Ä° z
ĠÅŀ ehir
ed erasyon
s eri
Ġkal Ä±n
lan Ä±yor
Ġb eden
A F
Ġkul ak
ĠdÃ¼ÅŁ Ã¼ÅŁ
ĠÃ¶ y
ĠT at
pp le
Ġkah v
ĠM us
ĠÃ¼st Ã¼n
Ġkend ilerine
o li
Ġsun uyor
v ar
ĠÃĸn c
Ġver iler
ĠbÃ¶lg ede
Ġs iyah
Ġsab it
o ya
ĠÃ§erÃ§ev esinde
eniz i
Ġist iyoruz
Ġkolay ca
Ġbahs et
Ġgel in
Ġekip leri
O P
ĠiÃ§in deki
ĠS Ä±r
ĠOt el
un d
ĠB atÄ±
ĠZ aman
c eli
ĠÃ§ iÃ§ek
g iler
Ġuz at
am ik
O B
Ġifad elerini
Ġev e
ĠS tr
ĠdÃ¼ny aya
Ġih racat
c iler
Ġs af
ĠM ic
Ġgiz li
Ġolm alÄ±dÄ±r
Ġt uz
Ġk us
lÄ±ÄŁ Ä±nÄ±n
U K
ĠEl ekt
Ġt rafik
lerimiz in
laÅŁ ma
om p
Ġal ak
ru f
t Ã¼rk
Ġb ayan
ĠBun lar
Ġlez zet
ĠK itap
ĠÃ¶ÄŁr etim
E F
ĠM ac
Ġad Ä±nÄ±
ĠâĢ ¢
o in
Ã¼ ley
ik i
Ġkur u
duÄŁ umuz
S S
ĠÃĩ aÄŁ
Ġelekt ronik
ĠF or
Ġkurul an
Ġamel iyat
Ġver miÅŁ
iyar bakÄ±r
Ġbay ram
ĠalÄ±n masÄ±
ur k
ĠF acebook
ĠÃ¶z en
ĠC em
av e
5 7
alar la
l iliÄŁi
Ð µ
Ġk up
ÅŁ ey
ob ot
Ġduy ar
ĠYÄ±l dÄ±rÄ±m
Ġkat Ä±lan
b ank
Ġh ab
Ġf i
Ġr ef
ĠiÅŁ lev
Ġsun an
ĠpaylaÅŁ Ä±m
Ġmah k
K ur
an tep
l iyat
ley erek
Ġeder ken
ed ek
Bu gÃ¼n
ĠI rak
Ġimk anÄ±
Ġhak im
ĠÃ¼r Ã¼nÃ¼
ĠGir iÅŁ
ĠteÅŁ kil
Ġalt yap
Ġt ez
Ġin ce
Ġdol ayÄ±sÄ±yla
am Ä±yor
Ġ $
am adÄ±
Ġak tiv
ĠMu ham
es ef
Ġboz uk
ĠgÃ¶rÃ¼l en
Ãĸ R
Ġal maya
Y OR
Ġsay gÄ±
k siyon
Ä° H
Ġmah kem
ĠÅŁ aÅŁÄ±r
ĠB ek
Ġ 00
ĠHas an
ĠB on
ĠHav a
om et
ĠOk ul
l edik
ĠgÃ¶r sel
ĠkÃ¶ k
Ġgit ti
ĠT asar
ĠY azÄ±
Ä±r lar
4 7
Ġv irÃ¼s
... "
u ÄŁu
us unun
Ġkur ulu
ĠolduÄŁ unuz
O T
ĠÃ§alÄ±ÅŁ tÄ±r
ĠkaÃ§ Ä±n
ildiÄŁ ini
Ġist ek
s inin
ĠI s
alt Ä±na
S aÄŁ
h aba
ĠS Ä±n
ĠÅŁ arkÄ±
is iklet
ĠtaÅŁ Ä
ĠtaÅŁÄ ±
_ _
Ġsak in
Ġsebeb i
ĠÃ§alÄ±ÅŁ masÄ±
Ġsor gul
ĠB Ã¼tÃ¼n
aÅŁ Ä±k
Ġkes im
ĠY ok
Ġet ik
st r
ĠHastan esi
ĠbÃ¶lg e
ĠÃ§ocuk larÄ±n
DÃ¼n ya
ĠiÅŁ ler
imiz den
ok ul
ĠÃ¶nc elikle
Ġkav uÅŁ
k on
ĠgÃ¶ster iyor
ĠAb d
ĠBil gi
ĠTay yip
ĠÃ¼y elik
ediÄŁ im
n Ã¼n
ĠE f
l iyet
lam Ä±ÅŁ
ĠP KK
Ġtat lÄ±
ĠteÅŁ vik
Ġs uy
Y ap
Ġbeklen t
Ġkol aylaÅŁ
ot o
se f
4 9
Ġhep si
Ġbiri dir
ĠÄ°n ÅŁ
Ġ200 8
Ġgenel inde
ĠiÅŁ in
G el
n u
ĠSan ayi
Ġden g
Ãľ M
ebilm ek
ad et
Ġd is
ĠCumhur iyeti
emiz i
Ġkap an
m ede
ĠMah kem
Ġsebeb iyle
ĠÃ§ev re
ĠdÃ¼ÅŁÃ¼n Ã¼yor
Ġsev er
ĠbaÅŁk anÄ±
ĠO nun
d at
ev er
ĠÃĩ Ä±k
Ġkaydet ti
Ġdemek tir
Ġh ediye
ÅŁ embe
ĠbÃ¶lg esinde
S K
ay arak
ra g
Ġfinans al
Ġv es
Ġson una
man Ä±zÄ±
ĠyaÅŁ Ä±nda
s ul
ĠDol ayÄ±sÄ±yla
ĠtaÅŁÄ±y an
k ur
ĠP r
Ġban ka
ĠÂ ·
f il
ÅŁam ba
ĠHat ta
ĠgeliÅŁ meler
201 6
ĠÅŁek er
ĠKan unu
ĠÅŁ im
lem eye
Ġy alan
Ġi hal
ĠÃ§ atÄ±ÅŁ
Ġkayn aÄŁÄ±
ĠBir leÅŁ
Ġar ka
I n
ĠÅŁirket i
Ġbar Ä±ÅŁ
Ġesn af
Ġdem ir
Ġmu hal
Ġolm alÄ±
ĠvÃ¼c ud
om o
ĠaÃ§Ä±l Ä±ÅŁ
ul ur
av uz
Ġzorun lu
ĠBeled iy
ĠbÃ¶yle ce
ĠU S
ĠA c
Ġc es
ec t
Ġdur uÅŁ
ik at
lan t
ah is
Ġ4 5
Ġhiss ed
an larÄ±
ĠkarÅŁÄ±l aÅŁtÄ±r
ĠÄ° brahim
ĠyÄ±l lar
Ġmak al
ĠBen im
ĠÃ¶lÃ§Ã¼ de
k al
S en
Ġdem iÅŁ
Ġyol uyla
ren s
enk ul
ĠmÃ¼mkÃ¼n dÃ¼r
duk larÄ±
Ġsin yal
Ä°n san
ad Ä±n
ĠK ara
Ġyer li
ĠgerÃ§ekleÅŁtir ilen
lan mÄ±ÅŁtÄ±r
Ã¼nde m
lam aya
ĠB oy
ĠbÃ¼y Ã¼m
Ġal abilirsiniz
Ġb r
Ġb e
Ġgir di
ĠbÃ¶lÃ¼m Ã¼
ir ler
Ġmodel leri
ĠHakk Ä±nda
Ġb eb
r is
Ġgel diÄŁi
Ġmez un
Ġbekl iyor
Ġmet re
Ġil Ã§e
Ã¼ley man
Ġbel ediy
Ã¼l mesi
EÄŁ er
7 5
Ġbur aya
Ġbir ini
ĠbakÄ±m Ä±ndan
Ġs eni
Ġr estor
Ġbilin Ã§
ĠsÄ± v
Ġyen il
ĠK er
Ã¼l dÃ¼
Ġ8 0
ĠyaÅŁ adÄ±ÄŁÄ±
Ġbul mak
ĠK uzey
Ġis mi
D Ä°
ĠAnd roid
ĠO f
Ġitibar iyle
ĠgÃ¼Ã§ lendir
Ġt ad
Ġk anÄ±t
adÄ±k larÄ±
Ġ9 0
T R
ĠÃ§aÄŁ r
Ġkar tÄ±
Ġr en
Ġyet enek
Ġedilm iÅŁtir
ER Ä°
men t
Ġet ki
ĠAr tÄ±k
Ġkayde d
am in
Ġum ut
aman Ä±n
Ġg Ä±da
Ġkorum a
ĠmaÄŁ az
Ã¼ya da
la j
v ey
Ġ0 1
Ġvad eli
E tiketler
ĠyaklaÅŁ Ä±m
ĠhazÄ±r lanan
ĠgeÃ§ tiÄŁimiz
Ġkap s
o lar
Ġsev k
ĠiÃ§er iÄŁ
Ġt erk
or g
k ray
ĠsÃ¼r en
un daki
C I
Ġm Ã¼l
ĠEs ki
Ġt it
Ġkom isyon
Ġtak v
tan Ä±n
ĠbaÅŁ lÄ±yor
ĠbiÃ§ im
S an
Ġb uz
ĠÃĩ an
m esinde
m esiyle
Ġi ken
ĠH ukuk
Ãľ L
ĠT eÅŁ
k Ã¶y
Ġ7 0
ĠsaÄŁ lÄ±yor
dÄ±ÄŁ Ä±mÄ±z
ĠgÃ¶rÃ¼n Ã¼yor
Ġev et
ĠS ig
Ġyat ak
ĠÄ°ngiliz ce
Ġsorun larÄ±
ĠP aÅŁa
l asyon
tÄ±ÄŁ Ä±mÄ±z
Ġkend ilerini
h o
s ey
Ġkullan an
Ġfilm i
ĠaÃ§Ä± dan
ĠC en
Ġad landÄ±r
Ġtakdir de
ĠdÃ¼z elt
Ġtur izm
an g
ĠÃ§ev rim
ET Ãĸ
ĠFrans Ä±z
Ġsor unun
ĠÅŁ ef
ĠyÃ¶ntem i
U z
tÄ± lar
Ġindir im
ĠiÅŁ Ã§i
ĠT witter
Ġbenz eri
Ġh Ã¼k
ĠN eden
Ã¶r Ã¼
Ä±ÄŁ a
E vet
ĠY en
uyor du
Ġhes abÄ±
Ġbir inin
r ol
Ġdal g
Ġv s
Ä±lÄ± p
malar Ä±nÄ±
O y
Ġbah Ã§
ĠB oz
Ġyok tu
lÄ±ÄŁ Ä±nda
Ġf er
Ġedil ebilir
k isi
ĠÄ° d
Ġrez erv
Ġi di
erj i
L U
6 5
Ġm ekt
Ġmem ur
Ġden et
l os
Ġf atur
de s
Ġorgan izasyon
ĠC anlÄ±
Ġbir leÅŁtir
Ġn amaz
eÅŁ em
ĠsÃ¼reÃ§ te
Ġb log
ĠE x
on g
r al
ĠhÃ¼c r
ĠÃ¼y eleri
ĠP iyas
v el
ĠS Ã¼per
ĠaÃ§ Ä±lan
Ġortam da
Ġbed el
Ġsah ib
E Z
Ġist ediÄŁi
Ä±nt Ä±lÄ±
ĠV an
ĠB ab
D oÄŁ
ist in
Ġzam anÄ±
tr en
af er
ĠM Ã¼ÅŁter
ĠHÃ¼s eyin
ĠÃĸ mer
Ġm us
Ù Ħ
ĠiliÅŁk iler
ĠEr z
Ġ eb
Ġmad di
lan da
Ġkam p
ĠgÃ¶rÃ¼n Ã¼m
Ġrak ip
T r
= ""
Ġt oz
ĠbaÅŁlan gÄ±Ã§
Ġp l
Ãĸ N
or din
k im
Ġb esin
Ġak adem
ĠkonuÅŁ an
ĠÃ¼ret ic
ĠH ast
Ġyen ilik
ĠyÃ¼ksel t
ÅŁ iv
ĠH es
ay asa
k el
Ġul usal
ĠtÃ¼r Ã¼
ektÃ¶r Ã¼
ĠgÃ¼nde me
Ġhayat Ä
ĠhayatÄ ±
ĠgeÃ§ er
it i
ĠÅŀ ampiyon
ad eniz
k iÅŁehir
man lÄ±k
aÄŁ Ä±nÄ±
om e
ĠA dana
Ġist if
an dar
ĠP azartesi
Ġincel en
Ġd edim
ĠC ar
mÃ¼ÅŁ tÃ¼r
ĠÃľ cret
T A
T I
ĠmaÄŁ dur
ĠM at
ĠM on
ĠyÃ¼z Ã¼nden
ĠE uro
Ġsan al
Ġyap manÄ±z
Ã¶ÄŁr etim
Ġsit esinde
Gen el
dÄ±ÄŁ Ä±nÄ±z
ĠY as
an Ä±zÄ±
ĠkÄ±s Ä±m
AB ER
ĠJ ap
Ġolm adÄ±ÄŁ
ĠSon uÃ§
Ġg rafik
ĠkÄ±y met
l or
Ġist edi
ĠdÃ¶nÃ¼ÅŁ Ã¼m
Ay rÄ±ca
lik ler
n an
Ġuy arÄ±
Ġhak larÄ±
ĠK art
Ġz ir
am i
ĠP eygamber
duÄŁ unuz
Ġhar it
it ir
da a
ĠÅŁ ub
ĠÅŁeh r
ĠM en
Ġgal ib
B aÅŁk
ĠN et
Ġben ce
Y orum
ĠdeÄŁ in
Ġbor s
Ġilg inÃ§
ĠM ey
ĠK ir
Ġtop lu
Ġtasar ruf
m adÄ±ÄŁÄ±nÄ±
Ġyan gÄ±n
ĠEm niyet
ar ik
Ġbak an
ĠB l
âĢ Ķ
ĠK ut
Ġpr atik
Ġproj esi
ĠsaÄŁlay acak
ĠÃ¼lk emizde
U Z
ĠsonuÃ§ larÄ±
ĠBil im
Ġgerek tiÄŁi
ĠiÅŁlem ler
al esef
ĠÄ° Ãĩ
T Ä°
alat ya
Ġay n
abilir iz
ĠhazÄ±r lÄ±k
Ġyap Ä±sÄ±
abilir ler
Ġmuht em
ĠGÃ¶r Ã¼n
ic a
akk abÄ±
Ġkorum ak
ĠÃľ Ã§
iler den
Ġyum uÅŁ
ĠY AP
Ġmen s
ĠmÃ¼dahal e
ĠgÃ¶z altÄ±na
Ġfark lÄ±lÄ±k
akk ale
am aya
Ãĩ ocuk
ac h
Ãĸn c
Ġk Ã¼t
ĠA j
ĠF er
ĠS a
Ġar alÄ±k
Ġrek abet
ĠkadÄ±n lar
LI K
D EN
ĠHay at
bah is
Ġist ey
dÃ¼ÄŁ Ã¼nÃ¼
ĠÅŁ Ä±k
Ġfay da
s iyet
h as
Ġd ip
ilm ez
eceÄŁ imiz
ĠdÃ¶nem i
Ġt Ä±p
ĠGÃ¼n eÅŁ
Ġyak Ä±ndan
Ġz ek
Ġoyn an
ĠbÃ¼y Ã¼
Ä°Y E
Ġetkil ey
ĠkarÅŁ Ä±lan
ĠW indows
Ġli g
iv as
Ġbas k
Ġan ti
5 8
Ã¼b Ã¼
ĠyaptÄ±k larÄ±
d ol
ĠgÃ¶ l
ĠÅŁ ark
Ġver mektedir
Ġfon ksiyon
st it
ĠÃ§ek ti
ĠkarÅŁ Ä±ya
Ġel bette
ĠmaÃ§ Ä
ĠmaÃ§Ä ±
Ġsistem leri
Ġfizik sel
ĠY al
et iyle
lerimiz e
Ġn iyet
ĠÃĩ elik
ĠK il
Ä±ÅŁ ma
Ġsanat Ã§Ä±
Ġbur adan
ic k
Ġyer den
Ġh asar
Ġedilm ektedir
Ġyol cu
et er
Ġbir er
yas al
T L
Ġyap Ä±n
ĠKon ya
Ã¼m r
par ator
Ġyar Ä
ĠyarÄ ±
b ek
m uz
ĠyÃ¶n Ã¼nde
Ġh ur
5 4
ĠÃ¼niversit e
ĠP an
ĠgÃ¶rev i
ĠN ak
ĠG ar
um p
Ġkr ed
ĠS il
Ġmevcut tur
Ä±k lÄ±
ĠkolaylaÅŁ tÄ±r
ĠK AR
Ġal dÄ±m
ĠP lan
Ġbek lem
Ġu st
C HP
Ġa j
im a
ĠyayÄ±n lanan
ecek siniz
Ġide al
Ġkim lik
5 9
Ġs unu
Ġtamam lan
5 6
ĠYÄ±l dÄ±z
Ġz inc
ĠG ru
Ġpar Ã§a
ĠdeÄŁ ildi
ĠKan un
ĠGerÃ§ ek
Ġs Ã¼s
ĠtaÅŁ Ä±ma
ĠDest ek
Ġ3 00
ĠsÃ¼rec inde
l iy
Ġmod eli
ĠB AÅŀ
Ä±n day
Ġmiktar da
Ġyans Ä±t
ĠaÄŁ rÄ±
Ä° Ã§
ĠT un
ĠamaÃ§ lÄ±
ad ir
ĠG er
Ġar tan
ĠP ort
Ġver m
GÃ¼n cel
i ce
Ġkurum sal
A t
T E
ĠÃĸ dÃ¼l
Ġnes il
Ġkit abÄ±
ĠyÃ¼z ey
ĠP at
ĠulaÅŁ tÄ±r
ĠTel efon
An kara
ĠM em
ĠgÃ¶r Ã¼r
ĠsÄ±f Ä±r
ĠAmerik an
kray na
m adÄ±ÄŁ
Ġt or
ĠD ik
ler di
Ã§ Ä±k
on un
ĠD e
Ä±l masÄ±nÄ±
Ġkay bol
r uk
it esi
ler ken
Ġyap Ä±mÄ±
il la
Ġk ere
ey h
o od
ĠbugÃ¼n e
Ġan Ä±nda
Ġek ibi
Ġr oman
iv e
Ġbahs ed
ĠgÃ¶ster di
av a
Ġolduk larÄ±nÄ±
201 5
iy el
ĠÃ¼st Ã¼ne
d iniz
Ġbilim sel
aÄŁ Ä±na
Ġmar uz
ĠaÄŁ r
ĠBunun la
Ġgel ip
Ġsan ki
20 22
v a
Ġbar Ä±ndÄ±r
Ġs arÄ±
Ä±l maktadÄ±r
ĠdÃ¼ÅŁ en
Ġnef es
ĠÃ§ at
dÄ±ÄŁ Ä±m
7 8
ĠS oy
er rah
Ġot obÃ¼s
ĠeÅŁ i
G Ã¶r
ĠPer ÅŁembe
ĠaraÅŁtÄ±r malar
ĠMuham med
Ä±l dÄ±ÄŁÄ±nda
Ġoran Ä±nda
ĠH erk
Ġn am
Ġesn asÄ±nda
ÂłÂł ÂłÂł
od rum
ĠS ek
ĠKom isyon
Ġdepr em
ĠTar Ä±m
ĠÄ° dar
Ġmah all
l Ä±yoruz
ĠgÃ¶r m
ĠAraÅŁtÄ±r ma
ĠkÃ¼ltÃ¼r el
Ġg Ã¼r
Ġbul abilirsiniz
Ġ ep
ĠÄ° h
Ġsun ulan
ĠY ah
lendir me
ĠyaÅŁ lÄ±
ĠÃĩar ÅŁamba
ĠD in
Ġsev in
Ġad alet
K ul
l es
t ek
it if
Ġtab lo
ĠgÃ¶r Ã¼yor
ĠÃ¶r n
Ġf abrik
ĠyaÅŁ ay
ĠF utbol
ĠR amazan
Ġtan esi
Ġs aha
b el
Ġbirbir inden
ĠS Ã¼leyman
ĠT Ä±p
acak sÄ±nÄ±z
ĠY eÅŁil
Ġver meye
Ġzor luk
Al lah
S iz
ĠÃ§aÄŁ Ä±r
ĠkullanÄ±l abilir
Ġbirbir ine
is yen
Ġrenk li
Ġsin ir
Ġser gil
4 3
ilm e
Ġac il
ĠgÃ¶r dÃ¼k
Ä±l masÄ±na
Ġc oÄŁraf
ig ht
ĠÃ¼ret imi
ĠK up
O k
d iye
Ġdav a
ĠCez a
ĠÅŁey in
Ġp ort
Ġdurum a
An cak
dik lerini
as h
ac Ä±k
Ġkon ak
âĢ¦ âĢ¦
Ġsay fa
4 2
Ġz evk
dar oÄŁlu
d eri
ĠB alÄ±k
eÄŁ ine
y alÄ±
eb e
ĠT h
m Ä
ĠI ÅŁ
Ġadet a
ĠkÃ¶ t
ĠTur izm
Ġol acaÄŁÄ±
Ã¼st r
Ġinsan lara
Ġkon uk
s ine
A ÅŁ
ĠD anÄ±ÅŁ
p e
Ġyen ilen
r at
Ġp ah
ĠkÄ±y af
an n
Ġherkes e
en a
mÄ ±
Ġbir leÅŁ
Ã¢ y
Ġtab ii
Ġtedav isi
Ġver imli
il ip
os yon
ĠTekn oloji
ĠÃ¼lk eler
ĠLi gi
ĠT e
ons por
ig it
ĠSel Ã§uk
Ġt ok
l us
ĠyaÅŁ at
Ġins anÄ±
Ãľ Z
ĠAk deniz
Ġhab eri
Y aÅŁ
A h
t op
ĠÃ§alÄ±ÅŁ mak
Ġal b
er ez
Ġyiy ecek
ĠÃ¶ÄŁrenc ilerin
4 1
5 3
H al
Ġincel ey
Ġhap is
am Ä±ÅŁ
Ġver ilir
l ob
ĠÄ°Ã§ er
ĠÄ° letiÅŁim
alan dÄ±r
ĠT R
ĠI I
ĠulaÅŁ Ä±m
ĠÃ§ Ã¶k
Ġsev iye
Ġver im
Ġdep ol
Ġt en
un cu
Ġp etrol
Ġmev zu
a il
ver en
mey ecek
Ġistih dam
ok ol
ĠbÃ¼t Ã§
Ġbelir lenen
p aÅŁa
Ġkar a
ĠP ark
tÄ±k larÄ±
ĠpiÅŁ ir
ĠÅŀah in
Ġre j
lem esi
ĠÃ¶n de
ĠoÄŁ lu
Ġn in
K al
ĠG rup
ah h
ĠÄ° kinci
ĠB undan
ol a
Ġit hal
Ġanlat an
ĠÃ¼st Ã¼nde
ĠbÃ¶lÃ¼m Ã¼nde
ĠyÄ±l Ä±ndan
ĠulaÅŁ abilirsiniz
Ġgru bu
Ġtal im
Ã ©
ĠarkadaÅŁ lar
Ġg idi
Ġger eÄŁi
ĠdÃ¼zey de
s k
Ġver erek
o le
Ġsey ir
Ġkalit e
ĠbÃ¼ny esinde
Ġtar ayÄ±
D AN
Ġfayd alÄ±
Ġgetir mek
L A
el ek
Ġsan ayi
it h
Ġbilg iye
ĠM Ä±sÄ±r
Ġgid iyor
ĠS es
Ġhat a
ĠyaÅŁam ak
ĠS alÄ±
Ġb iy
er a
ac e
lerin deki
o us
ĠgeliÅŁ miÅŁ
Ġmed y
ĠyÃ¼k Ã¼m
ĠF ar
Ġ3 6
Ġk Ã¢
Ġs e
Ġdek or
Ġedildi ÄŁi
Haber ler
ĠA pple
ĠCum artesi
Ġmalz eme
Ġday alÄ±
ĠyÃ¼rÃ¼y Ã¼ÅŁ
if e
K at
os k
in t
u g
Ġan ahtar
ilm esini
s oy
ĠYap Ä±lan
Ġet tim
m elerin
Ġdar be
ĠÃ¶nc esinde
S O
Ġiyil eÅŁtir
g ah
ĠsÄ±nÄ±r lÄ±
ĠCumhur baÅŁkan
AR I
ket bol
Ġ0 7
Ġtaraf tar
Ġkans er
± d
ĠS at
ĠK av
Ġmey dan
og raf
ĠgÃ¶ k
ĠÃ§Ä±k acak
Ġyar Ä±m
ĠdÃ¼ÅŁÃ¼n Ã¼l
er al
ĠiliÅŁ ki
A ma
vek il
ĠM HP
us uz
tif ak
ĠaÅŁ Ä
ĠaÅŁÄ ±
Ġiz len
Ġhalk Ä±n
anlÄ± ur
de mi
ĠsonuÃ§ lar
Ġyar Ä±n
Ġel inde
Ġor man
ĠBÃ¶l g
Ä ±d
akar ya
ĠF ark
B Ã¼yÃ¼k
Ġdikkat li
Ġev lilik
Ġgazet ec
Ġpotansiy el
Ġy itir
Ġiyi ce
Ġuy umlu
Tar ih
ĠD ep
sÄ±z Ä±n
ĠTur k
ĠiP hone
ĠN er
Ġalan larÄ±
ĠKoca eli
Ġr efer
ĠgÃ¼n ler
Ġgelenek sel
ĠsÃ¼r edir
Ġ ada
ĠgÃ¼n Ã¼mÃ¼z
ĠK aÃ§
ĠÄ°ÅŁ let
em eyen
Ġus ul
Ġmak am
ĠPol itik
ĠEr kek
Ġkus ur
aÅŁ Ä
Y ar
Ġg Ã¼
ĠOr du
y u
Ġof is
aÅŁÄ ±
ĠY a
m uyor
ĠAs lÄ±nda
ĠD on
ĠiÅŁ gal
et h
Ġu fak
Ġhastal Ä±ÄŁÄ±
ĠolduÄŁ unda
Y Ä±l
f ik
Ġd ini
ĠAs ya
edik lerini
ĠÃ¶n Ã¼mÃ¼zdeki
Ġal dÄ±k
ĠaÃ§Ä±klam asÄ±
Ġcin sel
ĠZ ir
ĠÄ°l iÅŁ
de b
Ġyan Ä±na
ĠD iyarbakÄ±r
ĠsektÃ¶r Ã¼nde
Ġsal g
ĠG ÃľN
lÃ¢ m
Ä°Y OR
ĠaÄŁ z
ĠKay nak
Ġeg z
m elidir
b at
Ġh Ä±r
Ã¼y e
Y az
m r
ĠB an
ayÄ± t
ken t
Ġsig ort
edav a
ĠH Ã¼kÃ¼m
ic h
ĠO ÄŁ
Ġd iler
ĠBah Ã§
Ġol asÄ±
mamak tadÄ±r
Ġb y
Ġkal mÄ±ÅŁ
Ġel b
ĠE T
usu f
ĠbaÄŁ lam
Ġkad Ä±nÄ±n
ĠÃ§ek ici
H A
ĠKay mak
Ġdev rim
ĠS ohbet
Ġdevlet in
g at
o o
ĠKr edi
l ed
ĠyapÄ±l dÄ±ÄŁÄ±
Ġkur s
Ġkullan abilirsiniz
ĠK it
em atik
Ġyaz Ä±k
Ġtarih li
ĠâĢ Ķ
lad Ä±ÄŁÄ±nÄ±
ĠTrabz on
Ġon dan
ĠkonuÅŁ ma
ĠSit esi
Ġgit mek
ĠsÃ¼r ece
Ä°S T
Ĥ º
muÅŁ tu
yas por
ĠÃ¶nc elik
adde si
ib e
ĠKur umu
ĠkadÄ±n larÄ±n
Ġc ok
ĠÄ° Åŀ
ĠAn a
Ġbelirt ildi
ĠgÃ¼n Ã¼mÃ¼zde
Ġo b
at istik
ĠÃ§ am
ĠmÃ¼ hendis
Ġkar go
mal Ä±sÄ±nÄ±z
ĠV at
Ġtab an
ĠyÃ¶n de
ya j
ind istan
r iyet
andar ma
Ġimk Ã¢n
Ġol asÄ±l
ĠAr kadaÅŁ
ĠR ab
ir li
Ġgerek Ã§
am ayacak
Ġolm amasÄ±
Ġgur ur
Ġtarih leri
ĠaÅŁaÄŁÄ± da
Ġkazan an
Ġsorun lar
y eni
Ġfark Ä
ĠfarkÄ ±
Ġgidi p
el al
en de
ĠGenÃ§ lik
ĠiÅŁbir liÄŁi
Ġger il
Ġbey an
Ġol abilirsiniz
ĠAn al
Ġ Ä±r
Ġbirey sel
ĠBÃ¶l Ã¼m
ros oft
g az
Ġkul Ã¼p
am uk
is iz
Ġr obot
ĠgeÃ§ ici
el iÄŁi
ĠAr ab
Ġuygulam alarÄ±
s h
k or
Ġoyn ay
: )
Ġtut an
Ä±y Ä±m
ĠgÃ¶ster mektedir
Ġedeb iyat
ol d
Ġsiz ler
Ġtak Ä±mÄ±
Ġet miÅŁtir
ek er
Ã¼l Ã¼k
ĠAf rika
Ġfin al
ĠÄ° mam
l eket
mas Ä±n
f at
Ġtr end
Ġinan Ã§
v eÃ§
Ġnokt asÄ±
19 9
Ġtemiz lik
c Ä±nÄ±n
s ar
ĠKÄ±z Ä±l
Ġist erseniz
ĠGazi antep
Ġav ukat
ĠÃ§alÄ±ÅŁ Ä±r
Ġciv arÄ±nda
Ġ0 5
Ġgay ret
lay acak
Ġcez asÄ±
ĠC ih
ĠaydÄ±n lat
Ġmet al
Ġman z
ĠÄ° L
ĠgÃ¼n den
Ġver ilmesi
eb i
ĠÃ§ocuÄŁ un
BM M
ĠSavaÅŁ Ä
ĠSavaÅŁÄ ±
le ÄŁ
tif ik
201 4
ĠÃ§ Ã¶
Ġ eh
Ġk u
fer ans
Ġk imi
B et
ans iyon
Ġsun ar
Ġd iyet
Ġkazan ma
Ġ19 7
ara j
ĠA Y
ĠKo Ã§
âĢ¦ ]
ĠyayÄ±n lan
ĠkullanÄ±l masÄ±
ĠC on
elen dir
g ari
Ġk abil
Ġak Ä±ÅŁ
Ġsun maktadÄ±r
Åŀ imdi
Ġgel eceÄŁ
Ġy ah
men izi
ĠG az
ĠÃľy esi
Ġl ink
tay Ä±z
Ġyaz Ä±l
ĠH otel
Ġbab asÄ±
k Ä±rÄ±
Ġkonu larda
Ġyet ersiz
ĠyÃ¼ksel iÅŁ
len iyor
ĠaraÃ§ larÄ±
ĠUl usal
Ġalt Ä±nÄ±
S ev
Ġar asÄ±ndan
Ġ200 7
ĠedeceÄŁ iz
T Ãľ
Ġyer lerde
Ġsermay e
ĠKon s
malar Ä±n
Ġmuht eÅŁem
Ġyol da
ĠKar adeniz
Ġtem as
Ġyolc uluk
laÅŁ Ä±k
ĠG al
u e
Ġplatform u
Ġat tÄ±
Ġhareket e
en n
Ġd aÄŁÄ±
Ġm imar
im den
Ġolm adÄ±
ĠÄ°s mail
ĠAr aÃ§
Ġy e
Ġeder iz
ĠT al
ĠbazÄ± larÄ±
Ġgel diÄŁini
Ġman tÄ±k
ĠBey az
V e
ec ik
ĠiÅŁ leri
Ġk uzey
Ġm Ã¼r
B unun
Ġ ;
ĠyÃ¶n el
ĠÃ¼cret i
Ġm ac
5 2
Ġnum arasÄ±
ĠbÃ¼y Ã¼me
acaÄŁ Ä±mÄ±z
Ġin c
ĠK ent
Ġgel mektedir
Ġaz Ä±ndan
Ġk lasik
ĠAv ust
ĠF Ä±r
it ler
5 1
Ġl ok
ĠDem okr
p h
aÄŁ Ä±nÄ±n
Ġr is
ÅŁ u
ek te
Ġkullan dÄ±ÄŁÄ±
luk la
Ġenf lasyon
R us
ĠgÃ¶rÃ¼ÅŁ meler
ĠF ran
ĠaÃ§Ä±k lan
Ġyet kili
ĠÃ§ek me
Ġol aÄŁan
Ġses siz
f t
âĢ ĺ
Ġgec ik
ey di
Ġm Ã¼s
Ġyol unda
la v
ot os
ĠH Ä±z
Ġsavun ma
Ġben de
ĠA T
Ġderec ede
ĠtÄ±k layÄ±n
ÅŁ e
Ġb Ä
Ġsebep le
Ġgerek tiÄŁ
ĠC asino
Ġmes l
ĠoluÅŁtur mak
ĠSistem i
Ġver ici
Ġalan larda
Ġitir az
es ter
ĠSon r
Ä°L ER
anlÄ±ur fa
ĠbÄ ±
Ġal masÄ±
is in
ĠgÃ¶r dÃ¼
unuz un
Ġkah raman
Ġver ilecek
Ġanlat tÄ±
ĠbaÄŁ Ä±ÅŁ
ĠÅŁah Ä±s
ĠÃ§ek im
r ip
ĠgÃ¼ven liÄŁi
te in
ilm esine
) :
ĠÃ¶ÄŁren mek
ĠÃ¶r t
ul l
ĠT ok
ĠÃ§aÄŁ rÄ±
Ġkal ab
Ġkazan dÄ±
ĠÃĸÄŁr en
Ġgel mesi
ur du
Ġar alarÄ±nda
Ġm ir
Ġv asÄ±
ĠÃ§alÄ±ÅŁmalar Ä±nÄ±
ĠBaÅŁ vur
ĠalÄ±ÅŁ kan
ĠkeÅŁ f
ĠgÃ¼n Ã¼n
Ġmas raf
ĠsaÄŁ lÄ±ÄŁÄ±
Ġg ayet
I D
ĠtanÄ±t Ä±m
Ġbul du
ĠkÃ¶ pek
Ġil ave
Ġd ey
Ġr Ã¼z
Ġ0 2
Ġp encer
Ã¼mr Ã¼k
Ã§ isi
Ãľ r
ĠÃ¼rÃ¼n lerin
m eyin
ĠseÃ§en eÄŁi
ĠdÃ¼ÅŁÃ¼n ce
ab or
ak lÄ±
ĠGru bu
z at
Ġht tps
ĠÃ§ ey
am e
Ġar aba
x y
ad er
Ġuy an
ĠoluÅŁtur ul
ĠM ersin
ĠÅŁirket in
ĠHizmet leri
tÄ± cÄ±
Ġkaybet ti
k o
adÄ±ÄŁ Ä±mÄ±z
Ä±l dÄ±ÄŁÄ±nÄ±
ĠE vet
Ġkon ser
hat s
ĠalÄ±n arak
Ġkor onavirÃ¼s
Ġgenel de
in sel
Ġuygulam alar
Ġtelefon u
ĠhayÄ±r lÄ±
ĠgÃ¼n e
lik te
m p
ĠsÃ¶y lemek
um an
D U
Ġhay ran
Ġolm ayÄ±
ĠF ederasyon
ĠYaÅŁ am
Ġ Ä±sÄ±
ĠS ok
Ġn o
ĠEn d
id er
ĠS arÄ±
Ġs Ä±z
ĠAr t
ĠbaÅŁlay acak
ĠKr al
aÄŁ Ä±nda
S er
M AN
Ġem ir
ĠF estiv
d Ã¼n
ĠK endi
ĠyapÄ±l Ä±yor
ĠDeÄŁ er
Ġay kÄ±rÄ±
Ġkal em
Ġkal Ä±cÄ±
ĠB e
ĠalÄ±n Ä±r
ir im
ĠKar ab
Ġkit l
ĠgÃ¶r Ã¼yoruz
Ġkayb Ä
ĠkaybÄ ±
Ġmut luluk
Ġedildi ÄŁ
ĠF ETÃĸ
ÅŁ ap
ĠY azar
Ġar al
ra da
Ã¼rk en
b iy
Ġgerek se
Ä±l lÄ±
ĠÅŁirket leri
ĠD oÄŁan
Ġbit k
Ã¢ m
ĠÄ° talya
Ä ¢
S por
ĠtÃ¼k etim
Ġmuh ab
Ġkeyif li
ĠgerÃ§ekleÅŁ en
Ġb eyin
un lar
Ġbek lenen
Ġp lak
Ġ15 0
Ġv al
ĠR ek
U y
Ã¢ t
j en
ĠyatÄ±r ma
Ġkal Ä±r
ĠgÃ¶ m
Ãĸ ÄŁr
Ã¼k le
Ġneler dir
lÃ¼ÄŁ e
it ika
Ġ est
Ġzaman lar
Ä°ÅŁ te
Ä°z mir
Ġzaman Ä±nda
ĠkatÄ±lÄ±m cÄ±
ĠÄ°n dir
Ã¼k s
ĠÅŀ en
ley ecek
M u
at lar
ĠP as
Ġ3 2
G ir
ĠS un
m ediÄŁi
mek ten
Ġmec lis
Ġm or
ĠB oÄŁ
ĠyaÄŁ mur
ĠfÄ±rs atÄ±
s lan
op er
Ġpazar lama
ĠÅŀub e
M S
Ġver me
Ġdar b
ĠyÃ¼r Ã¼r
ĠkaÃ§ ak
Ġdurum un
ĠDÃ¼z en
L AM
Ġreh ber
y iz
R O
Ġnet ic
M E
Ġpiyas aya
ĠsÃ¶zleÅŁ me
Ġv ir
Ġdon anÄ±m
Ġmut fak
dan Ä
danÄ ±
Ġuygul anan
Ġpoz itif
ans Ä±z
ĠOr man
Ġhal i
Ġtoplum un
ĠÃĸ l
larÄ±nÄ±z a
Ġz eytin
Ä° B
Ġoyn amak
mem esi
M ar
ĠvatandaÅŁ lar
s es
Ġs os
Ġw ww
mak la
oh n
d Ä±ÅŁ
Ġemek li
ĠkÃ¶ pr
Ġmik tarÄ±
ĠBirleÅŁ ik
ĠZ aten
ĠKullan Ä±cÄ±
Ġanlam Ä
ĠanlamÄ ±
ĠÃĸÄŁr etmen
Ġbeklen iyor
ĠY aÄŁ
ĠÄ° t
Ġd oy
ĠTr ump
iÄŁ in
ĠTop lum
Ġc em
o x
Ġfir masÄ±
Ġte or
ĠÄ°Ãĩ Ä°N
ĠOr t
n uv
ok ulu
Ġat Ä±k
Ġb isiklet
Ä°n gil
Ġdil ek
Ġboy u
ĠiletiÅŁim e
duÄŁ um
ĠOr gan
Ġgar ant
ĠR um
Ġoran larÄ±
-- --
vey a
Ġed ici
s inde
ĠProj esi
Ġek mek
ley ip
ĠH azÄ±r
Ġ19 6
alim anÄ±
Ġmik ro
Ġor anda
Ġn as
Ġbil eÅŁ
Ġsun duÄŁu
Ġk ov
ĠyÄ±l lardÄ±r
Ġoy unun
ĠT or
ĠProgram Ä
ĠProgramÄ ±
ĠÃĩ ift
ĠulaÅŁ mak
Av rupa
ĠteÅŁekkÃ¼r ler
201 3
es por
z i
Ġver siyon
Ġdakik ada
ĠS iyas
Ġhat t
Ġkims enin
Ġmet rek
Ù Ĳ
ĠA ile
Ġtop r
ĠKaz an
zer bay
ĠgÃ¶z den
ĠH DP
am Ä±nÄ±
ÅŁ i
Ġyap Ä±yoruz
ĠnÃ¼f us
E y
ĠR eh
Ġtaz min
el le
ĠU krayna
Ġmuh af
ĠÃ¶ lÃ¼
ĠVak fÄ±
Ġyap masÄ±
Ġc umhur
eb ilen
lob al
Ġhal kÄ±
ĠMed ya
Ġp u
Ġk er
Ġyap Ä±p
ĠYÃ¶net imi
Ġkon for
ĠMod el
Ġpar lak
Ġkar iyer
Ġhus us
lÄ±k ta
az arÄ±
Ġay da
Ġmens up
ĠF a
Ãĸ Z
ĠÅŁif r
ĠÃĸÄŁr enc
c Ä±k
Ġ20 00
Ġboz ul
Ġist is
az er
Ġen te
z an
Ġhar f
Ġ[ âĢ¦]
ĠM alatya
Ġalan lar
ĠÃĸ Z
eler dir
ĠBun larÄ±n
Ġkar m
Ġkullan Ä±c
Ġhayat ta
ĠÃ§Ä±k mÄ±ÅŁ
ĠD ers
Ġbilg isi
st ra
Ġet meniz
ĠÃĩalÄ±ÅŁ ma
Ġz emin
ĠdÃ¶n dÃ¼
Ġ4 8
ebilir im
Ġol abilecek
Ġ0 6
ĠÃ§ or
az Ä±ÄŁ
ĠAbd ullah
ĠÃĩan akkale
ĠL a
Ä±s Ä±yla
eler ek
Ġyolc uluÄŁ
Ġkil it
Ġb ez
ĠFin ans
ĠHar eket
ĠR ad
ĠY ork
at larÄ±
s ed
ĠOn line
d o
ĠKam u
uÅŁtur ucu
ĠÄ° b
Ġb aba
Ġbak tÄ±ÄŁ
ĠbaÅŁ Ä
ĠbaÅŁÄ ±
iÄŁ e
Ġt h
IN DA
ĠyÃ¶ntem leri
c eÄŁi
Ġser visi
Ġal Ä±cÄ±
ay ol
igit urk
Ãľ lk
Ġok ur
Ġiz lem
Ġyap mayÄ±
ĠE b
ĠdeÄŁerlendir me
ĠT emiz
ĠÃ§alÄ±ÅŁ maya
et te
ĠkullanÄ±cÄ± larÄ±n
Kay nak
P ar
Ġalak alÄ±
ĠkullanÄ±cÄ± lar
ĠYunan istan
Ġs am
Ġyol larÄ±
ĠK en
sim um
ec h
m ini
Ġan tren
ĠEs kiÅŁehir
S P
larÄ±nÄ±z Ä±n
Ġmal i
ebilm ektedir
adÄ±ÄŁ Ä±nÄ±z
de ÄŁ
Ġkork u
ĠaÃ§ tÄ±
Ġkom ut
im um
ĠIn stagram
r az
Ġ !
Ã§ Ä±n
Ġbulun masÄ±
Ġn Ã¶
Ġver ileri
ĠÄ° le
ĠÃ¼st Ã¼
Ġmet in
lan tÄ±
Ġd Ã¼k
ĠKÄ±lÄ±Ã§ daroÄŁlu
Ä±n ma
ĠMahkem esi
ĠY urt
ĠBel ki
ĠÃ§ocuk larÄ±
ĠK af
Ġad ayÄ±
uy um
Ġk aÄŁÄ±t
Ġgerek sin
Ġb Ã¶yl
Ġy Ã¶r
Ġkim yasal
dÄ± lar
Ġsaat lerinde
Ġkamer a
Ġac aba
uÅŁ u
Ġf alan
di ven
ĠL im
Ġken ar
ĠkarÅŁ Ä±mÄ±za
ĠeÄŁlen celi
ĠTem el
Ġay akkabÄ±
ĠyaptÄ±ÄŁ Ä±mÄ±z
ĠAn n
."" "
ĠG Ã¼Ã§
Ġayr Ä±ntÄ±
Ġspor cu
Ġar am
l om
ĠsoruÅŁtur ma
iler inden
Ġbl ok
M an
D iÄŁer
Ġyer ler
Ġyet k
ĠSÃ¶z leÅŁ
ĠÃĩev re
Ġden k
ĠgÃ¶ ÄŁ
Ġfel sef
SaÄŁ lÄ±k
L Ä°K
ĠkÄ±y as
Ġpan el
Ġek lem
Ġgar anti
ĠS aÃ§
Ġk a
Ġmey ve
ay as
Ġd Ã¼r
ÅŁ et
Ġsan iye
Ġ3 8
Ġkol tuk
Ġhizmet ler
Ġincel eme
iyet ini
ot ik
Ġpiyas asÄ±nda
ĠT ut
Ġy edek
ĠbaÅŁlam Ä±ÅŁ
s is
ĠA D
ur ta
ĠMec lisi
Ġhaber ler
Ġn ih
ĠF orum
ĠF u
Ġbil eti
ĠÅŁart larÄ±
g Ã¼t
Ġma alesef
Ġbes lenme
ĠsÄ±k Ä±nt
ĠBÃ¶l ge
k s
Ġsev gi
IN I
Ġ0 3
ĠTasar Ä±m
ĠBayram Ä
ĠBayramÄ ±
Ġcam i
Ġproj eler
ĠcÃ¼m l
ĠBÃ¶l gesi
................ ................
Ġbir liÄŁi
ĠS P
ĠsÄ±k Ä
ĠsÄ±kÄ ±
ĠÃ¶nem i
Ġkapsam lÄ±
E P
Ġsistem inin
ĠsatÄ±ÅŁ a
Ġy el
ak in
Ġol amaz
Ġp rim
az en
ĠseÃ§ imi
Ġar an
tr e
Ġmakin esi
p a
Ġtip i
Ġyorum lar
Ġhal en
ĠKÄ±s a
ti h
Ġik lim
Ãľ n
ĠS e
ĠsÃ¼r Ã¼cÃ¼
ĠAd am
ĠdÃ¼zen leme
Ġolm anÄ±z
ra de
ĠK arak
Ġbir imi
ĠM ez
ĠgÃ¶z Ã¼k
ĠgeniÅŁ let
Ġhal ka
ĠS ivas
ĠTan rÄ±
Ġt iyatro
ĠH ABER
ĠMÃ¼ hendis
omet re
ĠE c
zerbay can
Ä±l ma
Ġd oz
Ġmadde si
Ġyap tÄ±m
ĠÃľ zer
ter i
ĠoluÅŁtur an
ĠS em
ĠL ond
unuz a
iy aret
ĠE R
tu ÄŁu
ĠyÄ±l Ä±nÄ±n
Ġd om
d iy
ĠyaÅŁ Ä±yor
ĠÄ° kili
ĠsÄ±r t
es ir
eÅŁ me
ĠS atÄ±ÅŁ
k un
tik ten
Ġmas a
Ġduyur du
ĠsaÄŁlamak tadÄ±r
"" .
K AN
Ä±b bi
ĠÃ§evrim iÃ§i
ĠÄ°ÅŁ leri
Ġev den
ĠPar is
p at
Ġet tiler
Ġol dum
Ãĸ r
Ġbon usu
Ġtab let
lÄ± ca
ĠKul Ã¼bÃ¼
Ġtaraf tan
iler de
S t
Ġk oc
ĠMu h
ĠÃ¼ret ilen
ĠC o
Ġticaret i
ĠgÃ¼n ey
Ġ Ð
Ġkal b
Ġpar mak
EL ER
m os
E Åŀ
Ġ Ù
ĠmaÃ§ ta
ebil eceÄŁi
E H
Ġm uk
ĠÅŁar j
Ġar az
B ey
Ġkend inizi
g Ã¼l
Ġsil in
Ġenf eksiyon
Ġkum aÅŁ
Ġbil en
ĠolduÄŁ um
ĠyÃ¼z lerce
Ġoyun lar
Ġden ir
ĠbaÅŁ ladÄ±k
ĠÃ¶rgÃ¼t Ã¼
Ġd Ã¶
Ġhak lÄ±
Ġpr om
ĠsÃ¼r Ã¼yor
ow n
ey se
ĠV ali
Ġkelim e
Ġrek or
M es
Ġetkil eÅŁ
Ġetm eyi
ĠEn stit
Ġf ar
ĠterÃ¶r ist
ul t
Ġer t
S A
ĠT av
ĠDÄ±ÅŁ iÅŁleri
Ã¼m an
ĠiÃ§er ir
ĠÃ¼lk elerin
ĠÄ° N
ĠÃ§ek iyor
Ä±n an
ĠEkonom i
on ik
ab i
ĠkÄ± v
Ã ¾
ĠÃ¶zgÃ¼r lÃ¼k
ĠC om
Ġev len
ĠaÄŁ Ä±z
Ġanlam ak
ĠE N
Ġko du
S osyal
Ġsan ay
ĠyÃ¶n lÃ¼
ĠE ge
Ġs Ã¼per
av ul
Ġolm asa
Ä±s al
Ä°N E
u el
lan abilir
Ġtasar Ä±mÄ±
Ġhav uz
Ġ4 00
ĠEm re
ĠtaÅŁÄ±m ak
Ġkat Ä
ĠkatÄ ±
ĠH ik
ĠK Ã¼t
is h
d oÄŁ
Ġolmak tan
201 2
pr iz
Al man
ĠdÃ¼ÄŁ Ã¼n
Ġol unca
Ġfir mamÄ±z
ĠbaÅŁ lÄ±klÄ±
ĠY usuf
T V
Ġnokt asÄ±nda
ĠB Ä°L
Ġted arik
Ġcen az
ĠF az
tik Ã§e
Ġn em
ĠkarÅŁ Ä±n
O V
Ġbiz lere
n deki
Ġgel ince
Ġsor du
Ġ Ã¼m
ij inal
Ġdos ya
Ġtav siy
Ġbulun mak
adÄ±k larÄ±nÄ±
Ġmev sim
r it
Ġm ay
ĠDoÄŁ ru
Ġadam Ä
ĠadamÄ ±
T he
Ġst at
ĠoluÅŁ ur
Ġar ayan
Ġsoru lar
Cumhur baÅŁkanÄ±
Ġc Ã¼z
Ġkaz a
b as
el isiniz
G Ã¶nder
Ġbul an
day Ä±z
Ġik ram
ĠK ork
B it
Ġr Ã¶
ĠDeÄŁ iÅŁ
m ara
r ist
daÄŁ Ä
daÄŁÄ ±
il t
Ġrahat lÄ±kla
et le
Ġmu ay
Ġd ili
Ġr ahmet
Ġm Ã¼n
ĠZ ira
eniz e
s av
Ġal abilir
ĠgeÃ§ iyor
Ġbelg esi
Ġy edi
ĠyapÄ±l maktadÄ±r
is indeki
Ġbak Ä±n
Ġt ap
ĠPol is
Ġem niyet
Ġmuhal ef
Ġbilg ilere
a a
Ġser g
Ġsev gil
lu p
un t
Ã¼y Ã¼
ak al
eÄŁ iyle
ĠiÃ§ eri
ĠSÄ±n av
las man
Ġt raf
ĠĠĠĠ ĠĠĠĠ
ÅŁ Ä
ĠolmuÅŁ tu
ĠF ik
ĠAÅŁ aÄŁÄ±
S amsun
ĠHak an
ĠD uy
Ġgid iÅŁ
Ġyet en
ÅŁÄ ±
ĠiÅŁlet me
ĠKar ar
ĠiÃ§in den
umuz un
abor at
eler iyle
Ġs esi
Y azar
ay lÄ±
Ġkah ve
ĠKay seri
ĠkiÅŁ ilere
u da
Ġpsik olojik
ĠmaÃ§ Ä±nda
t um
lam alar
ĠÅŁ eye
im le
Ġ lan
ĠTab ii
Ġt oh
m elik
Ġk Ä±zÄ±
Ġal Ä±rken
Ġger ide
ĠgÃ¶r dÃ¼m
? âĢĿ
j i
ĠD ar
ĠgÃ¶r mÃ¼ÅŁ
Ã¼ ce
Ġsan Ä±rÄ±m
ĠH D
in o
Ġolm alarÄ±
Ġt ren
Ġp rens
en ce
Ġhan Ä±m
Ġplan a
' m
ĠT Ã¼r
eb ilmesi
ĠgeliÅŁ me
ĠaÃ§ Ä±ldÄ±
suz luk
Ġdolar lÄ±k
c Ä±lÄ±ÄŁÄ±
Ġyar gÄ±
ut in
ĠAr dÄ±ndan
u a
Ġkon uyu
Ġsev g
ĠR apor
Ġkar bon
Ġettik leri
Ġd an
ĠkullanÄ±l maktadÄ±r
I T
Ġm ini
eÄŁ inde
ĠsÃ¼r Ã¼m
5 00
ĠM aÃ§
ĠsÃ¼r eli
Ġengel li
Ġsat Ä±m
mekt eyiz
ĠOt om
esel a
ĠV ol
ĠK es
tÄ±k tan
ĠElekt rik
ĠBir Ã§ok
ip lin
Ġ Ø
Ġkalit esi
Ġmey v
Ġalan a
ĠsÃ¶z Ã¼
Ġedeb il
Ġ Ã¼s
rim enkul
ĠMu ht
ler deki
K AR
ĠF otoÄŁraf
Ġihtim al
eÄŁ inin
Ġmem leket
Ġprot okol
Ġ lik
Ġan Ä
ĠY Ã¼r
ĠanÄ ±
ĠkiÅŁ iyi
Ġolm anÄ±n
Ġgel miÅŁtir
Ġaktiv it
s p
Ġisteyen ler
m esinden
ĠUz man
Ġkat k
Ġok uma
ĠG e
Ġprom osyon
Ġend Ã¼str
c Ã¼k
lar ken
Ġg ib
manÄ±z a
lan dÄ±ÄŁÄ±
ĠEn erji
Ã¶l y
Ġris ki
ĠK uvvet
b eri
ĠsÃ¶z leri
ĠÅŁey leri
Ġkur mak
Ġyar alÄ±
Ġol ayÄ±
ĠP latform
Ù Ĵ
E Ãĩ
Ġkar anlÄ±k
Ġaks ine
âĢ ĭ
D Ã¼ny
e e
Ġtur ist
Ġdevr eye
imiz le
al og
ĠÄ ±
ĠÃĸz gÃ¼r
U Åŀ
Ġk Ã¢r
ĠyukarÄ± da
ĠDo Ã§
Ġk Ã¼Ã§
Åŀ u
Ġkayb ed
ĠoluÅŁ um
U l
) ;
Ġe x
ak eti
Ġmez ar
ĠLis esi
Ġekonom i
Ġg ram
ik ol
ay dÄ±
Ã¼r riyet
Ġc on
ĠOn lar
d ing
ĠK UR
bah ar
ĠDeniz li
ĠE K
ek tif
amÄ±z da
Ġli deri
Ġod asÄ±
Ġ0 4
ĠsÄ±v Ä
ĠsÄ±vÄ ±
K adÄ±n
ĠS ch
ĠFil istin
ĠErz urum
Ġden em
ĠEÄŁ it
ĠÅŁek li
malar Ä±na
ĠD i
Ġed ilerek
Äŀ Ä°
ĠkÃ¶ p
Ġuy ku
ĠÃľst elik
ĠS akarya
ĠÃ¶ mr
ĠaÃ§Ä±k Ã§a
ĠsÃ¼r Ã¼c
ĠN ev
al el
Ġkayb eden
Ġak r
Ġal Ä±mÄ±
D r
Ġih lal
Ġdemokr atik
Ġzinc ir
d Ä±ÅŁÄ±
Ġb omb
ĠY emek
ĠÃ§oc uÄŁu
ĠBÃ¶l Ã¼mÃ¼
Ġhakk Ä±nÄ±
c Ä±lÄ±ÄŁ
d Ã¶n
Ġbit ki
meler ini
ĠM in
ĠD oktor
Ġbildir di
ilm elidir
Ġkem ik
Ġsab Ä±r
Ġpiyas asÄ±
ĠD aÄŁ
Ġyas a
w s
Ġh ekim
ay olu
iler le
le x
ĠT ÃľRK
Ġf orum
Ġsur etiyle
ĠR oma
Ġt Ã¼c
ĠN ec
Â ·
Ġ3 7
tic aret
ĠdeÄŁil im
Ġ1 000
ĠÃĸn ce
ĠM el
lan arak
K am
ĠÃ§Ä±k masÄ±
ĠyumuÅŁ ak
bal aj
em iyor
Ġet ken
lim a
ĠÅŁeh rin
ĠP lay
Ġsay Ä±sÄ±nÄ±n
ĠE mek
Ġbir ine
Ġbil iyoruz
Ġsit eler
de d
ĠÅŁ unu
ig n
Ġprot est
Ġalb Ã¼m
Ä° P
Ġ2 50
ĠyÄ±l a
t or
ĠbaÅŁar Ä±sÄ±z
ĠK uÅŁ
ĠsektÃ¶r Ã¼
ti p
Ġkullan ma
O C
ap i
ala xy
Ġic ra
ĠTab i
ĠgÃ¶rÃ¼l mektedir
ob et
Ġsun mak
Ġan ket
ĠTak Ä±m
6 6
K Ä±r
ĠG iz
Ġtehlik eli
uk ur
Ġbulun duÄŁunu
Ġgel diÄŁinde
Ä±l aÅŁ
ĠÃ§ elik
at lÄ±
Ġde z
Ġm ide
Ġsig orta
Ġmekan iz
Ġs Ã¶
c Ã¼sÃ¼
Ġs Ä±ÄŁÄ±n
Ġnes n
Ġsem bol
Ġkullan Ä±yor
ĠH Ä±r
Ġorta da
la Ã§
ĠGÃ¶r ev
Ġh ip
ĠÃĩ Ã¶z
ers iniz
Ġar asÄ±na
Ġsay g
ĠkÄ±r Ä±k
K an
Ġetm ez
Ġsig ara
Ġkr itik
ĠC addesi
or it
l iyoruz
AL I
Ġay larÄ±nda
Ã¼l Ã¼r
Ġm avi
Ġ ec
deb iyat
ĠsaÄŁlan masÄ±
ĠyapÄ±l abilir
ok s
ĠÃ¼rÃ¼n Ã¼n
E m
ĠKah raman
l d
an et
R Ã¼yada
C ev
D eniz
ĠHan gi
Ġnit eliÄŁ
y ol
ĠB odrum
ĠseÃ§enek ler
tiÄŁ iniz
tr al
Ġnumar alÄ±
abil eceÄŁ
Ġal kol
Ġbes len
Ġzir v
ĠdeÄŁiÅŁ ken
Ġtut um
Ã¢ l
ĠdÃ¶nem lerde
Ġsun um
Ġy al
ab ak
duk tan
K end
Ġid daa
Ġkamu oy
ĠTar if
ĠK aya
ht tps
ĠEt kin
. [
Y Ã¼k
ĠÃ¶zellik ler
Ã¼p han
Ġmah alle
ĠbÃ¶l Ã¼n
Ġmerkez inde
ĠmÃ¼l k
v i
leÅŁtir me
ĠkatkÄ± da
ĠD iz
Ġekip man
ĠP h
Ġbin a
Ġhukuk i
ĠH emen
un Ã§
Ġunut ul
A A
ĠGÃ¶ ster
am adÄ±m
ĠgÃ¶r dÃ¼ÄŁÃ¼
ĠB Ã¼l
ĠP ek
ĠÃ¶de y
ut u
Ġkey f
ĠG Ã¼ndem
Ġkonu lar
ĠEn gel
ĠT BMM
Ġev inde
ĠBar Ä±ÅŁ
ĠD ek
ĠalÄ±n acak
m is
Ġeg emen
Ġon ur
ĠbÃ¶lg eye
Ã§ u
ĠÃ§Ä±k tÄ±ÄŁÄ±
ĠÃ§iz g
Ġs lot
Ġkum ar
Ġmis iniz
dir ne
ĠÅŁ Ã¼k
ĠÃĩ ak
ĠÅŀ er
l on
F orex
Ġh ediy
Ġcin ayet
Ġhem ÅŁ
? ?
y di
ap p
ĠvatandaÅŁ larÄ±n
Ġg elerek
H ar
Ġs ef
ĠdÄ±ÅŁ Ä±na
Ġh itap
Ġhakk Ä±ndaki
Ã§ Ä±lÄ±k
D EM
Ġmekt up
Ġimz alan
Ġyap rak
Ġalt Ä±ndaki
ĠFor eks
ĠM Ã¼cad
Ġhar iÃ§
Ġkaynak lÄ±
ĠyÄ±l larÄ±
ut ma
S Ã¶z
Ġkolay lÄ±kla
Y ak
Ġyap tÄ±ÄŁÄ±nÄ±
av uÅŁ
d un
o id
ĠÃ§ek ir
Ġgetir diÄŁi
AC AK
Ġsit enin
Ġlist esi
ĠÄ°s lÃ¢m
ĠH indistan
Ġev ren
A b
an larÄ±n
Ġm m
ĠiÃ§er iÄŁi
Ġs om
Ġbel ge
7 7
Ġv ide
K ap
Ġv ah
ĠB M
Ġht tp
ĠSek ret
ĠRes mi
ĠFederasyon u
ĠSer vis
Ġ3 9
Ġmedya da
Ä±ÅŁÄ±k lÄ±k
ĠÃĸ yle
Ã§ ilerin
Ġv izyon
ĠÃ§alÄ±ÅŁmalar Ä±na
ĠkoÅŁul larÄ±
ĠK ayÄ±t
ĠKup asÄ±
ĠGazet e
Ã¼kle er
er yal
tÄ±ÄŁ Ä±nÄ±z
T er
A mer
ir in
Ġark asÄ±nda
Ġkullan Ä±larak
ĠaÃ§ mak
lin ik
Ġir ade
S or
Ġf estiv
Ġy aÄŁÄ±
ĠÃ§alÄ±ÅŁ Ä±yoruz
Ġolm ayacak
ĠeÅŁ ya
ĠaÃ§Ä±k landÄ±
ĠÃĸr gÃ¼t
ĠÄ° ST
BaÅŁk an
em em
ĠJ ohn
Ġgerekir se
ĠTrabz onspor
Ġd edik
ĠA p
lÃ¼ÄŁ Ã¼ne
Ġsaat leri
at ta
ĠO lay
Ġidar i
ĠP sik
ĠaÃ§Ä±klam alarda
Ġfiyat lar
et en
m l
ur e
Ġkul Ã¼b
ĠJ o
Ġy av
Ġolay lar
Ġ3 4
ler inize
Ã¼l mÃ¼ÅŁ
Ġhayat Ä±n
ec iler
o ot
Ġpl astik
ir t
l it
Ġ3 3
m es
Y ON
Ġdam ar
ĠA V
ĠÃ¶ mÃ¼r
19 8
b Ã¼s
ĠÄ°n cel
Ġsev en
Ġson suz
Ġbak alÄ±m
Ġ200 6
D Ä°R
r id
ĠC ep
ĠaÃ§ an
Ġkon s
ĠM ay
Â «
Ġf Ä±k
ĠS Ä
ĠÃ¶ f
Ġistik rar
Ġplan Ä
ĠplanÄ ±
Ġtaraf Ä±nda
Ã¼l asyon
B ay
ekt aÅŁ
ĠsÃ¼r Ã¼k
Ġrezerv asyon
Ä±rs ak
Ġhafta da
Ġsel am
ĠkÄ±sm Ä±nÄ±
P eki
el li
ĠÃ¶ÄŁrenc ileri
l Ä±lÄ±ÄŁÄ±
Ġal mÄ±ÅŁtÄ±r
Ġuzak laÅŁ
ĠR enk
ĠM ag
Ġkur ban
ĠS ol
ĠÃĩ ay
st e
ĠdÃ¼z gÃ¼n
Ġol anÄ±
i on
ĠbÃ¼y Ã¼y
Ġanlam lÄ±
K r
Ġc az
ĠgÃ¶rev l
Ġyah ut
umuz u
ĠOy sa
ĠB log
Ġmak simum
ĠÃ§ek mek
6 8
Ġr an
uy du
Ġkural larÄ±
Ġodak lÄ±
ĠV ideo
ĠbaÅŁ ladÄ±ÄŁÄ±
Ġbek leyen
ĠgÃ¶ster g
Ġihtiyac Ä±nÄ±z
A Ã§Ä±k
ĠKon trol
201 1
Ġas it
ab ildiÄŁ
ĠsÃ¼r priz
Ġ **
Ġsal gÄ±n
ĠulaÅŁ tÄ±
ĠÅŀ im
it Ã¶r
Ġhak aret
ĠgÃ¼zel lik
ĠKomisyon u
Ġkalab alÄ±k
Kul lan
ĠK ore
Ġbizim le
ĠSÄ ±
G ÃľN
Ġnak liyat
ebil eceÄŁiniz
Ġmillet vekil
ĠtÃ¼ket ic
Ġren gi
Ġden eme
ĠU ÄŁur
Ġtan Ä±k
nam e
Ġuzak tan
Ġd Ã¢h
Ġan lar
ĠK ON
ĠÃ§ap Ä±nda
ĠgÃ¶rÃ¼l Ã¼r
lam alarÄ±
Mer haba
ĠÃ¶ÄŁren ildi
Ġpiyas ada
Ġcan landÄ±r
Ġkapsam da
ĠÃ§ aba
Ġetk ileri
Ġayr Ä±ntÄ±lÄ±
ĠhÃ¢ lÃ¢
v iÃ§
ĠgÃ¶ster diÄŁi
Ġhad is
il ler
ĠanlaÅŁ ma
Ġfark Ä±nda
Ġkarm aÅŁÄ±k
ĠYap Ä
Ġg Ã¼z
ĠYapÄ ±
Ġad Ä±yla
ĠdeÄŁiÅŁik liÄŁi
Ġtut mak
Ġnak liye
Ġokum ak
ĠAÄŁ Ä±r
Ġy oÄŁ
lar Ä±mÄ±
Ġs a
Ġonun la
Ġegz ersiz
ĠZ or
Ġbilm iyorum
Ġsorun suz
Ġd eri
ĠP erson
S Ä°
ĠdÃ¼ÅŁÃ¼n Ã¼r
Ġalan Ä±na
Ġail esi
ĠettiÄŁ iniz
ĠHes ap
lÄ± lar
Ġver il
ĠiÅŁ yer
Ġkal dÄ±ÄŁÄ±
Ġunut mayÄ±n
Ġgalib iyet
Ġser tifik
Ġp ost
Ġpro fil
Ġman evi
ĠM or
ĠYar Ä±ÅŁ
Ä±l ama
Ġa ilen
lu b
ĠM etin
ĠyaÄŁ Ä±ÅŁ
Ġol say
ĠkÄ±sm Ä±nda
Ġkil ometre
B ah
P ol
Ġyeter ince
onom i
ĠgeliÅŁ en
ĠgeliÅŁtir me
F A
ĠK um
Ġbul aÅŁ
Ã§ in
IN A
ĠiÅŁlet meler
D Ä±ÅŁ
Ġmak ine
Ġbun lara
H as
r aÃ§
k aya
ĠdÃ¶nem in
ĠOr tak
ĠyÄ±l Ä±na
Ä±l mak
P S
Ġkr iter
ĠÅŁ ok
men ize
Ġver g
ĠC or
Ġtarz Ä
ĠtarzÄ ±
ĠHay van
Ġar ÅŁiv
ik al
ĠTem sil
Ġt uÅŁ
ĠG ez
Ġl ek
ĠolduÄŁ unun
ĠgÃ¶ster mek
ĠAn ayasa
ĠS Ä±nÄ±f
Ġyer leri
ĠaÅŁ aÄŁ
Ã§ ek
ĠkatÄ±l dÄ±ÄŁÄ±
Ġtaleb i
ĠB ebek
Ġp or
Ġz ehir
Ġtep k
ĠbaÄŁ Ä±r
Ġkam yon
liÄŁ iyle
Ġo muz
Ġkend isinin
R es
u x
end im
ĠÃ§Ä±k ma
ĠKons eyi
ĠT im
ĠG Ã¼mÃ¼ÅŁ
ĠÃ¼lk elerde
ĠdanÄ±ÅŁ man
Ġi kin
ĠY alnÄ±z
ht tp
Ġdeney imi
AT O
ĠDer gisi
Ġkend imi
Ġfark Ä±n
T el
ĠdeÄŁiÅŁ en
Ġharc am
ĠÃ¶ÄŁren me
Ä°n ternet
Ġsaat i
ĠÃ¶rn eÄŁi
lem iÅŁ
Ġgetir iyor
ĠU Ã§
Dev let
ĠHan Ä±m
Ġin f
Ġtarih inden
ĠgeliÅŁtir mek
Ä°S Ä°
ĠV ER
luÄŁ a
c al
Ġarac Ä±n
i x
ĠkeÅŁ fet
Ġrahat sÄ±zlÄ±k
ĠgÃ¼n leri
D eÄŁ
ĠbÄ± Ã§ak
ĠarkadaÅŁ Ä
ĠarkadaÅŁÄ ±
ĠUygul ama
ladÄ±ÄŁ Ä±mÄ±z
B A
Ġ7 5
EÄŁ itim
ĠolmasÄ± dÄ±r
Ġtek er
f Ã¶y
Ġdin amik
Ġs et
ĠSav unma
C E
Ġgide cek
Ġver mesi
Ġs Ã¶n
Ġv el
ĠeÅŁ liÄŁinde
Ġil a
an o
ĠÃ¼lk eye
Ġw ith
Ġzarar lÄ±
ĠH ey
m edik
ĠY ay
ĠmÃ¼ h
abilm e
ĠTar af
eng iz
S ur
ĠN it
Ben im
Ġvar say
T ak
laÅŁ masÄ±
ĠLond ra
Y er
Ġbul uÅŁtur
por taj
Ġf en
Ãľ Åŀ
ĠÃ¼st len
ĠÃľcret siz
ĠA zerbaycan
ĠÃ§ab uk
bur g
Ġger iye
Ġyor gun
dir im
ĠdoÄŁ an
Ġmak yaj
Ã§ ileri
Ġn ez
Ġboyut u
ĠT edav
ĠH e
ĠY ou
Ġkal Ä±p
larÄ±mÄ±z la
al Ä±sÄ±nÄ±z
ĠBaÅŁk a
ĠanlaÅŁ Ä±l
ĠgÃ¼n ah
uyor lar
Ġmus unuz
ĠyÃ¼kÃ¼m lÃ¼l
un us
ĠCev ap
Ä±l Ä±ÅŁ
usun daki
ĠseÃ§ in
ĠAd alet
ĠLis ans
tal yan
ĠkarÅŁÄ±l Ä±ÄŁÄ±nda
Ġah lak
D em
Ġdu a
ĠÃ¶z gÃ¼
ak lar
Ġtekn olojik
ĠaraÃ§ lar
ley ebilirsiniz
Ġ @
Ġ6 5
Ġkontrol Ã¼
Ġef san
ĠKÃ¶y Ã¼
O sman
Ġes nek
Ġtes ti
ĠÃ§ eÅŁ
Ġisten en
Ġsit esinin
Ä±yor sunuz
ĠDE Äŀ
Ġolmak la
ĠbÃ¼y Ã¼t
Ġsah ne
Ġc errah
Ġp eyn
s Ã¼
Ġbekl iyoruz
Ġgerekli dir
h aber
ĠM ik
ĠU r
ĠB Ã¶yl
T T
ĠBilg isayar
im ini
m emek
Ġk Ã¶r
u larÄ±
Ġdev ir
m adÄ±m
Ä±mÄ±z dan
at Ã¼r
m ac
Ġpro tein
ĠkaÅŁ Ä±ÄŁÄ±
lan maktadÄ±r
Ġkaynak larÄ±
ĠDoÄŁ al
Ã¼n ce
ĠaÅŁk Ä±n
Gen Ã§
Ġfir malarÄ±
ĠiÅŁlem e
tÃ¼r Ã¼
Ġdo lara
Ġtam ir
Ġs eri
Ġbah ar
ĠM o
k y
iÅŁ an
Ġsistem ini
Ġ5 5
Ġann esi
Ġsin ema
G S
fen di
Ġm it
Ġolm asÄ±nÄ±n
ĠMÃ¼ÅŁter i
ĠÄ±r k
Ġtamam Ä
ĠtamamÄ ±
b it
Ġs akat
Ġgel eceÄŁi
Ġbir inc
ĠÃ§Ä±k Ä±p
Ġder ken
ĠiÅŁlet im
Ġas gari
Ġsistem in
ĠdeÄŁer leri
ĠY at
Ġtan Ä±y
Ġtoplant Ä±sÄ±nda
ro w
ĠdoÄŁ ur
ĠB ana
Ġmillet vekili
Ġyaz Ä±n
ĠKan unun
ĠdoÄŁ a
Ù ı
Ġnak it
Ġzaman lÄ±
ĠFestiv ali
S u
u du
ĠP C
Ġsit eye
Ġk afa
l Ä±yorum
Ġkr al
Ġuy uÅŁturucu
am Ä±n
ĠÄ°nÅŁ aat
ecek ler
p o
Ġduyg usal
malar a
Ġyak Ä±t
ildiÄŁ inde
Ã °
dÄ±k larÄ±nÄ±
tÄ±k larÄ±nÄ±
Ġkal mak
g ur
Ġik isi
tik leri
ĠSamsun g
ĠS orum
ĠG Ã¶nder
Ġder nek
ĠÃ§ el
lar i
Ġsit ede
ĠHav alimanÄ±
ĠgÃ¶rÃ¼nt Ã¼len
ĠFiyat larÄ±
ĠÃ§Ä±kar mak
Ġgel diÄŁ
Ġinsan a
ĠÅŁirket ler
L EN
Ġhat tÄ±
Ġd ans
ĠT Ãľ
Ġsistem ine
Ġteb rik
ĠilÃ§ esi
I LI
P G
Ġbr oker
ĠyardÄ±m Ä±yla
Ġsen ar
Ã¼le cek
ĠÃĸÄŁr etim
Ġmahk eme
Ġbilg ilerin
Ġs kor
ti ve
T ur
Ġetk iler
ĠÃ¶ÄŁrenc ilere
C EL
Ġ Ä±sÄ±t
ĠyÃ¶net men
iniz den
l Ã®
Ġgel dik
Ġayak ta
ĠOr han
6 9
K im
ĠE D
Ġda ima
ĠG EL
Ġvat an
Ġt ay
m adÄ±k
Ã§ ilik
Ġma il
alÄ± lar
ĠdÃ¼zen lediÄŁi
Ġuygulam aya
ĠKadÄ±n lar
Ġseviye de
ĠA ir
dÄ±ÄŁ Ä±na
Ä° st
m emiz
Ġver dim
ĠÄ°m parator
v in
ĠdÃ¢h il
Ä±nÄ±z dan
Ġkon uya
ĠÃ§Ä±kar dÄ±
Ġve fat
Ġort asÄ±nda
Ġs Ã¼n
ĠyaÅŁam Ä±nÄ±
Ġor ijinal
ĠsÄ±k lÄ±kla
ĠvasÄ± t
alar Ä±yla
Ä±m dan
ĠG Ä±da
Ä°N Ä°
Ġbil iyorum
ĠY IL
li c
Ã¶n Ã¼l
aman Ä±z
Ä° ki
Ġoyuncu lar
tiÄŁ im
EN Ä°
ĠinÅŁ allah
i o
ĠF orm
Ġsaat te
Ġbilg ilerini
201 0
Ġkam panya
ĠHat ay
Ġdir ekt
un c
Ã¼ÄŁ Ã¼n
Bur sa
Ġm oda
ĠÅŀ anlÄ±urfa
ĠM ir
ĠS im
ĠsÃ¶ylem iÅŁ
ĠFark lÄ±
Ġinan Ä±lmaz
ey t
ĠHay Ä±r
ĠN ot
Ġs atÄ±r
Ġl og
G B
ĠÅŁeh ri
I P
Ġt ev
art man
ĠÃ¶r neÄŁin
Ġsahip leri
Ġyok sul
Ġprogram larÄ±
Ġayr Ä±m
ĠMÃ¼z esi
GÃ¼ncel leme
Ãĩ alÄ±ÅŁ
lÄ±k tan
uc usu
Ġbul ut
Es ki
Ġir ti
Ġy ansÄ±
ĠaÅŁam asÄ±nda
ĠÃĸ N
ĠaÃ§ ma
Ġhaft alÄ±k
ĠIÅŁ Ä±k
y aÅŁ
Ġs log
Ġev r
ĠgÃ¼c Ã¼nÃ¼
ĠP a
ĠL ev
up er
Ġev rak
ÅŁ ek
am es
ĠM is
iz min
ĠE min
ĠD A
ĠeÄŁ ilim
Ġko ordin
ĠÃ¶n lemek
ER S
Ġyum urta
eden iyet
ak istan
Ġkol eksiyon
ĠMu ÄŁ
ĠbaÅŁ lamak
anÄ± p
A Ãĩ
Ġvurgul ayan
Ġyarg Ä±lan
Ġhayat Ä±na
ĠÄ±s rar
ĠT iyatro
Ġ ..
ĠA il
ĠT ip
G K
F acebook
Ġk uy
Ġdiren Ã§
ĠhÄ±z landÄ±r
ĠS ON
Ġsev iyesi
Ġcev ab
ĠyardÄ±m Ä
ĠyardÄ±mÄ ±
Ã¼r t
Ġden ilen
Ġal mayÄ±
ĠÃ¼lk emiz
y n
Ġr Ã¼y
Ġl Ã¼ks
Ġkr em
oc uÄŁ
ĠyatÄ±rÄ±mcÄ± lar
Ġaks es
Ġist atistik
ĠÃ¶z et
Ġmesaj Ä
ĠmesajÄ ±
ĠMan isa
am Ä±zÄ±
Ġg Ä±d
Ð ¾
Ġdil iyorum
Ġsiyas al
Ġolur ken
Ã¼l Ã¼yor
ĠsÃ¼r Ã¼
ĠKiÅŁ isel
lÃ¼ÄŁ Ã¼nÃ¼
Ġb edava
es un
k as
Ġfazl asÄ±
ĠGel iÅŁtir
Ġlis te
ĠGÃ¼n lÃ¼k
Ġh id
' ,
ĠÃ§iz gi
o ter
ĠBaÅŁ ar
N A
ĠP aylaÅŁ
Ġp ayÄ±
Ġbir ÅŁey
Ġbu ton
D V
ĠR ob
ĠAb dÃ¼l
Ġcep h
Ġkend ileri
Ġolm uyor
G oogle
e x
ĠÃ§Ã¶zÃ¼m ler
Ġanal izi
B azÄ±
ĠgÃ¶rÃ¼n ce
Ġst ok
Ġolur du
m u
ĠkayÄ±t lÄ±
Ġmark et
Ġbiz zat
y urt
Ġd i
ĠÃ§ek in
ĠMic rosoft
Ġaltyap Ä
ĠaltyapÄ ±
Ġtarih ine
S Y
Rus ya
Ġimz al
ak larÄ±
ĠÄ°s panya
Ġkon ul
Ġhareket li
Ġist edim
cel l
Ġetm ey
Ġab on
Ġgetir ilen
Ġyol unu
mel isiniz
ĠM aÄŁ
Ġs of
mam Ä±ÅŁtÄ±r
il ya
luÄŁ unu
tÄ±ÄŁ Ä±nda
ĠÃ§ erez
Ġsit esine
otos iklet
Ġmat eryal
Ġev in
ĠT rans
Ã¶r d
am adÄ±ÄŁÄ±
Ġp oker
ĠeÅŁ lik
p s
Ġfaaliyet leri
D er
Ġorgan ize
Ġpar ayÄ±
Ġakadem ik
ĠkÄ±s aca
Ġstr es
A f
ĠE mir
tÄ±ÄŁ Ä±m
Ġsin em
ĠÃ§Ã¶ p
Ġbuy ur
az in
S AN
6 7
Ġc oÅŁ
ĠVal isi
esin ce
ĠkarÅŁÄ±lÄ±k lÄ±
ĠiÅŁlem lerini
ĠyÃ¼ksel di
Ã¢ b
Ġmerkez ine
c in
Ġbiz ler
ĠD igiturk
Ġp en
lay abilirsiniz
Ġdip lom
f af
Ġoyn anan
Ä±rs Ä±nÄ±z
Ġverilm iÅŁtir
Ġi man
j e
Ġlim it
h ay
ĠhÃ¼k m
ĠdÄ±ÅŁ Ä±ndaki
ĠgeÃ§ mek
de si
Ġc om
ĠsÃ¶y ler
ĠgÃ¼l Ã¼m
ĠAk adem
Ġt ef
mar aÅŁ
Ã¼k et
O t
B Ã¶l
ĠÃ§ an
duÄŁ unda
Ġmas k
T K
Ġd elik
ĠProj e
Ġbul ur
Ġyaralan dÄ±
ĠtakÄ±m Ä±n
ĠÅŁey den
ĠsÃ¼rdÃ¼r Ã¼lebilir
ul a
Ġ1 20
Ġek stra
Ġgetir ir
n Ã¼
ĠyapÄ±lan dÄ±r
ĠEnstit Ã¼sÃ¼
ĠV en
Ġb eÄŁ
Ġf uar
ĠaÄŁÄ±r lÄ±k
Ġolur sunuz
eb ze
ĠDo lar
Ġsek iz
Ġistif a
iyor sunuz
ĠK orum
ĠGel iÅŁ
Ġanlam Ä±nda
Ġdep lasman
ĠMÃ¼z ik
R ET
Ġbed eli
Ġm im
Ġkon ferans
oloj isi
ĠgÃ¶z e
an ma
A pp
ĠÃ§ocuk lara
ĠEl azÄ±ÄŁ
ĠYayÄ±n larÄ±
in er
ĠH is
Ġkal acak
Ãĸzel likle
am Ä±yorum
Ġr om
ĠgerÃ§ekleÅŁ ti
Ġolmaz sa
ilmiÅŁ ti
Ġsahip liÄŁi
ĠgÃ¼n Ã¼nde
Ġister im
ĠgÃ¶rÃ¼ÅŁ me
ĠE debiyat
ĠyapÄ±l mÄ±ÅŁtÄ±r
Ġvar lÄ±ÄŁÄ±
Ġmuhtem elen
ow er
Ġedecek tir
ĠÅŀeh it
ĠAj ansÄ±
Ġpah alÄ±
âĢĿ ,
ĠdÃ¼ny ayÄ±
AL AR
ĠB o
Ġtak sit
Ġdemokr asi
res yon
Ġt ey
ĠHast alÄ±k
luÄŁ un
Ġev i
ĠTop lam
Ġkal Ä±yor
ĠÃ¶ v
ĠD al
ĠÃĸr nek
ĠiliÅŁk ileri
v il
Ġev ine
iÄŁ eri
ĠâĢ º
ĠG alaxy
Ġd iyorum
Ġ200 5
mam alÄ±dÄ±r
Ġkurum lar
ĠsÄ±nÄ±r larÄ±
Ãĸ L
Ġel inden
ĠÃ¶ tÃ¼rÃ¼
ĠEr men
laÅŁtÄ±r ma
ĠistediÄŁ ini
ĠyaptÄ±ÄŁ Ä±nÄ±z
Ġbit coin
d il
Ġor aya
ĠgÃ¶rÃ¼l Ã¼yor
ĠSer visi
Ġkar Ä±n
ĠÄ° r
ĠbÃ¶lg esi
ĠEÄŁit imi
M il
Ã¼m in
Ġdol andÄ±r
m ad
ĠiÅŁ len
Ġyer lere
Ġvak a
Ġiz l
ons or
Ġbun lardan
Ġyorum larÄ±
ud um
ĠH ac
ĠB ol
ĠDevlet i
Ġl it
ĠA lev
am ini
Ù Ĩ
iy eli
Ġkr izi
ĠB eÅŁ
Ġhizmet e
Ġzaman la
M ET
Ġmin imum
Ġodak lan
ĠBahÃ§ eli
on gul
ation al
Ġsoru larÄ±
Ġal dÄ±ÄŁÄ±nÄ±
lÄ±ÄŁ Ä±ndan
ĠÅŁÃ¼ph eli
ĠdeÄŁiÅŁiklik ler
K or
ĠG B
ĠÄ° p
! ..
ĠÃ¼lk emizin
ĠdÃ¼ÅŁÃ¼n dÃ¼ÄŁ
s et
Ġnokt aya
Ġban yo
ĠkarÅŁ Ä±sÄ±na
ĠYÃ¼k sel
Ġziy ade
Ġmilyon larca
g ut
atÃ¶r Ã¼
Ġpar alel
Ġy uvar
Ġtaraf Ä
ĠtarafÄ ±
ĠgÃ¶rev ini
or ld
Ġs ir
ĠbÃ¶lÃ¼m de
ĠÃ§alÄ±ÅŁ tÄ±ÄŁÄ±
Ä±s Ä±n
ongul dak
m Ã¼yor
ĠD el
Ġsat Ä±ÅŁÄ±
st il
M al
Ġar Ä±z
ĠKom utan
Ġkullan maya
aÅŁk Ä±n
Ġta ahh
Ġkorun masÄ±
ic dan
Ġd ediÄŁi
ĠT C
ĠÅŁ ansÄ±
Ġcev abÄ±
Ġhastan eye
ĠyÃ¼z Ã¼
Ġkonu larÄ±
ti har
Ã§Ä± lar
Ġtoplant Ä±sÄ±
EL Ä°
ĠJap onya
Ġsen edi
ĠbaÅŁ lÄ±k
Ġsilah lÄ±
p ress
ĠGeÃ§ en
9 5
Ġah ÅŁap
ĠR oman
ebilir ler
Ġmerkez li
Ġol acaÄŁÄ±z
Ġkurul um
ĠoluÅŁtur ur
ĠsaÄŁ ladÄ±ÄŁÄ±
Ġs ub
p Ä±nar
Ġsen dik
ĠÅŁ air
ĠDÃ¼ny anÄ±n
a iz
ĠÅŁ ik
ĠtÃ¼r leri
ĠMal z
O D
ran d
Ġev vel
Ġyarar lÄ±
Ġtur nuv
Ġtop luluk
ĠT AR
Ġsah te
ĠG Ã¶l
o ta
ĠtaÅŁ Ä±yor
s Ã¶r
Ġhik Ã¢y
Ġart tÄ±
Ġzor lu
Ġses li
Ġist asyon
ĠÅŁirket lerin
ĠJ andarma
Ġsunu cu
S el
Ġrad yo
k ap
ĠUygul am
Ġdur uyor
Ġdepol ama
ĠM i
Ġdiz isi
ĠKan al
Ġmal iyeti
Ġtop ar
B ar
ilir ken
Ġitibar Ä±yla
Ġak Ä±m
Ġadres imi
tad oÄŁu
ĠoluÅŁtur ulan
Ġtaz e
Ã§ asÄ±
adÄ±ÄŁ Ä±m
ĠeÅŁ siz
ek om
Ġyaz arÄ±
Ġsen d
Ġkal ma
mak tÄ±r
Ġs ul
L EM
ĠÃ§Ä±k arak
Ġmad en
Ġbelir gin
Ġmalzem eleri
re e
c Ä±ya
ĠO R
ĠsÄ±cak lÄ±k
amÄ±z a
Ġh orm
ĠD ef
m at
Ġetraf Ä±nda
Ġbu dur
ĠbaÅŁ Ä±ndan
D IR
ĠVat andaÅŁ
Ġrapor u
Ġotur um
Ġsan Ä±k
los uz
Ãľr Ã¼n
Ġkir alama
An talya
Ä±n dÄ±k
amak tadÄ±r
Ġtav Ä±r
ĠyaÅŁ ama
Ġtut un
Ġtoh um
ĠAÅŁ k
G erÃ§
ĠÃ¶nem lisi
ÅŁ ak
F T
Ġ4 7
ber g
Ġstratej ik
Ġb asÄ±l
Ġla f
Ġkoruy ucu
ĠgeÃ§ir mek
out ube
ĠC ol
Ġdurum lar
Ġver dik
ĠYer el
ĠÃ¼y eler
g resi
Ġsiz leri
ĠMuÄŁ la
ĠTes is
ĠDik kat
ĠgÃ¶rev lendir
Ġberaber inde
Ġortam Ä
ĠortamÄ ±
ĠyÃ¼rÃ¼t Ã¼len
lam ent
ĠS ite
ev eyn
B B
ĠT ep
ĠolaÄŁan Ã¼stÃ¼
m ediÄŁini
Ġeder ler
Ġkayde den
ĠD iÅŁ
Ġnetic esinde
Ġsistem e
Ġdon dur
Ġalan larÄ±nda
ĠY avuz
B UL
Ġbiz den
Ġdetay larÄ±
Ġih raÃ§
den in
Ġoyn ayan
ĠÃľ ret
ed in
Ġel ine
Ġetkil eyen
Ġs tan
ĠA Ãĩ
ĠMes aj
ĠUS D
Ġelem an
ĠÄ° ht
ĠÃ§Ã¶zÃ¼m Ã¼
Ãĩ in
ĠgÃ¶nÃ¼l lÃ¼
Ġyap ay
ĠMes lek
Ġ5 8
ĠG ÃĸR
Ãĩ ev
Ġyap maktadÄ±r
Ġetik et
ĠkÃ¶ ken
n daki
ĠS ez
Ġadam Ä±n
ĠÃĩ iÃ§ek
Bur ada
ĠyaÅŁan dÄ±
Ġdost u
ĠYak Ä±n
Ġbilm ek
ĠRab b
Ġhareket i
ĠM esela
Ġkullan Ä±n
ĠÄ°l gili
ĠÃ¼zer i
ĠdÃ¼zen lendi
ĠÃ¶rg Ã¼tÃ¼n
E t
ĠyerleÅŁ im
200 9
ĠÃĸz tÃ¼rk
Ġbor sa
Ġbildir ildi
ĠÃ§ ant
Ġ6 00
ĠMar mara
ĠKon uÅŁ
y im
Ġvade de
Ġyak Ä±ÅŁ
ĠÃ¶lÃ§ Ã¼m
Ġdayan Ä±klÄ±
ĠK a
ĠÄ° lan
umuz a
ĠdaÄŁÄ± tÄ±m
ilecek tir
Ġt l
iv er
Ġhak em
m Ä±yorum
ub u
Ã¶rd Ã¼ncÃ¼
l Ä±lÄ±ÄŁ
Ġkullan Ä±r
ĠbaÅŁlam Ä±ÅŁtÄ±r
eli f
Ãĸ K
Ġbak ar
ĠeÄŁlen ce
Ġs ad
G Ã¶z
w in
ĠT EK
eb elik
ĠÃ§alÄ±ÅŁ tÄ±
ĠP l
c uk
Ġh alÄ±
ĠUy gun
I C
ĠÃĩ etin
ĠG eri
is ti
t Ã¼k
Ġb oya
Ġyem eÄŁi
Ġuz ay
Ġgir mek
ĠN ih
Ġic in
Ã¼n Ã¼r
Ġsah il
ebil eceÄŁini
Ġkom bin
Ġzaman a
Ġver in
ĠM ek
Ġner eye
tiÄŁ inde
Ġm ol
Ġv ize
ĠPolitik asÄ±
x t
om etr
g azi
Ġsay Ä±sÄ±nÄ±
Ġyaz dÄ±
Ġcen net
Ġsiz den
ĠalÄ±n mÄ±ÅŁ
ol ik
W eb
ĠD is
c id
ĠgÃ¶rev li
Ġyaz dÄ±ÄŁÄ±
ur a
ĠHol landa
O l
ĠN az
Ġvurgul adÄ±
Ġyap acaÄŁÄ±z
g Ã¶z
lay Ä±nÄ±z
ĠgÃ¼n dÃ¼z
Ġz ul
ĠgÃ¶z ler
oper atif
liÄŁ inden
ĠiÅŁ ini
mal Ä±yÄ±z
ĠÃĸn emli
Ġak la
ĠÃ§Ä±k mak
Ġverilm ektedir
ĠHiÃ§ bir
ab rika
Ġmon taj
Ã¢ z
Ä°N DE
ken ti
K as
ĠÃ¶l dÃ¼
Ġhalk Ä±nÄ±n
Ġy ou
ĠÃĸ de
Tr abz
Ġit tifak
ĠHal il
un g
Ġest etik
ĠHak larÄ±
ĠM otor
Ġbak Ä±mÄ±
6 4
Ġy uv
ĠK Ã¶r
ĠgerÃ§ekleÅŁtir ildi
Ġkad ros
en f
Ġkay d
ĠBas Ä±n
T ab
Ä±y aman
Ġr af
ĠS am
Ġk Ã¼l
Y Ä°
... ""
Â Ĵ
v at
K iÅŁ
ĠgÃ¼ncel lem
ĠN um
Ä±r t
ĠeÅŁy alar
ĠS ak
ĠyetiÅŁ kin
Ġuz an
Ġbek let
ĠadÄ±m lar
Ġsuy un
Ġat mos
ĠS af
Ġkon uyla
ĠiÅŁ ten
Ġn eÅŁ
asÄ± dÄ±r
ĠD an
Ġetm em
ĠkarÅŁÄ±l Ä±ÄŁÄ±
Ġaray Ä±ÅŁ
Ġder t
Ġteklif i
N et
ĠHaf t
Ġzaman dÄ±r
Ġart masÄ±
Ġstratej isi
S B
Ġyol una
ĠsektÃ¶r de
ĠM Ãľ
m ik
Ġih mal
Ġdem o
Ġo cak
ĠettiÄŁ imiz
f eri
ĠsÃ¶ mÃ¼r
Ġsiz lerle
K ah
ĠsÃ¶z ler
Ġn azar
c on
ĠHerk es
Ay nÄ±
ĠP ap
Ġc h
Ġhay li
F F
Ġt Ä±bbi
br ek
ĠA ra
Ġuy andÄ±r
Ġduy duÄŁu
Ġiler leyen
ey sel
Ġproj enin
Ġk el
Ġrefer ans
T AN
Ġmemnun iyet
ĠgeÃ§ erek
Ġisim ler
Ġner eden
ĠOn u
ĠÅŁimdi den
) "
8 8
Ġver iyoruz
it asyon
ĠðŁ Ļ
Ġmesaf e
Ġor adan
Ġduy ul
Ġhayat Ä±nda
ĠbaÅŁ Ä±nÄ±
Ġk Ã¼f
Ġseviy esine
Ġad Ä±mÄ±
ĠbÄ±rak Ä±n
Ġkend inize
ĠT amam
Ġelektrik li
Ġ lam
Ġkav g
ĠyÄ±l dan
ĠbaÅŁ ladÄ±m
mas yon
Ġplan da
Ġc hat
Ġgibi dir
Ġortam Ä±nda
ĠaÅŁam ada
Ġfik r
Ġs Ä±ÄŁ
Ä±l maya
Ġkahv altÄ±
un um
ĠtartÄ±ÅŁ ma
eh r
ĠI Åŀ
ij yen
Ġtemin at
__ __
Ġod alarÄ±
ĠK oc
ĠZ iyaret
it a
ĠE dirne
U Y
Ġot op
Ġfir manÄ±n
ĠSar ay
M ark
Ġuy k
Ġdair e
Ġik na
en s
ĠV ad
Ġk oz
lam ada
d el
Ġgel ebilir
Ã¢ nÄ±
az z
l ing
Ġl ay
l usu
Ġver ilerin
Ä £
ĠÃ§ ak
Ġdemokr as
ĠDÃ¶n Ã¼ÅŁ
Ġteknoloj isi
Ġmat ematik
ĠM adde
Ġyer inden
ĠbÃ¶lg enin
Ġbiz leri
Ġin Ã§
p ro
Ġey alet
ĠÃ§eÅŁit leri
ĠgerÃ§ eÄŁi
A li
Ġy ur
M AK
Ä° yi
Ġolay larÄ±
Ä±lÄ±r ken
Ġdis iplin
Ġar d
ĠL ist
ir mi
ĠUz manÄ±
ĠC ovid
ĠmÃ¼ j
ĠyayÄ±n landÄ±
on lar
Ġprotest o
Ã¼s Ã¼nÃ¼
acak lar
Ġsok aÄŁa
i es
iniz le
ĠgÃ¶ v
k ale
Ġiz leme
tak Ä±m
ĠseÃ§ ilen
C h
Ä±ÅŁ lÄ±
Ġpol itika
m on
iÃ§ in
Ġ len
ĠÅŁiddet li
Ġtalim at
M illi
Ġanlat Ä±yor
ap ort
ist ler
ĠSiz in
per yal
ĠKer im
Ġder g
ĠÃ Ĥ
ak ende
l ini
t ah
y az
Ġi ma
ĠÃ§oÄŁun lukla
Ġanlay Ä±ÅŁÄ±
ĠK em
ĠD ok
l ilerin
ĠP AR
im et
h iÅŁ
Ġon larca
Ġhaber ine
ĠSil ah
Ġelb is
Ġnef ret
Ä±ÄŁ Ä±nÄ±n
Ġan lÄ±k
ĠS Ä±k
Ġsev gili
ĠbaÅŁ tan
ir daÄŁ
c uz
Ġgir er
Ġm Ã¼st
ĠAr slan
Ġm az
ĠBoÄŁ az
Ġg emi
Ġr eng
w ork
Ġiz lemek
Ġiz ni
Ġend eks
ĠsektÃ¶r Ã¼nÃ¼n
Ġmec bur
Ä±l Ä±ÄŁÄ±nÄ±
Ġtamam ladÄ±
Ġg Ã¼mÃ¼ÅŁ
Ġgelecek te
Ġyan g
ĠP en
ĠgÃ¶r me
Ġediyor lar
ĠKat egor
Ġuyar Ä±nca
ĠZir aat
ĠStr atej
ĠTop lant
Ġle h
ĠB es
Ġbas tÄ±r
ĠF en
ĠD ijital
ĠiÃ§er isine
ĠsÄ±r al
en ter
) )
ĠP ay
ĠarkadaÅŁ lÄ±k
Ġel ini
, âĢĿ
Ġgiy im
Ġger gin
Ġlezzet li
ĠnÃ¶ bet
ĠoluÅŁtur duÄŁu
ĠÃ§evr esinde
eb ir
Ġkut sal
ĠA S
Ġver meden
Ġbunun la
Ġvit amin
Ġdur an
ic isi
Ġper iy
Ã ª
ĠU Ã§ak
sed Ã¼r
Ãľ Y
ĠD aÄŁÄ±
e ar
Ġran dev
Ġproj eleri
ĠV AR
ĠgÃ¶rev e
ĠU lu
ĠDav ut
Ġkon se
YÃ¼k sek
Ġfirmalar Ä±n
ĠÄ°n an
ĠsÃ¶z lerine
Ġcem aat
Ġkom ÅŁu
am il
uv alet
ĠKal kÄ±n
Ġbak Ä±ldÄ±ÄŁÄ±nda
ĠBun lardan
Ġkat li
ĠÃĩ am
ir iz
ĠkaldÄ±r aÃ§
ĠbaÅŁ a
ĠS n
Ġar Ä±yor
ĠÃ¶ len
ĠbaÅŁ ladÄ±ÄŁ
ĠyÃ¼k len
ĠHÄ±z lÄ±
Ä±lmÄ±ÅŁ tÄ±
Ġstratej i
ĠgÃ¶rÃ¼n en
ĠgÃ¶r ebilirsiniz
Ġism ini
Ġ4 9
iÅŁ e
Ġfestiv al
Ġes eri
Ġyans Ä±m
ĠOk ulu
ral ya
Ġhak sÄ±z
ĠÅŀ ikayet
ĠG r
ĠmÃ¼ sa
Ġpil ot
Ġdetay lar
ĠMÃ¼cad ele
Ġhur da
ĠgÃ¶ster gesi
ĠÃĸ te
Ġtop u
U B
Ġhep sini
ĠpaylaÅŁ mak
ĠÃĸnc elikle
Ã§ Ã¼
Ġyurt dÄ±ÅŁ
ĠBalÄ±k esir
anÄ±t la
met ik
Ġm e
Ġhar ic
ĠdÃ¼ny asÄ±nda
Ġilg ilendir
Ġh Ä±zÄ±
Ġl astik
S Ã¼r
ĠyÃ¼ksel en
S al
y eri
ÄŁr Ä
ÄŁrÄ ±
M ah
Ġkarar lar
Ġn iye
Ġhan gisi
al d
li p
o du
Ġhan g
ĠÃ§ atÄ±
ĠP ost
Ġkurul muÅŁ
Ġdil im
Ġart Ä±yor
ĠyayÄ±m lanan
200 8
Ġsom ut
ĠbugÃ¼n kÃ¼
Ġhedef i
AY A
ĠE fendi
Ġtazmin at
Ġb iber
Ġol abileceÄŁini
Cev ap
adÄ±k Ã¶y
ĠpaylaÅŁ tÄ±
Ġmas ke
ĠÃ¶z Ã¼r
ĠBÃ¼l ent
ĠsÃ¼r dÃ¼
d y
Ġdev re
k Ã¢r
ĠaÃ§ Ä±lmasÄ±
ĠyaptÄ±r Ä±m
ĠdÃ¼r Ã¼st
ĠBor s
ĠU Y
Ġtoplam da
om i
Ã¼n tÃ¼
Ġsan dal
Ġokul a
Ġne g
Ġfik ri
Ġgel mez
ĠMak in
h id
ĠS EO
Ġtes cil
Ġdevlet i
os y
) '
iyan et
ec ilik
ĠArab istan
ĠB azen
G alatasaray
Ġtab ak
Ġbildir im
b y
ant ol
Ġ200 4
Ġarac Ä±lÄ±ÄŁÄ±
b Ã¼r
ĠgÃ¶ster ilen
Ġek s
ĠOÄŁ uz
ac Ä±n
par ta
ĠkÄ±yaf et
R e
ĠeÄŁ il
R AM
ud ak
Ġnitelik li
Ã¼mÃ¼z e
ĠyÃ¼rÃ¼r lÃ¼ÄŁe
ĠBin omo
ĠgÃ¶Ã§ men
U n
ĠKÃ¶ pr
ĠK Ä±ÅŁ
Uz un
Ġarz u
ĠS iyah
OÄŀ LU
Ġmut f
ĠYok sa
ĠbaÄŁlÄ± dÄ±r
Ġsorun larÄ±n
c m
ĠboÅŁ luk
Ġ Ä±n
Ġt etik
ĠEl bette
Ġinan Ä±yorum
ĠRek lam
landÄ±r ma
der e
ĠA dÄ±
7 9
Ġolm asÄ±ndan
ĠAs lan
ĠgÃ¶z et
ĠartÄ±r mak
Ä±s Ä±ndaki
s ever
an ce
ĠÃ§alÄ±ÅŁmalar Ä±n
ĠH edef
Biz im
S ab
ĠD iy
Hay Ä±r
Bak an
G Ã¼ven
Ġolm asÄ±n
ĠgÃ¶nder ilen
ĠdÃ¶n dÃ¼r
S in
ĠN ATO
z aman
y ak
K Ä±s
ĠtÄ±p kÄ±
. (
ĠB U
B Ã¶yle
F rans
ĠM imar
Ġbilin c
Ġkonak lama
ĠihtiyaÃ§ larÄ±nÄ±
Ġvit amini
Ġy aban
K Ã¶
ĠiÅŁ tir
ĠSab ah
hal de
lo ad
Ġs Ã¶k
AN BUL
Ġam balaj
l unun
ĠAz iz
ĠE g
Ġikti d
Ġz em
Ġkay dÄ±
Ġu ÄŁur
ĠbÃ¼t Ã§e
Ġs us
S adece
Ġkim in
ĠQ u
lam anÄ±n
Ġbozuk luk
ĠKur tul
Ġpan demi
Ġorgan ik
ĠÃĩ eÅŁit
ĠD urum
ĠÄ° talyan
ĠbÄ±rak tÄ±
Ġp ir
as e
Ġuy dur
ĠSeÃ§ im
Ġ4 2
Ġhesab Ä±ndan
s Ã¼n
Ġib adet
ĠÃ¶z gÃ¼n
ĠedildiÄŁ ini
V er
ĠB ayan
ul larÄ±
ley ebilir
Ġyarat Ä±cÄ±
ĠBir inci
Ġihal e
Ġetk isini
Ġp eygamber
Ġd ediler
Ġmillet in
B Ã¼tÃ¼n
ĠDair esi
ĠyapÄ±l dÄ±ÄŁÄ±nÄ±
Ġdahil inde
em iyorum
Ġmet r
Ã¢ lÃ¢
Ġver ebilir
Ġmad enc
Ġedilm elidir
Ġolur sak
Ġk g
esi dir
ĠÃ§ ub
M AD
Ġtarih te
ad iÅŁ
ĠKorum a
ĠcÃ¼z dan
ĠY ukarÄ±
ĠsÄ±r adan
Ġben den
c ih
Ġden li
Ġeden ler
ĠÅŁah it
ĠY abancÄ±
Ġmanz ar
B or
Ġol abiliyor
Ġik amet
C Ä°
iyor sanÄ±z
ĠdeÄŁiÅŁ imi
Ġgetir ildi
Âł Ċ
ob i
Ġrestor an
Ġidar e
Ġkaynak lanan
fa iye
Ġdoktor a
ĠS c
ĠD EV
ĠAn ne
ĠSaÄŁ lÄ±ÄŁÄ±
Ġat tÄ±ÄŁÄ±
ĠgÃ¶rÃ¼n Ã¼r
il d
ĠÃ§ey rek
Ġl aborat
ic al
ĠOyun cu
ĠK oÅŁ
Ġr ul
Ġdel il
ÅŁ un
Ġs emin
ĠAl Ä±n
Ġver diÄŁini
ĠTer Ã¶r
ĠÄ° LE
B aÄŁ
ĠgerÃ§ekleÅŁtir di
7 6
ĠS ize
Ġdef ter
Ġdurum una
Ġ <
ĠiÅŁ it
c uluk
Ġt ac
Ã§ Ä±sÄ±
Ġb om
mek le
ĠrÃ¼z gar
ĠgerekÃ§ esiyle
d unuz
ĠR uh
ĠBak Ä±m
Ġs h
Ġtah sil
Tek n
Ġart Ä±ÅŁÄ±
** **
ĠO K
ik ler
ĠkullanÄ±cÄ± larÄ±
ĠS ektÃ¶r
ĠH oca
H ep
ĠÃ§alÄ±ÅŁan larÄ±
ĠBÃ¶yl elikle
ĠGÃ¼n Ã¼mÃ¼zde
ulu ÄŁu
Ġt Ã¼y
ĠBaÅŁ ak
H iÃ§
ĠyapÄ± larak
Ġsun uyoruz
ah il
Ġn is
ĠgÃ¶rÃ¼l dÃ¼
Ġaj ans
S eÃ§
f f
A ÄŁ
Ġy alÄ±
Ġyap acaÄŁÄ±
ĠÃĸrgÃ¼t Ã¼
Ġ utan
Ġvur gu
ĠS elim
d oÄŁu
Ġuz manÄ±
Er doÄŁan
ĠH acÄ±
ĠK Ä±y
ĠÃ¼ret en
Ġr eÃ§
iz ce
Ãĸnc elikle
Ġavantaj lÄ±
ĠMah mut
ES T
ĠYal Ã§Ä±n
K Ä±z
Ġh il
Ġat Ä±lan
ĠyatÄ±rÄ±mcÄ± larÄ±n
Ġfor ma
ing ton
Ġsey r
ĠmÃ¼z ak
Ġkoy du
Ġop er
ĠÄ°nsan lar
ĠÃľ l
Ġyap acaÄŁÄ±nÄ±z
onom ik
oj istik
ĠÄ°st ik
Ġet miÅŁti
Ġgar ip
T ÃľRK
ĠsaÄŁlay acaktÄ±r
hats App
ĠOk u
k Ä±ÅŁ
Ġfiyat lÄ±
Ġperformans Ä
ĠperformansÄ ±
at an
Ġbor c
Ġdekor asyon
ĠyÃ¼r Ã¼m
Ġd Ã¼
al y
F enerbahÃ§e
Ã¼ler ek
ĠdoÄŁr usu
lÄ±ÄŁ Ä±yla
Ġfilm in
Ġkoy un
Ġp osta
Ä±y sa
alar ca
Ġmes leÄŁ
Ġmesaf ede
ĠÅŁart lar
Äŀ Ä°T
ĠSok ak
Ġsit emiz
m us
Ġbay r
ĠR ed
ĠAf gan
p az
Ġmadd eler
lÃ¼ÄŁ Ã¼nde
Ġolan larÄ±n
Ġtarif i
ĠAl Ä±ÅŁ
Ġe uro
Y ukarÄ±
ĠaÄŁr Ä±sÄ±
s ev
ĠdÃ¶ ÅŁ
ĠdÃ¶n er
T S
bir liÄŁi
id eki
H ak
Ġente gre
iz mi
Äŀ I
Ġbur un
ĠDÃ¶n em
Ġmuhtem el
ĠÃ¼lk eleri
Ġ200 2
Ġdir ek
ĠdÃ¶n Ã¼m
Ġdir ektÃ¶r
d alÄ±k
ĠÄ°l Ã§
umuz da
Ġokun du
ĠÃ§alÄ±ÅŁ Ä±rken
Ġist edik
Ġyap madan
H z
Ġg ev
Ġuzak laÅŁtÄ±r
ĠU laÅŁ
Ġn ik
edi a
Ġsonr adan
ĠKaymak am
Ġv ol
Ù ħ
ĠB EL
Ġol ayÄ±n
Ġkap ital
Ġport fÃ¶y
lat ma
ĠD ub
ĠYak laÅŁÄ±k
Ġyaz an
in da
Ġsat an
ast am
ĠP arkÄ±
ĠD etay
ĠZ ar
ĠOr tadoÄŁu
ĠdÃ¼z el
amÄ±z Ä±n
ĠKil is
Ġsev iyorum
S it
Ġ4 6
at ay
Alman ya
as s
Ġar e
Ġait tir
Ġtab ir
Ġyol dan
osk ova
ĠsÃ¼rec ini
ĠZ am
ĠTÃ¼rk men
T ube
ĠBor sa
ĠsaÄŁ ladÄ±
f li
Y Ã¶n
DÃ¼ny anÄ±n
Ġf it
Ġmesl eki
Ġib aret
9 8
ĠÃ§ if
Ġuygulan masÄ±
ĠÃ¶zellik lerini
ĠdÃ¼ny adaki
ĠO da
Ġ4 4
Ġpro sedÃ¼r
ĠsÃ¶z lerini
Ġbay rak
Ġst il
Ġistem ez
Ä±ÄŁ Ä±na
ĠyÄ±l larÄ±nda
amam Ä±ÅŁ
â Ĥº
Ġyarat tÄ±ÄŁÄ±
Ġn Ã¼kleer
Ġyar Ä±sÄ±
ĠgeliÅŁtir ilen
Ġv icdan
Ġces aret
Ġku cak
Ġb acak
ĠKar aman
Ġzor lan
Ġbar dak
Ġceza ev
ĠB Ã¼r
Ġtemsilc isi
âĢ º
T M
ek ili
Ġkar Ä±ÅŁÄ±k
ĠSin an
Ġneg atif
ĠA cil
ĠcÃ¼m le
ĠK eÅŁ
tis iz
Y ayÄ±n
ĠiliÅŁk ili
I YOR
lam ayÄ±
ĠgeÃ§ir di
B eÅŁiktaÅŁ
Ġmas aj
ĠS uÃ§
Ġkir al
Ġtaraf ta
Ġm edeniyet
iÄŁ it
i er
Ġn Ä±n
Ġsak Ä±n
ĠKalkÄ±n ma
ĠÅŀ ey
Ãĸ te
Gir iÅŁ
ilm eye
Ġkon usundaki
Ġtav uk
Ġ200 3
Ġdeneyim li
ĠSal ih
y olu
ĠTak Ä±mÄ±
ĠÃľ ye
Ġd et
D Ã¼z
Ġlis e
Ġsorum luluÄŁ
Ġred det
ĠaÃ§Ä±klam asÄ±nda
s us
ĠBul gar
ĠgenÃ§ ler
ĠrÃ¶ portaj
Ġihtim ali
ĠðŁĻ Ĥ
Y Ã¼z
h ak
t ra
Ġseviy esinde
ĠAl bay
Ġgazet e
as us
t Ã¼m
Ġorgan iz
ĠbaÅŁ kenti
Ġvar lÄ±ÄŁÄ±nÄ±
ĠEf end
ĠH a
d ilik
Ġil ham
Ġz afer
ah ya
Ġmuhalef et
ĠkÃ¶pr Ã¼
ĠPerson el
Ġal dat
alar Ä±mÄ±z
Ġend ek
Ġal dÄ±klarÄ±
Ġgir miÅŁ
Ġboy un
ĠÄ°Ã§ iÅŁleri
Ġf Ä
ĠTeÅŁ kil
Ġcin siyet
ĠÃĩ avuÅŁ
al Ä±ÄŁÄ±
at ch
H em
Ġbilin mektedir
Y ine
ĠO b
Ġek ledi
ĠÄ°nÅŁ allah
y mp
k z
ĠD am
"" "
ĠfÄ ±
af e
ĠkÄ±ymet li
Ġ ast
ĠHer hangi
ER K
p iyat
d Ä±nÄ±z
Ä°M Ä°Z
c usu
Ġtit iz
ĠÃ¼y elerinin
Ù Ĭ
Ġolsay dÄ±
ĠaÃ§ ar
Ġk ek
viÃ§ re
ĠkullanÄ±l mak
Ġzorunda dÄ±r
Ġtaahh Ã¼t
ĠAk Ä±n
Ġmak ale
ĠÃĸz demir
ĠdÃ¼zenlen ecek
Ġmesel a
Ġt hat
ĠYap Ä±lÄ±r
bak anÄ±
Ġisten ilen
Ġfazl asÄ±nÄ±
ĠK ud
ĠAf yon
ĠS tar
Ġiyil eÅŁ
Ġsaat lik
ĠTak ip
ĠkardeÅŁ i
ĠtÃ¼ket ici
Ã¼min yum
ant in
Ġbir inde
ĠgeÃ§ir en
Ġgir erek
Ä°L Ä°
Ġbelir lemek
Ġhastan e
Ġbak tÄ±
Ä±r nak
ĠBay rak
cÄ± larÄ±
ĠD ayan
ĠM eh
Ġdin len
m ec
ĠB eni
Ġtemsilc ileri
Ġkab lo
ĠYar gÄ±
ov er
meler ine
v al
Ġgerektir en
larÄ±mÄ±z da
ĠhÃ¼kÃ¼m eti
H akk
ĠsÃ¼rdÃ¼r Ã¼yor
as al
Ġetmek te
emey ecek
Ġanlat Ä±m
ĠsÃ¼rec inin
ĠÅŁ of
Ġ4 1
ĠgeliÅŁ meleri
Ġoyn adÄ±ÄŁÄ±
ĠN elerdir
ĠAt eÅŁ
Ġi mam
Ġcih azÄ±
Ãľ Ã§
ĠCam ii
p oz
Ġperson eli
o Ã§
lik ten
Ġpolitik asÄ±
or a
Ġoyn am
ĠÃĸdÃ¼l Ã¼
Ä±l malÄ±dÄ±r
n av
ĠP al
ĠS tad
ĠdeÄŁer ini
Ġinsan lÄ±k
Ġis yan
or y
Ġmalzem eler
Ġsat Ä±cÄ±
Ġol gun
Ġc eb
Ġherk esi
Ġim alat
ĠtÄ±k an
Ġd iÄŁeri
Ġiz leyen
ĠB aba
bul ans
ĠaÃ§Ä±klam alar
Ġko ca
ĠhÃ¢ l
ĠÃ¶ncelik li
ic ileri
ĠcoÄŁraf y
Ġgez eg
Ġis pat
ĠCumhurbaÅŁkan lÄ±ÄŁÄ±
en leri
lan acak
Ġisim leri
ĠH il
Ġgetir erek
ĠAy r
Ġrej im
ĠHol ding
Ġkim dir
Ġal madan
Ġmuhaf aza
ĠA da
Ġser isi
Ġoyun cak
Ġmir as
H af
ĠP et
siz in
Ġbilin ir
enc ere
ĠbaÅŁvur usu
ĠmÃ¼s abak
as Ä±nÄ±z
Ġsenar yo
Ġmen f
Ã¼l dÃ¼ÄŁÃ¼
Ġbas ketbol
ĠarkadaÅŁ larÄ±
Ġkal masÄ±
Ġs uya
ler imi
ad ing
ÄŁ day
Ġkullan Ä±ma
uk i
ĠC engiz
uh af
G E
ĠsÃ¼r esince
Ġoy una
ĠdÃ¶n Ã¼k
Ġbit ti
Ġmah al
Ġdurum unu
ĠI P
Ġproblem i
Ġmi dir
ay n
ur ya
Ġyakalan dÄ±
G Ã¼ndem
bar at
ĠG it
Ġb atÄ±
Ġal et
ĠB os
n ey
ĠÃľn lÃ¼
Ġan t
ĠbaÅŁarÄ± lar
ĠBur ak
Ġhaber dar
ĠgÃ¶rÃ¼nt Ã¼l
ĠC EO
ĠTur an
ĠdÃ¼k kan
ĠBir az
Ġdok u
as on
Ġtab anlÄ±
ĠV Ã¼c
duk Ã§a
Ġtop lanan
Ġoyunc usu
h ab
Ġver ilmiÅŁ
ĠiliÅŁk isi
ĠK AL
an bul
Ġep ey
ĠT eb
ĠGÃ¶rÃ¼n t
Ġkut u
ĠyÃ¼r ek
ĠÃ§Ä±k maktadÄ±r
ĠÃ¶nem ini
Ġgir ip
ĠeÄŁitim e
Ġedil emez
Ġkup on
Ġsev erler
Ġhey et
7 2
ĠK el
oc i
D K
Ġr iv
ĠboÄŁ az
m Ä±z
ĠBÃ¼yÃ¼k el
Ġden en
ĠA P
Ġal ev
Ġsar f
Ġuy du
ĠdÃ¼ÅŁÃ¼n en
Ġantren man
ĠC in
Ġist edikleri
Ġsaha da
Ġpar alar
Ġkuvvet li
Ġetm eden
ĠW ord
ĠEr meni
duk larÄ±nÄ±
ĠyaÅŁ adÄ±
ĠÃľr etim
M ak
N eden
ĠgeliÅŁ imi
Ġver ip
Ġyaz Ä±lmÄ±ÅŁ
Ã» l
abilir sin
Ġbilgilendir me
Ġd isk
Ġk esi
Ġn adir
Ġhastan Ä±n
iÅŁ li
ĠIÅŀ Ä°D
ĠOn ur
ĠGÃ¶r Ã¼ÅŁ
uk lu
l uyor
ĠK AY
ĠC har
ĠbaÅŁ landÄ±
ĠEkonom ik
lam anÄ±z
ĠsavaÅŁ Ä
ĠsavaÅŁÄ ±
lamak tadÄ±r
Ġist anbul
ĠT rade
P SS
ĠA det
ĠS eb
Ġbelir lem
7 1
j inal
larÄ±mÄ±z dan
n af
iv an
Ġakses uar
ĠmÃ¼ te
ĠtoplantÄ± da
ac i
lan gÄ±Ã§
ĠYaÅŁ ar
6 1
ĠBon us
Ġbir takÄ±m
iliÄŁ in
ĠKur t
G Ä°
Ġayr Ä±lan
A dana
ĠbaÅŁar Ä±yla
qu e
ĠÃĩ ank
ĠdeÄŁiÅŁtir mek
ĠMey danÄ±
Ġem r
Ġsizin le
ĠR as
Ġerkek ler
ĠbaÄŁlam da
ĠP RO
adiÅŁ ah
ĠMar din
Ġper de
ĠÃ§ek il
Ġyum urt
Ġb ot
Ã¶n Ã¼
ĠÃ§ Ä±r
Ġsit eniz
Ġkal eme
ĠarkadaÅŁ Ä±m
Ġcihaz lar
ĠdÃ¼ÅŁ er
el d
Ġkur ucu
ĠOy unlarÄ±
ĠG ol
ĠL ib
Ġkan at
ĠKÄ±r mÄ±zÄ±
ĠbaktÄ±ÄŁ Ä±mÄ±zda
ĠaÄŁÄ±r lÄ±klÄ±
elik op
ĠW ar
Ġm um
ĠS ov
ik e
Ġden ize
ĠÃĸzel likleri
ĠiÅŁ veren
ĠDair e
H an
em ektedir
tÃ¼ ÄŁÃ¼
ĠmÄ± dÄ±r
Ã¼le b
LAR IN
G e
ĠBaÅŁvur u
Ġgerek siz
ĠAl p
l osu
ken der
Ġp laj
Ġsev ilen
Ġgir ecek
Ġbelg eler
O p
ĠsÃ¶zleÅŁ mesi
ĠAn t
8 5
Ã¼ el
Ġadr esine
ĠdeÄŁil se
ÄŀÄ°T Ä°M
Ġkon tr
Ġaray Ã¼z
Ġcez alandÄ±r
ĠNit ekim
ĠDir ektÃ¶rÃ¼
ĠbaÅŁlat tÄ±
ĠsÃ¶z cÃ¼k
astam onu
ĠiÅŁ ley
ĠD ost
Ġimk ansÄ±z
ĠGenel likle
ĠaldÄ±ÄŁ Ä±nÄ±z
ĠÃ§aÄŁ daÅŁ
Ġlir aya
Ġyap Ä±ÅŁtÄ±r
ĠmÃ¼ÅŁter ilerine
ĠhÃ¢ kim
r anÄ±
Ġkay gÄ±
D ER
ig Ã¼r
Ġitir af
it ab
Ġeksik siz
Ġcin s
Ä° kinci
Ġhizmet lerini
ĠKullan Ä±m
ĠtecrÃ¼b e
Ã¼nÃ¼z Ã¼
ĠhazÄ±r lanmÄ±ÅŁ
Ġdevam Ä
ĠdevamÄ ±
ĠKon u
Ġlay Ä±k
Ø§ ÙĦ
Ã½ n
Ġol abileceÄŁi
leÅŁ miÅŁ
o ley
Ġm Ã¼ÅŁ
Ġtarih inin
Ġgider ken
Ġailen in
Ġob j
Ġbet on
ĠÅŁef faf
ĠD a
Ġp aketi
ĠyÃ¶net ici
Ġkims eye
pany ol
Ãĸnc eki
Ġtut k
ak tan
ĠF et
ĠkonuÅŁ ul
ab ey
S ar
F i
ĠdÃ¶n en
Ġist eÄŁi
ĠÃ§ ikol
ĠilÃ§ esine
Ġfazl asÄ±yla
Ã® n
ĠBaÅŁ sav
ĠÃ§ Ä±ÄŁ
ĠyÃ¶ntem ler
ĠDoÄŁ um
Ġv ekil
ĠB ize
acaÄŁ Ä±ndan
r ib
ĠGeÃ§ miÅŁ
m esin
Ġtutuk lu
Ġduy ulan
H erk
ĠbÃ¶lg elerde
Ġgay rimenkul
m atik
ĠYÃ¶net mel
Ġm el
Ġkad er
bilir siniz
er g
Ġnokt alarÄ±
I Y
Ġetk isiyle
Ġdav asÄ±
Ġoyuncu larÄ±
ĠÃ§ iÄŁ
Ġgerektir ir
Ġtad Ä±nÄ±
Ġsay Ä±lÄ±r
ĠsektÃ¶r Ã¼n
ĠDevlet leri
Ġatmos fer
ĠbÃ¶lg edeki
ĠÄ° YÄ°
Ġon larla
Ä°N Ä°N
Ġyan Ä±l
Ġoyn at
ĠAk Ä±llÄ±
liliÄŁ ini
Ð ¸
Ġhep imiz
Ġfil tr
Ġediyor du
l asÄ±
Ġan tik
Ġsor usuna
ĠmaÄŁ lup
GÃ¶nder en
ĠihtiyaÃ§ larÄ±
ep e
K Ä°
D F
Ġar tar
ĠKad ir
Ġalg Ä±l
Ġmer diven
ac asÄ±
ĠGerÃ§ ekten
ĠaÃ§ Ä±lÄ±r
iler inde
ĠKar deÅŁ
ayÄ± cÄ±
ĠbaÄŁlantÄ± lar
ĠkiÅŁi den
ĠÃĩÃ¶z Ã¼m
Ok ul
Ġfiyat a
ĠM c
ĠmeÅŁ hur
ĠhastalÄ±k larÄ±
Ġre ak
GeÃ§ tiÄŁimiz
O Y
Ġiler lem
ĠbaÅŁar dÄ±
ĠAr da
ĠB oÅŁ
ĠÄ°Ã§er ik
Ġtarih e
EF A
s c
B ahis
Ġmark asÄ±
f e
Ġm Ã¼lt
Ã Ĥ
Ġhaf Ä±z
ĠmÃ¼t hiÅŁ
ĠdoÄŁ umlu
Ġh aÅŁ
d inde
Ġsam imi
ĠKo ordin
Ġi ÄŁ
el eme
ĠF ah
c iÄŁer
e an
ĠbÃ¶lg esel
Ġdikkat i
m il
Ġ {
Ġik iye
ĠY AR
Ġr Ä±z
Ġver diÄŁimiz
Ġbank alar
Ġseb ze
malar Ä±nÄ±n
Ġdiy ebiliriz
Ġkap ak
ĠP op
Ġyetkil ileri
Ä° k
Ġnih ayet
Ġyaz Ä±lan
le c
ĠÃ¶ÄŁrenc isi
Ġbiz de
Ġkad Ä±na
oÄŁ uk
ĠN ormal
. Â»
ĠsÃ¼rdÃ¼r en
ed at
ĠSu udi
ĠKan ada
ĠS AN
Ġserg ilen
Ġkarar Ä±nÄ±
Ġan lama
ĠDek or
por t
ĠG u
ĠHaf ta
eler imiz
as eb
ĠK oz
Ġyaz mÄ±ÅŁ
ĠÃ§ Ã¼r
Ġt Ã¼p
Ġkred isi
B eÄŁen
u larak
ĠSit eleri
Ġinan c
Ġkalit esini
Ġolacak sÄ±nÄ±z
Ġres men
6 3
h y
ĠY AZ
ahat tin
Ġbelir lendi
ĠKuvvet leri
b iz
maz lÄ±k
Ġh ijyen
Ġbelir siz
GeÃ§ en
ĠB iy
ĠKart al
Ġay Ä±nÄ±n
ĠÅŀub esi
ĠboÅŁ alt
ĠB olu
Ġkan aat
T em
em edi
Ġâ Ĥº
Ġyet ki
ĠJap on
Ã¢ yet
tÄ±k Ã§a
Ar tÄ±k
Ġanlam Ä±yla
B ul
ĠS S
bo x
ĠN or
ĠBl ack
ĠyÃ¼z e
ĠG ec
ĠÃ¼st e
mÃ¼ÅŁ tÃ¼
l iydi
ĠAk si
ĠGerek li
h em
Ġan Ä±m
Ġham il
ĠBr ez
ĠM ari
ĠyatÄ±r Ä±mÄ±
ĠaÃ§ tÄ±ÄŁÄ±
luÄŁ unda
ĠG ece
Ãĩ Ã¼nkÃ¼
Ġpar anÄ±n
U P
AY IN
ĠkullanÄ±l dÄ±ÄŁÄ±
Ġmil liyet
Ġettik lerini
Ġin tihar
ĠSal onu
T IR
ĠulaÅŁ an
id in
Ġban t
Y ani
ĠiÃ§ ecek
ĠK amp
ĠR o
ĠadlandÄ±r Ä±lan
ĠteÅŁkil at
Ä°s lam
ĠK AD
! "
Ġyap abilecek
ĠsÄ±k Ã§a
l ow
Ġuygulan Ä±r
Ġgazet eci
ĠbÃ¶lÃ¼m Ã¼nÃ¼
Ġkork unÃ§
ekkÃ¼r ler
y dÄ±
ĠdanÄ±ÅŁ manlÄ±k
ĠB i
Ġs Ã¼z
Ä°Y ET
ĠiÃ§er isindeki
Ġyarat an
ĠgeÃ§erli dir
ĠF i
it an
ĠsÄ±nÄ±f Ä
ĠsÄ±nÄ±fÄ ±
Ġat Ä±l
Ġtat min
Ġtit r
aÄŁ Ä±ndan
ĠBelediy espor
F ir
ĠendiÅŁ e
ĠmeÅŁ ru
Ġfaz lad
ĠparÃ§ alarÄ±
ĠK K
Cumhur iyet
AT I
Ġp omp
ĠdÄ±ÅŁ ar
Ġbilg iyi
Ġal manÄ±z
et li
ĠB avul
H az
ey erek
Ġakr ab
B unu
Ġharic inde
Ġkurul masÄ±
Ġes k
ĠaldÄ±ÄŁ Ä±mÄ±z
Ġgir diÄŁi
ĠkarÅŁÄ±l amak
Ġkas ab
ar lÄ±k
BaÅŁ bakan
Ġsey ret
ĠE ur
Ġhak larÄ±nÄ±
ĠTel ekom
m ama
ĠUn ut
Ġt v
US D
Ġar tÄ±
ac aat
Ġdon at
Ar kadaÅŁ
Ġhisset tir
ĠMillet ler
ĠÃ§ il
ĠyÃ¼z Ã¼ne
ĠbaÄŁlant Ä±lÄ±
ĠiÅŁlem ini
ĠbilinÃ§ li
ĠNak liyat
Ġrisk li
ĠaraÅŁtÄ±r macÄ±
ĠkaÃ§Ä±n Ä±lmaz
ĠH ur
Ä±c Ä±lÄ±k
Ġref orm
Ġbak mak
Ġform u
ĠH ab
his ar
Ġhey kel
ĠdÃ¼ny asÄ±nÄ±n
Ġayr Ä±ldÄ±
Ġyel paz
Ã¼mÃ¼z Ã¼n
ĠMil yon
Ġtemiz liÄŁi
Ġkir a
ĠyÃ¼k lÃ¼
ĠT a
ĠÃ§ek erek
ĠÄ°s veÃ§
Ġmevzu at
len erek
Ġyap Ä±ya
Ġilg isi
larÄ± dÄ±r
ac Ä±lÄ±ÄŁÄ±
ĠKon ut
ĠgÃ¼ncel leme
f an
ĠsÄ±r alam
it ed
Ġser v
M od
Ġbirbir lerine
ĠalÄ±n dÄ±ÄŁÄ±
L Ãľ
alar ak
s aÄŁ
ĠtÄ±k layarak
leÅŁ en
Ġ6 4
Ġon lardan
of f
Ġhastan ede
ur un
lan maz
Ġif tar
ĠBal kan
Ġvar mÄ±ÅŁ
ĠiÅŁlem lerin
Ġad li
ĠGir esun
Ġhassas iyet
R A
Ġk Ä±lÄ±
Y an
at in
Ġsay Ä±l
ĠC ity
Ġeksik liÄŁi
Ġsar s
iz in
Ġkar n
ĠÃ§alÄ±ÅŁmalar a
k ul
ĠZ eyn
7 4
en lerin
ĠmÃ¼ d
Ġbak arak
ers ek
Ġithal at
ĠAd ay
ĠgÃ¼n dÃ¼r
eÄŁ inden
m edim
ilm esinin
ra j
it eli
ĠÃ¶ p
AL IÅŀ
Ġver iliyor
ĠtÄ±r man
M ehmet
ĠN es
Kat egor
ĠAd resi
Ġmu c
Ġkes kin
Ġkok u
ĠtecrÃ¼b eli
Ġeb eveyn
iliÄŁ inden
Ġkavram Ä
ĠkavramÄ ±
H K
M EK
Ul uslararasÄ±
ĠO lan
200 7
Ġsp onsor
G azi
Ġetkin liÄŁi
ĠaÃ§Ä±k lanan
K ol
Ġkoy u
z ir
ÂłÂłÂłÂł ÂłÂł
Ġ4 3
Ġyak Ä±nda
t ing
ĠBul ut
ĠÃĸÄŁren ci
ĠÅŁar tÄ±
Ġves ile
ĠÃ§alÄ±ÅŁmalar Ä±nÄ±n
Ġbir imleri
Ġcan Ä±m
El ekt
ĠdÃ¼ny asÄ±
ĠÃ¼y elerine
Ġal eyh
Ġhast alar
Ġyaz Ä±sÄ±
Ġh a
Ġmek Ã¢n
Ġbirey lerin
r ut
ĠOl ymp
oley bol
ĠA M
ĠÃ¶y kÃ¼
Ġedeb ilecek
ĠgÃ¶ÄŁ Ã¼s
Ġat lat
AN S
ĠgeÃ§ tiÄŁi
ti ons
ĠM Ã¼n
ĠÅŁehir de
Ġi OS
IM IZ
ĠiÅŁlem lerinin
ĠÅŁim diye
Ġd ediÄŁimiz
ĠPlatform u
Ġzeytin y
ĠKol ay
eyin ce
ĠtÃ¼c car
Ä±yorlar dÄ±
Ġk Ä±n
Ġdal ga
s alar
ĠSey ahat
us e
ĠyÄ±l larÄ±n
ĠH AK
ĠYÃ¶n tem
ĠS Ã¼t
iz li
Ġp ap
Ġkitap larÄ±
ĠÃĸ y
ĠMa x
P er
Ġlim on
ĠkÃ¼ltÃ¼r Ã¼
el a
Ã¶z el
ÄŁr ul
ĠkatÄ±l mak
ĠMod ern
dan Ä±n
Ġetm eleri
ĠmantÄ±k lÄ±
an dum
Ġkategor isinde
ĠC ilt
lay abilir
may e
ĠmaÃ§ Ä±n
ladÄ±k tan
um un
ĠTekn oloj
Ġm isyon
ĠT anÄ±t
Ġolur lar
Ġkal madÄ±
ic s
As lÄ±nda
ĠÅŀampiyon asÄ±
du c
ĠS atÄ±n
ĠkaldÄ±r Ä±ldÄ±
ĠgÃ¼nÃ¼mÃ¼z e
ĠiÃ§ e
ĠDÃ¼z ce
Ġg Ã¼mrÃ¼k
Ġort alam
t esi
Ġiy isi
mem ektedir
Ġhes aba
ĠÃĸn er
ir se
ac iÄŁer
ey ecek
Ã¼mÃ¼z Ã¼
Ã¼ ÄŁÃ¼
Ġn a
cÄ± larÄ±n
ĠMal iye
ĠP or
ĠtÃ¼k en
in can
ĠaÃ§ Ä±ÄŁa
ĠR ize
z im
K Ã¼Ã§Ã¼k
Son r
ĠM oda
C O
Ġr azÄ±
Ġkesin tisiz
Ġm ant
m art
Ġyol lar
âĢ¦ "
Ġr ot
Ġtarih sel
ograf i
Ġuz anan
ĠD es
ĠÃľniversit e
L ET
ĠkullanÄ±cÄ± lara
Ġm otosiklet
Ġnit elendir
ĠB lu
ĠaraÃ§ larÄ±n
Ġyol un
Ġgetir ilmesi
ĠY ÃĸN
ĠÃ¶f k
Ġbilm iyor
Ġred ded
Ġseviy eye
ĠK ey
ĠM Ã¼slÃ¼m
ĠsÄ±r alan
Ġdayan an
Ġb ran
ĠEk rem
ĠDeÄŁiÅŁ ik
M uh
Ġert elen
Ã¼n c
Ġprogram Ä±na
± cÄ±sÄ±
Ä ±cÄ±sÄ±
gel e
Ġsayf asÄ±nda
ĠSÃ¶zleÅŁ mesi
Ġk aÄŁÄ±
abilm eniz
res el
lerimiz de
Ġbul gu
os unu
Ġtah t
ĠKÃ¼r d
ĠyatÄ±rÄ±m lar
e w
el in
Ġek leyin
ĠgeÃ§ ecek
ĠT EM
ĠPro t
f on
iler iyle
Ġkat lÄ±
ĠÃ§alÄ±ÅŁan larÄ±n
ĠT Ã¼ket
Ġkur du
Ġda im
Ġlim an
8 9
Ġkampany asÄ±
maz on
Ġkend imizi
acaÄŁ Ä±nÄ±zÄ±
Ġhoc am
Ġtehlik e
Ġhesab Ä±nÄ±z
ĠZ eytin
ĠÃ¶n der
Ġik tis
Ġer di
iÄŁ ini
ĠÅŀ art
ĠvazgeÃ§ ilmez
Ġtasar lanmÄ±ÅŁ
ĠÅŁ Ã¶
ĠOk unma
k ay
Ġsem t
ĠsÃ¶yley ebiliriz
ret tin
ĠsÃ¶yley erek
ĠoluÅŁ uyor
OR UM
Ġf es
ĠkuruluÅŁ larÄ±
ĠG Ã¶nÃ¼l
ĠÃĩ oÄŁu
er leri
K UR
ĠyÃ¼zyÄ±l da
Ø ±
f one
ĠsÃ¼rdÃ¼r dÃ¼
ĠE UR
Ġtut arÄ±
ĠT uz
Ġbur adaki
Ġkur duÄŁu
ĠM oskova
ĠK esin
Ì ĩ
Åŀ irket
ĠkÄ±y Ä
ĠF ay
ĠkÄ±yÄ ±
Ġ8 1
4 00
T Ä°R
ah i
Ġev lat
Ġver dikleri
ĠgerÃ§ekleÅŁtir diÄŁi
Ġd ediÄŁ
n ci
ĠT est
ĠbaÅŁ lÄ±ÄŁÄ±
abiliyor sunuz
dÃ¼ÄŁ Ã¼nde
ĠKom ut
Ġb araj
Ġkolay dÄ±r
ĠiÅŁ Ã§iler
ĠyÄ±k ama
Ġyaz mak
Ġbenz ersiz
P an
Ä±y sanÄ±z
Ġon arÄ±m
ĠiÅŁ ken
B in
Ġyaz Ä±mÄ±zda
K onu
Ġifade si
ĠsaÄŁ lanan
ĠgeÃ§ mesi
ĠR ef
ĠY unus
ir leri
ĠS Ã¼n
ĠoluÅŁ maktadÄ±r
ĠSÄ± cak
Ġsit elerinde
dÄ±ÄŁ Ä±ndan
Ġs ep
ĠÅŁer ef
ĠdÃ¼z eni
ĠÄ°l Ã§esi
Ġdalg alan
h en
Ġat mak
ĠO s
ĠM avi
Al tÄ±n
ĠgerÃ§ekleÅŁtir ilecek
ĠfÄ±k r
Ġbirik im
Ġem anet
ĠkuÅŁ k
ĠÄ°b n
ĠSor u
ĠO rada
ĠgeleceÄŁ e
ĠgerÃ§ekleÅŁtir mek
ĠoluÅŁtur uyor
ĠistediÄŁ im
hal e
ĠamaÃ§ la
A z
Ä±r Ä±l
ĠG EN
Ġol acaÄŁÄ±na
ĠModel leri
Ġsan tral
Ġdom ates
P r
Ġdep o
Ġd Ã¶rdÃ¼ncÃ¼
k lar
ĠÃ¼ret ici
ĠHÃ¼kÃ¼m et
ĠÃ¼lk eyi
A c
Ġkad Ä±nÄ±
Ã¶r en
Y K
i dir
Ġprogram Ä±nda
Ġsiz lerin
ec k
ĠbaÄŁlant Ä±sÄ±
Ġtamam Ä±nÄ±
ol os
af ak
ladÄ±k larÄ±
Ġkur ucusu
ĠÃ¼rÃ¼n lerini
Ġt uvalet
ĠAvust ralya
Ġverir ken
uk ar
ĠaldÄ±ÄŁ Ä±m
Ġtarih ten
oda fone
ĠÄ°n ce
Ġder hal
ĠE dit
Ġsahib inin
ĠSoy lu
Ġu sta
Ġkur uÅŁ
Ġyap Ä±ÅŁ
Ġp ik
Ġet menin
Ġi v
ĠY olu
ĠbasÄ±n Ã§
Ã ¡
ĠyÃ¶netic ileri
Ġbelirt mek
ĠÅŁÃ¼ph el
ĠBas ketbol
ĠalÄ±ÅŁkan lÄ±k
m s
ĠBilg iler
ĠL Ã¼tfen
bey az
ĠyaptÄ±ÄŁ Ä±m
ĠM y
ĠgeÃ§ir diÄŁi
ĠbaÅŁlat Ä±lan
g n
las s
Ġok si
Ġsezon u
Ì Ī
Ġmenf aat
S M
ĠÃ§ Ä±l
am da
ĠbaÅŁlay arak
ĠkÃ¼t Ã¼phan
ĠkÃ¶y lÃ¼
ĠmÃ¼cadel esi
ĠdÃ¼ÅŁÃ¼n Ã¼yoruz
Ġkil ometr
ĠgÃ¶r mez
tiv asyon
ayol larÄ±
M obil
ĠO na
A m
ĠBaÅŁ bakanÄ±
Ġb ag
Ġotur an
G Ã¼zel
oc am
7 3
av antaj
ĠOn larÄ±n
tÃ¼ ÄŁ
Ġhaf tanÄ±n
ĠM e
Ġsorun larÄ±nÄ±
Ġhesab Ä±nÄ±za
ar lÄ±
Ġkol tuÄŁ
ĠZ onguldak
Ġmotor u
ĠsÃ¼rec in
R E
ĠÄ° sa
ir al
K az
ĠKahraman maraÅŁ
C om
er ik
ĠgÃ¶z leri
ĠalÄ±n mÄ±ÅŁtÄ±r
ĠdeÄŁerlendir meler
may la
ĠpeÅŁ inde
ĠÅŀ eker
ĠB Ã¼y
Ġf Ã¼z
M ev
Ġkal maz
Ġek lendi
d Ä±zÄ±
Ġv iz
Ġnokt asÄ±na
ĠkullanÄ±l acak
Ġgit tim
ki f
ĠF el
we et
G azet
Y a
ĠÃ§Ã¶z Ã¼nÃ¼r
Ġmin eral
Ġhayat Ä±nÄ±n
m inin
ĠbaÅŁlam adan
Ġb a
ĠÃ¶nc Ã¼
T ER
Ġfilm leri
art Ä±n
Ġf av
ĠEr dem
ĠFu arÄ±
ĠGÃ¶k han
ĠdÃ¼ÅŁÃ¼n Ã¼n
ĠÄ±s Ä±n
Â °
b aÄŁ
ĠdeÄŁer ler
t iy
lan dÄ±ÄŁÄ±nÄ±
Ġel den
L AÅŀ
Ġhorm on
Ġ200 1
n al
Ġplan lanan
Ġk las
Ġbul ma
ĠyaÄŁ lÄ±
E ÅŁ
! âĢĿ
lis h
Ġgide ceÄŁ
ĠBer lin
Ġtaraf a
Ġot o
Ġbirey ler
ĠC ey
at ih
tal ama
Ġvur du
Ġail esinin
Ġmu am
Ġinternet ten
ĠkÄ±sm Ä±na
ĠM it
Ã¼l Ã¼ÄŁ
Ġtutuk landÄ±
l edim
ĠE V
ĠbÄ±rak Ä±p
ĠyÃ¼z Ã¼nÃ¼
w ay
M ut
ĠÃ¶nlem ler
ĠiÅŁ siz
Ġem eÄŁi
ĠfÄ±r Ä±n
Ä°ngil tere
Ä±k lÄ±k
ĠN is
ĠgiriÅŁ i
r as
ĠedeceÄŁ ini
ĠgÃ¶nder ildi
ĠgenÃ§ lerin
Ġkurul du
ĠY AÅŀ
M ed
li g
s y
Ġf et
amaz sÄ±nÄ±z
day dÄ±
ĠMu har
Ġkon ulu
Ġ8 00
ĠI II
Ġetm esini
Ġkit le
AK P
ĠG ay
Ì §
ĠaÃ§Ä±klam aya
Ġbelir lenmesi
Ġdevam lÄ±
Ġbulun mamaktadÄ±r
O G
Ġgel eceÄŁini
Ġh ev
ĠyaptÄ±k tan
Ġhakk Ä±na
Ġfatur a
Ġk ep
ĠElekt ronik
H AL
Ġbor u
n ess
ĠkuruluÅŁ u
ĠAlan ya
ĠÃ§el iÅŁ
Ġgec esi
Ġn az
is im
Ġgit miÅŁ
elikop ter
Ġmadd eleri
Ġc o
ĠK adÄ±kÃ¶y
Ġinsan larla
Ġy irmi
Ġat Ã¶ly
Ġil tih
Ġin tik
Ġsunul maktadÄ±r
ĠsÃ¶yl ediÄŁi
ĠvasÄ±t asÄ±yla
Ġdes en
Ġmuay ene
Ġmak ul
ĠtaÅŁ Ä±r
ĠsaÄŁ layÄ±cÄ±
Ġk ast
ĠGÃ¼ven ilir
ĠG ER
sar ay
T am
Ġetm eyin
Ġk Ã¼m
Pro f
Ġal am
Ġkurum larÄ±n
ĠyÃ¼kÃ¼mlÃ¼l Ã¼k
ĠTÃ¼rk ler
Ġ5 2
Ġg e
ĠgeÃ§miÅŁ te
oz it
D Ã¼ÅŁ
pt om
ĠCih az
Ġolan larÄ±
ĠbÃ¶ brek
ĠtanÄ±n an
ĠAmerik alÄ±
ĠBun larÄ±
Ġmen Ã¼
ĠÃĩ orum
Ġbelir lenir
on y
Ġm ag
ĠMÃ¼dÃ¼r lÃ¼ÄŁ
Ġgel miÅŁti
ĠTop rak
6 2
ĠEk ran
ĠdÃ¼ÅŁÃ¼nc eler
c ilerin
ĠÄ°ÅŁlem leri
Ġifade sini
ĠgÃ¶z Ã¼
Ġpar asÄ±
ĠK DV
ĠkullanÄ±l Ä±yor
ĠY um
Ġk lima
ĠF eth
ĠkardeÅŁ im
Ġolm amak
ĠkÄ±z ar
k eme
Ã¼m de
ĠAh med
m Ã®
gel en
Ġh e
Ġs ade
ĠÅŁ un
Ġr Ã¼ya
Ġsat Ä±lan
ĠKar go
Ġkonu larÄ±nda
EC EK
ĠilaÃ§ lar
Ġkend isinden
sas por
r ul
ĠyaptÄ±k larÄ±nÄ±
ĠhÃ¼c re
Ã¼st ri
ĠhÃ¼kÃ¼m etin
Ġar dÄ±
AR T
N E
Ġkav uÅŁtur
ĠBon usu
Ġzih n
oz gat
Ġtak ib
Ġs ec
Ġfaaliyet lerini
ĠT ed
ĠNer ede
Ġfel aket
ĠyaÅŁ ar
Ã¼s Ã¼nde
lerimiz den
Ġoperasyon u
ĠAd Ä±yaman
K oca
g raf
Ġrahat lat
M erkez
Ġyorum u
Ġp res
Ġbas kÄ±n
Ġhaft asÄ±nda
ĠarasÄ±nda dÄ±r
Ġk Ä±t
ĠGel ecek
Ġtespit i
w ard
ĠÃľ s
ĠKat Ä±lÄ±m
ing Ã¶l
ĠFÄ±r at
ab ildiÄŁi
Ġolm as
ĠY Ä±lÄ±
ilm eli
ĠÃ§am aÅŁÄ±r
Ġ20 23
Ġordu s
Ġay et
Ġkaps ayan
Ġelb ise
ĠbÃ¼r okr
T AL
h ere
Ġkurum larÄ±
Ġkazan Ä±m
Ġhar ek
Ġkeyf ini
ĠU N
re ad
3 00
ĠdoÄŁal gaz
ĠP il
Ã¢ s
H Y
Ġbelg eleri
Ġkarar larÄ±
ĠdÃ¶nem ine
Ġhareket leri
ar ya
ĠÃ§alÄ±ÅŁan lar
Ġbul am
ĠyazÄ±l Ä±mÄ±
t Ä±nÄ±z
Ġilan larÄ±
iÅŁ le
ĠyÃ¼r Ã¼
Ġet sin
Ġokuy an
ĠP o
Ġver gisi
h ep
ĠÃ¶t esinde
B AÅŀ
Ġyet mez
mar Ä±m
ĠG Ãľ
ĠV eri
Ġad il
amay acaÄŁÄ±
ad is
Ġv as
Ġad min
Ġyeterli dir
len mektedir
Ġhastal Ä±ÄŁÄ±n
malar da
ĠKal ite
Ã§ ika
c esi
Ġpat ron
Ġolduk tan
Ġuygun dur
Ġan i
Ã¼c el
ĠtÃ¼ket imi
Ġp Ã¼r
Ġal dÄ±r
Kaynak Ã§a
c aya
Ġrad y
Ġpu anÄ±
Hay at
b aba
P ost
Ġay aÄŁa
ĠI Ã§in
Ñ ģ
Ġaktar an
ĠKar s
Ġtel af
B ank
Ġp amuk
AR K
ĠkeÅŁf ed
Ġsor usu
Ġam bulans
Ġat arak
Ġmut lak
S p
Ġhac mi
ĠT OP
M HP
Ġar azi
ĠteÅŁ his
ĠbaÅŁ lÄ±ca
ĠÃ§Ã¶z Ã¼l
Ġb est
Ġem peryal
eh ri
ler inizin
Ġver mez
Ãĸ Y
Ġbak ter
os s
abilir im
d on
may acaktÄ±r
unuz da
Ġes ir
Ġmemnun iyeti
Ġkop ar
Ġay dÄ±r
Ġz an
Ġih rac
Ġsal onu
ĠMil liyet
Ä±t ma
ĠUS B
Ġan ayas
er in
ĠEr ol
ĠÅŀ ekil
Ġgel eni
ĠÃĩocuk lar
Ġyenilik Ã§i
ĠÃ§ek ilen
ĠH oÅŁ
Ġokuy ucu
Ġters ine
O lay
Ġsiz de
el iyiz
? '
al isyon
ĠO lim
Ġson landÄ±r
Ġetkinlik leri
os un
Ġher halde
Ġoyuncu larÄ±n
Dev amÄ±nÄ±
ĠDavut oÄŁlu
Ġdiyor lar
Ġsalg Ä±nÄ±
Ġriv ayet
Ġuy uÅŁ
ĠÃ¼z Ã¼l
ĠhazÄ±r ladÄ±ÄŁÄ±
Ġt Ã¼f
ĠÄ°ÅŁlet me
ĠT v
ĠMet al
Ä±l acaktÄ±r
Ġdo larÄ±
ĠgÃ¶r eceksiniz
ĠkonuÅŁ mada
ĠA Åŀ
ĠDev am
Ġmev ki
ĠmÃ¼r acaat
m ece
ĠP lus
ĠÃ¼cret li
f ez
ĠaÃ§ Ä±p
ĠyaÅŁan dÄ±ÄŁÄ±
ĠE L
ĠS te
Ġl in
ĠÃ¶ÄŁren im
Ġyaz dÄ±r
ĠyÃ¶n elt
Ġmahk um
ĠÃ§alÄ±ÅŁ manÄ±n
Ġform at
mek tir
ĠÄ° laÃ§
Ġkusur suz
se de
Ġgir iyor
Ġkullan Ä±ÅŁlÄ±
Ġh ek
Ġgetir ecek
v eni
iler imiz
ĠaÅŁ Ä±k
Ġat Ä±ÅŁ
g Ã¼ven
Ġ5 4
ĠÅŀ ef
ĠsaÄŁlay arak
Ġkend ime
ĠkÄ±s men
ĠN AS
ĠgÃ¶ster erek
ak lÄ±k
ash ington
Ġsev dik
H AN
ac an
Ġhav ada
ĠbÃ¼yÃ¼y en
Ġal acaÄŁÄ±
Ġbar daÄŁÄ±
Ġt his
ĠEv ren
A G
ĠmÃ¼d det
Ġtah sis
Ġal gÄ±
Ġmuhal if
Ġf ot
ĠBek ir
ub at
as por
ep yeni
ĠSay f
Ġf abrika
ĠkullanÄ±cÄ± larÄ±na
ĠiÃ§ ten
Bit coin
ĠkÄ±yas la
ĠsÄ±nÄ±r Ä
ĠsÄ±nÄ±rÄ ±
ĠtÄ±k layÄ±nÄ±z
ĠYou Tube
Ġkon t
Ġdil ediÄŁiniz
Ġoy unda
Ġgereksin im
ĠiÅŁ sizlik
ĠMark et
ĠA ÄŁrÄ±
Ġol gu
Ġver miÅŁtir
ĠyaÅŁam Ä
ĠyaÅŁamÄ ±
Ġdur ak
ĠHaz ret
ĠolasÄ±l Ä±k
ĠB AK
Ġavantaj larÄ±
Ġendek si
ĠiÅŁ g
ĠGir iÅŁim
ĠsaÄŁlay abilirsiniz
ĠkoÅŁul lar
ĠTur gut
ĠSistem leri
uÃ§ larÄ±
ĠyaÅŁam Ä±ÅŁ
Ġk anÄ±
ĠÄ°s viÃ§re
ĠSekret eri
ĠAy ÅŁe
al Ä±yÄ±z
ĠgÃ¼Ã§ leri
Ġh oca
u han
ĠoÄŁ lum
ĠT ol
ĠR ak
s ch
Ã§ inin
Ġzek a
Ġtah liye
Ġkitab Ä±n
Ġt ansiyon
un e
Ġkayded ildi
si on
or n
T witter
in ler
acak larÄ±nÄ±
Ġer tel
ĠÃ§Ä±k mÄ±ÅŁtÄ±r
Ġyar atÄ±
Ġd k
ĠBir lik
ĠgeÃ§ in
Ù ĳ
ĠK i
Ñ Ģ
N ot
ĠR ektÃ¶r
Ġmuhab bet
Ġileri de
Ġas ans
ĠhazÄ±rlan Ä±yor
ĠmeÅŁ gul
Ġhal iyle
Ġhast alarÄ±n
Ġotur ma
ĠYorum larÄ±
? "
ĠKur an
Ġkab losuz
ĠkiÅŁ ileri
Ġetm iyor
ĠKarÅŁ Ä
ĠKarÅŁÄ ±
Ġak siyon
ĠdoÄŁ u
ĠSen dik
ĠP amuk
Ġver ilerine
ahis ar
li b
Ġyap mÄ±ÅŁtÄ±r
Ġbab asÄ±nÄ±n
Ù Ī
ĠsÃ¼rec ine
Ġuygul ay
we i
Ġvak Ä±f
Ġkir alÄ±k
ĠBat man
ĠSig ort
Ġcevab Ä±nÄ±
Ġkav ga
ĠÃ§Ä±r p
ĠEk ip
ĠÃ§Ä±k arÄ±
O Z
ĠG re
on im
Ġkans eri
om en
Ġyarat mak
ĠgÃ¶rÃ¼l dÃ¼ÄŁÃ¼
Ġet ap
ob an
Ġ5 9
ĠE din
Ä° ran
Ġboyut lu
Ġham ur
Ġadam larÄ±
Ġsev diÄŁi
ĠTek irdaÄŁ
Ġkurtar ma
ĠadÄ±m larÄ±
elle f
ĠoluÅŁtur ma
in ter
ĠyapÄ±l masÄ±nÄ±
8 6
ar larÄ±
P ress
ĠbaÅŁkan lÄ±k
g ir
Ġhem de
y or
ĠGen iÅŁ
d ini
Ġruh sat
Ġedilecek tir
ĠÃĩ ALIÅŀ
Ġistem iyorum
Ay dÄ±n
y ken
Ä° letiÅŁim
Ġduyar lÄ±
Ä±l masÄ±nÄ±n
Ġyap mam
Ġy our
ark a
Ġkur ma
Ġh el
E G
Ġmez unu
Ġkon gr
Mu stafa
w are
Ġmetrek are
p ol
Ġ8 5
ĠÅŁekil lendir
ĠBir kaÃ§
K itap
Ġmin ik
ĠgÃ¶z lerini
Ġkitap lar
Ġoran la
ĠAfgan istan
ĠkÄ±l Ä±n
Ġy Ä±p
ĠÄ° Z
ro up
Ġak tÃ¶r
Ġon ar
N asÄ±l
Ġim parator
ĠN il
ĠVak Ä±f
Ġgen e
Ġr ica
Ġle v
Ġsar ay
Ġed elim
ĠgÃ¶rev leri
ĠAd nan
Ġyol larÄ±nÄ±
Ġolan aÄŁÄ±
ĠS AY
Ġrol Ã¼
D S
Ġmodel ler
ĠYaz Ä±lÄ±m
m iyorum
Ġkon unun
S ayÄ±n
âĢ¦âĢ¦ âĢ¦âĢ¦
C A
ĠsÃ¼n net
d f
Ġkalk Ä±ÅŁ
Ġkonse pt
ĠÃĩ el
ĠGel ir
ĠÃ¶ÄŁ le
Ġz ik
Ġdok uz
av Ã¼z
Ġsen t
ĠdeÄŁerlendir mek
t d
ĠmÃ¼cadel ede
Ġdestek leyen
Ġolay larÄ±n
ĠdÃ¶n Ã¼p
lerimiz le
Ġsorum luluÄŁu
ĠK iÅŁi
ĠKomutan lÄ±ÄŁÄ±
Ġfiyat larla
ĠU cuz
M a
b asÄ±
ĠÃĸde me
ip er
Ä±p lak
ĠTR T
ĠsÄ± Ã§
Ġseb z
F ilm
ĠsÄ±k Ä±ÅŁ
ĠS y
Ã¼n t
ĠbaÄŁ Ä±ÅŁÄ±klÄ±k
ĠyazÄ± lar
Ġtrans feri
ĠSig orta
Ġf ed
ĠsÃ¼r ecek
Ġsever lerin
ĠsaÄŁlan Ä±r
Ġc adde
p ost
ĠÃ¼lk eden
Ġima j
ay Ä±z
oz a
ĠÃľ mit
Ġyas aÄŁÄ±
ad ar
Ġbey n
ĠMem ur
Ġbulun mayan
lÄ±ÄŁ Ä±mÄ±z
Ġgazet esi
Ġil im
Ġmac er
ĠD Ã¶v
tay dÄ±
ist iyan
Yap Ä±lan
kin g
d elik
Ġpat ates
Ġop t
ĠÃľlk emizde
Ġnum ara
Ġcerrah i
nin g
Ġsistem inde
Ġper akende
ĠÃ§ adÄ±r
ĠTat lÄ±
ĠT om
erk an
ĠbÄ±rak mak
Ġk linik
ĠgeliÅŁtir ilmesi
ĠÃ¶zellik lere
Ġk ade
Ġ199 9
ĠkÄ±r sal
v iv
Ġger ilim
ĠBaÄŁ Ä±m
ĠÃ¶rnek leri
Ġrisk ini
Ġaday lar
Ġedilm esini
ĠAs ker
ĠÄ°dar esi
Ġman tar
Ġinsan i
!! !
luÄŁ unun
Ġkoy mak
inde dir
Ġkural lar
ĠE z
len ebilir
Ġz ira
Ġ5 6
Ġs ez
Ġpeyn ir
Ġsef ere
al anÄ±
gr ama
Ä±cÄ± lar
ĠGÃ¶ lÃ¼
ĠGel in
ĠÃ§Ä±kar Ä±lan
ĠSÄ±n Ä±r
id or
ĠKK TC
larÄ±nÄ±z da
ĠkaldÄ±r Ä±lmasÄ±
Ah met
ĠbiÃ§ imi
ĠBaÅŁkan Ä±mÄ±z
Ãľ st
ĠseÃ§im leri
Ä±l aÅŁtÄ±r
ĠkullanÄ±m Ä±na
Ġo c
ĠT ev
ĠFar uk
uz un
ir et
t iniz
ĠÃľzer ine
ĠM ali
M ASI
Ġd udak
Ġv a
Ġetkiley ici
Ã¼s Ã¼ne
Ġmut luluÄŁ
ĠÃ¶zel liÄŁini
Ġyaz ma
Ġay Ä±n
Ġm g
ĠalÄ±n dÄ±ÄŁÄ±nda
An d
Ġgel sin
Ġb erek
ĠKud Ã¼s
ĠbaÅŁlam Ä±ÅŁtÄ±
ĠS ezon
Ġfiyat larÄ±nÄ±
uy uz
ĠfÄ±rsat larÄ±
An adolu
ĠkÃ¶y Ã¼
Sur iye
ĠkatÄ±lÄ±m Ä±yla
ad am
ĠdoÄŁ du
Ġbekl iyorum
ĠgÃ¶r meye
Ġgrup larÄ±
Ġede mez
ĠO ne
ĠVer gi
os a
Ġsol unum
Ġtedbir leri
ĠÃ¶y k
Ġsit esinden
Ġkazan Ä±r
enek sel
Ġbor cu
Ġsayf asÄ±
ĠgÃ¶r Ã¼lebilir
Ġyer yÃ¼z
F iyat
ĠdeÄŁiÅŁtir me
IS I
Ãľn iversit
b uki
Ġas k
ĠÃ¶ÄŁrenc inin
Ġalt Ä±ndan
ĠgerÃ§ekleÅŁtir en
Ġar Ä±za
r Ã¼
Ġkr onik
ĠgenÃ§ lik
Ġim ar
ĠÄ°slam i
c unun
Ä° V
ed isi
Ġrak ib
ĠkaldÄ±r mak
. ''
ĠK Ä±l
ĠdÃ¼ÅŁ Ã¼yor
ĠA lex
us a
Ġ ~
ua wei
G Ã¼l
ĠSÃ¼r ekli
ĠMad rid
l ediÄŁini
ĠZ afer
iy eler
ĠN ef
Ġg lobal
Ġyok sun
ĠyoÄŁun laÅŁ
ĠyaÅŁ Ä±yoruz
ĠK UL
Ġmesel esi
ĠKad ar
ĠÅŀ eyh
Ġvur uÅŁ
Ġstratej ileri
b ack
Ġyap Ä±yorum
Ġgel miyor
ĠÃĩ or
ĠÃ§oÄŁun luÄŁu
Ġbuz dol
ĠyÄ±k an
us h
Ġmev du
Ġsit elerinin
ĠTÃ¼rk Ã§
Ġu f
ip p
Ġal erj
amay acaÄŁÄ±nÄ±
ĠOp erasyon
Ġimk Ã¢nÄ±
Ġbilin meyen
B Ä°R
F akat
ed iyesi
mel iyiz
Ġhikay e
O J
ĠEv de
ĠBan ka
ĠsÃ¶n dÃ¼r
ĠÃ§ im
Ġteslim at
ĠÃ§oÄŁ al
Ġ5 1
Ġtav an
id d
Ġhis si
Ġfayd alarÄ±
Ġbom ba
ade mi
S h
alar Ä±ndaki
ĠÃľ z
lek s
Ġkay g
ay eti
cu lar
leÅŁtir ilmiÅŁ
fli x
ĠKaymak amÄ±
ĠrÃ¼z g
ĠyardÄ±m cÄ±sÄ±
s or
ĠAn lat
ĠdÄ±ÅŁarÄ± dan
ĠF on
Ġsan dÄ±k
ĠyÃ¼zyÄ±l Ä±n
ĠKurul uÅŁ
ĠgeliÅŁ mesi
Ġde h
Ġsayf ada
Ġken tin
ĠbakÄ±m dan
M Ã¼ÅŁter
a u
ĠsÃ¼r Ã¼ÅŁ
ĠE st
ĠOp siyon
ov e
masÄ± dÄ±r
Ġvar an
Ġkap Ä±sÄ±
ĠdemiÅŁ ti
Ġd iyoruz
ĠN E
Ġkur an
Ġfilm ler
ĠA st
ĠhÄ±r sÄ±z
ĠD u
iliÄŁ e
ĠG am
im al
Ġrandev u
Ġetkinlik ler
Ġbu har
Ġsit emizde
Ġbelirt ileri
Ġih bar
Ġtopr aÄŁa
ĠgÃ¶rÃ¼ntÃ¼ ler
ĠbaÅŁ ladÄ±ÄŁÄ±nÄ±
ĠÃ¶rg Ã¼
Ġden ildi
Ġneden leri
Ġhayat i
ĠBakan lÄ±k
ĠÃ¼cret leri
ĠiÅŁ lerini
Ġ7 00
ĠkÃ¶ mÃ¼r
Ä°K A
lerin ce
Ġal Ä±yoruz
ĠÃĸz can
Ġkesin t
ĠkarÅŁÄ±l ay
em edim
antol on
Ġsap tan
an Ã§
Ä±l Ä±mÄ±
ĠReh beri
Ġkat man
ĠBil in
Tel efon
ĠyaÅŁam Ä±n
ĠN ik
ĠAr ama
ĠyapÄ±l acaÄŁÄ±
ĠÃ§arp Ä±cÄ±
iz me
Ġtr av
ĠdeÄŁil iz
ĠM ini
Ġbilm eyen
ĠK AT
ĠSelÃ§uk lu
ab ol
d asÄ±
ĠkÃ¶ÅŁ e
Ġgit tiÄŁi
ĠtÄ±r nak
Ġzar f
ĠsÃ¶z lÃ¼
ĠyapÄ±l malÄ±dÄ±r
v esi
Ġdin lem
oj en
Ġvak ti
em ent
ĠOl du
Ġ9 9
ĠfarkÄ±n dalÄ±k
ĠG elen
Ġgel mek
Ġal dÄ±ktan
Ġede ceÄŁi
Ġyat an
Ġm iyim
ĠbaÅŁ rol
B er
T an
ie w
at Ã§Ä±
ĠKurum sal
Ġanlat mak
c alÄ±k
C an
at ma
ĠÅŁ ap
ĠiÅŁ ine
ĠBiz ler
Y urt
ĠkÄ±sm Ä±nÄ±n
ĠgÃ¶rÃ¼nt Ã¼lÃ¼
oy un
ĠdÃ¼zey inde
ĠGeÃ§ tiÄŁimiz
ĠÃ¼n it
ĠC ap
fes Ã¶r
ĠsuÃ§ lu
Ġbal kon
Ġsev inÃ§
m od
ĠFat ma
Ġat Ä±n
Ġet i
Ġdiy alog
Ġhesab Ä±na
Ġtan rÄ±
ĠgerÃ§ekleÅŁ ecek
Ġsof r
iÄŁ inin
Ġil de
Ek onomi
at er
Ġmu hat
ĠgerektiÄŁ ine
ĠÃ§Ä±k tÄ±ÄŁÄ±nÄ±
r ef
Ġ199 0
ĠM Ä°L
ĠÅŁÃ¼ph esiz
le ÄŁi
Ġ5 3
ĠB UL
af et
ĠAvust urya
ĠKur ban
S Ã¼per
Ġifad eleri
ĠP rens
Ġf rom
ĠbaÄŁ Ä±rsak
ĠS uper
ĠgÃ¶nder di
Ġp is
Ã¼s Ã¼nÃ¼n
Ġd og
Ġsor ul
ĠD iyanet
Ġdosy alarÄ±
ĠBel g
At atÃ¼rk
Ġbenim s
ĠS ayÄ±
aÃ§ lÄ±
S I
Ġtak ibi
ĠyapÄ±l acaktÄ±r
ĠÃĸ lÃ¼m
ak t
i et
da ha
Ġtop lama
C U
Ġel i
Ã¼ se
Ġr ev
Ġv arken
ĠÄ°mam oÄŁlu
ĠÃĩak Ä±r
ĠKo du
ĠR estor
Ġfark Ä±na
ĠiÅŁlem lerinde
Ġgrub un
Ġt uhaf
il yon
Ġevren sel
ĠayÄ±r t
AÅŁ aÄŁÄ±
lÃ¼k te
ĠPazar lama
Ġ Ã¼
f alt
Ġek m
k Ã¶
Ġgrup lar
Ġol abilmektedir
ĠÃ¶nlem leri
Ġmis in
Ġdon an
ĠT ez
ir kin
ĠÄ±ÅŁ Ä±n
Ġtedav isinde
Ġve da
Ġs oÄŁan
at o
ĠEl b
ĠsÃ¶z de
AD I
ĠÃ§ey r
Ġmerkez leri
alim an
Ĥ ¬
al ya
ĠkadÄ±n lara
l l
al lÄ±
ĠÃ¼y eliÄŁ
ĠS ad
âĢ¦ ""
B ilim
AN LI
Ġazalt mak
ĠÅŁehr inde
ener al
az e
Ġh ain
deÄŁ er
ĠEs as
ĠbaÅŁ lÄ±
ĠS AÄŀ
Ġyap manÄ±n
â Ĺ
Ġkural larÄ±na
Ġdiren iÅŁ
Ġbeb eÄŁin
ĠvÃ¼cud un
ĠO larak
Ġcaz ip
ĠÃĩ IK
ĠAk ÅŁam
us uyla
S E
KiÅŁ isel
Ä±nÄ± p
ley e
rek ans
Ġtamam landÄ±
ĠÃ§ iÃ§
ĠF ull
ĠyaÅŁ adÄ±klarÄ±
Ġuygulam ayÄ±
as p
ĠdeÄŁiÅŁ ir
ĠparÃ§ alar
ĠP aket
y etik
Ġkapasit esi
ab le
ot t
Ġ19 80
Ġkurum u
ĠsÄ±r asÄ±yla
len miÅŁtir
Ġs Ã¼p
ok si
Ġtoplum a
ĠL ir
ĠR isk
for d
Ġv aat
ast Ä±k
T AR
ĠIs parta
ĠyaptÄ± lar
Ġbil diÄŁi
Ġf acebook
ĠgiriÅŁ imi
OV ID
luÄŁ una
ĠgÃ¶l g
ĠseÃ§ men
iÄŁ de
ĠC emal
ĠkonuÅŁ masÄ±nda
M B
Ã¼z Ã¼n
is por
Ġis abet
Ġmim ari
Ġen str
ĠyÃ¶n Ã¼nden
Ġgen etik
Ġdiler im
ĠÃ¶dÃ¼l Ã¼
S iyas
M et
Ġbul uyor
ĠcoÅŁ k
Ġ6 8
ĠW e
Ã¼k emmel
Ġders i
ĠK AP
em eye
Ġkal dÄ±m
K onya
Bil g
Ġkop y
Ġyer in
Ġt Ã¼n
Hal k
ĠettiÄŁ im
Ġemek lilik
K Ä
Ġt ir
Ġavantaj Ä
ĠavantajÄ ±
Ä±lÄ±r sa
I ST
Ġk ot
Ġkarar lÄ±
ĠÄ°s kender
Ġ5 7
ĠY Ä±k
ĠtÃ¶r eni
T urk
eÄŁin ce
nav ut
G Ã¶
ĠToplant Ä±sÄ±
Ġkil is
imiz deki
Ġilg isini
ĠetkileÅŁ im
Ġf iz
Ġberaber lik
ĠDemir taÅŁ
H am
ĠyukarÄ± daki
ĠÃĸz kan
ĠBil eti
ĠÅŁampiyon luk
Ġolmay acaktÄ±r
s ki
Ġy emin
Ġinternet te
ĠsÃ¶zleÅŁ meler
Ġ( %
Ġpar am
Ġdayan Ä±k
ĠmaÄŁ aza
ĠL ED
a ge
ĠEs naf
len in
ĠÄ°s panyol
Ġb am
Ġlir alÄ±k
ĠAV M
Ġkazan mÄ±ÅŁ
Ġâ Ĩ
ĠÄ Ĳ
Ġhal ini
g ov
Ġar m
ĠÃ§aÄŁr Ä±sÄ±
Ġkur ÅŁun
Ar aÅŁtÄ±r
Ġd uv
ĠtaÅŁÄ±mak tadÄ±r
Ġiyi dir
iir t
Ġokul da
Ġs ter
Ġotop ark
Ġist ediklerini
Ġoldu lar
il emez
Ġs esini
Ġbu ÄŁday
ĠKal dÄ±r
ĠP utin
Ġbu Ã§uk
cÄ± oÄŁlu
Ġoran Ä±nÄ±n
eder al
b ab
Ġdep resyon
! )
Ġkaz Ä
ĠkazÄ ±
Ġiy ilik
Ġkur ut
Ġuygulam ak
Ġadres inden
ĠT rafik
ĠG ezi
Ġkan dÄ±r
os ya
Ġdez avantaj
ez a
ĠgÃ¶rev lisi
Ġduy an
l il
ĠyayÄ±n ladÄ±
ĠyaÅŁ adÄ±k
ladÄ±ÄŁ Ä±nÄ±z
im asyon
Ġm Ã¼c
on t
Ġbah Ã§e
ĠyaÅŁ ta
ĠÃ¶ te
ĠiÃ§ me
ĠE ve
Ġnazar an
Ġbran ÅŁ
ĠsonuÃ§ larÄ±nÄ±
ĠÃ§alÄ±ÅŁma da
ĠC hat
ĠL in
ĠsÄ±nÄ±r sÄ±z
KAR A
ĠAn gel
ĠFaz la
ĠbeÄŁ eni
Son uÃ§
Ġasans Ã¶r
ĠBaÅŁak ÅŁehir
ĠyazÄ± da
200 6
Ġtarih lerinde
acÄ± lar
ĠyÃ¼k leme
Ġdestek ler
ĠU mut
Ġkurtul mak
Ġbank acÄ±lÄ±k
H av
tar af
ĠAnal iz
ĠÃ§Ã¶z mek
Ġort al
ic il
Ġdurum dan
Ġhizmet lerin
ĠbÃ¶ cek
ĠÃĸl Ã§
Ġzih insel
Ġk Ã¼p
Ġkend iniz
ĠO tur
ĠSer dar
M adde
Ġi han
ĠÃľn al
ĠS Ã¶y
ĠÃ¼lk elere
Ġkat il
Ġlaborat uvar
ĠSiyas et
ht ml
Ġeser leri
Ġk ib
ĠÄ°stik lal
Ġihtiyac Ä±nÄ±
Ġfinans man
ĠBak Ä±r
Y ol
ĠRad yo
k ileri
ĠEn gin
Ġayn en
ĠS tandart
Ġg ebelik
Ä° F
Ġbur s
at t
Ġim al
Ġm elek
Ġfizik i
Ġsay Ä±sÄ±z
ĠkÃ¢ ÄŁ
Ä°L Ä°R
ĠÃ§Ä±kar an
ĠOtom obil
On line
ĠÄ° f
akk ak
Ä±y an
Ġhep imizin
Ù ĩ
m un
ĠW orld
d eler
l Ã¼t
ĠdoÄŁrul tu
Ġok udum
ha el
Osman lÄ±
Ġekip ler
tern ational
ĠÄ°ht iy
ĠdiÄŁer leri
ĠArap Ã§a
ĠBil imleri
Ġken ara
Ġmadde sinin
Ġem ri
ĠdÃ¼zenlem eler
ĠM U
Ġslog an
ĠmÃ¼dÃ¼r Ã¼
ĠU m
Ġbahis leri
Ġfi il
Ã» r
M Ã¼
Ġbit kiler
Ġtakv im
ED Ä°
ĠE p
p as
ĠdÃ¼zen ledi
ĠMut fak
ĠÄ±ÅŁ Ä±ÄŁÄ±
ĠGeliÅŁtir me
ĠHik ay
Ġar amak
ĠSonr asÄ±nda
T es
s Ã¶z
Ä°L M
ĠA dÄ±m
Ġr ep
Ġk Ä±lan
Ġgel dim
ĠF izik
Ġnam azÄ±
st eri
biy otik
ĠÅŁ aÅŁkÄ±n
L e
Ġkar ara
ĠKap Ä
ĠKapÄ ±
Ġgr ev
tu ÄŁrul
ĠfotoÄŁraf larÄ±
ĠÅŀ Ã¼k
ĠbaÅŁladÄ± lar
ic ilerin
ĠMev cut
ĠYah udi
Ġdurum larÄ±
Ġal ign
Ġ7 2
Ġver mey
Ġtedbir ler
Ġhuzur lu
ĠaÃ§ Ä±n
ĠL ink
Ġal kÄ±ÅŁ
ĠKon gresi
Ġkom b
ĠgÃ¶r Ã¼yorum
Ġcil d
ĠPiyas asÄ±
Ġf rag
ĠZam anÄ±
ĠSor un
ĠPro fesyonel
S UN
Ġlist esinde
ĠAv rup
l eki
ah it
AM AN
ĠFiyat Ä
ĠFiyatÄ ±
ĠMus a
mem iÅŁtir
ĠLib ya
Ġay a
ah tarÄ±
C anlÄ±
ĠKur al
r ama
Ġbuton una
Ġyaz Ä±yor
Ġreak siyon
Ġg raf
I V
ĠÃĩ ocuÄŁ
ĠiÅŁaret i
Ġun van
Ġs ag
ĠyaÅŁam aya
um da
ĠK PSS
Ġolmak sÄ±zÄ±n
ĠfotoÄŁraf Ä
ĠfotoÄŁrafÄ ±
Ġhay v
Ġihtiyac Ä±mÄ±z
mam alÄ±
Ġser in
Ġhisse de
Ġbek lemek
d Ã®
ĠsÃ¶z Ã¼nÃ¼
Ã¼p he
in dan
Ġl azer
ĠÃ§ ekt
Ġg Ã¼b
Ġaktar dÄ±
Ġbelirt iliyor
ĠyÃ¶netim inin
Ġkent inde
ĠdÃ¶nem e
iv ert
ĠAv ukat
s ir
ĠtarayÄ± cÄ±
Ġsistem ler
ĠÃľrÃ¼n leri
Ġmadde sinde
GÃ¼n Ã¼mÃ¼zde
ch ain
il a
Ġdah aki
I s
Ġger eÄŁince
Ġders leri
ĠTr end
Ġtoplum u
ak tif
Ġor uÃ§
Ġzaman Ä±n
H ome
s ub
ar m
fi ce
Ġgir mesi
ĠKit ab
ĠyaÅŁ Ä±nday
Ġbaz Ä±nda
ĠBulgar istan
Ġses le
Ġmas aya
Ġkok usu
ĠD Ã¶rt
ĠvatandaÅŁ Ä
ĠvatandaÅŁÄ ±
Ġdef alarca
Ġbak Ä±r
ĠÃ§Ä±k abilir
ĠG Ã¼ler
Ġtemiz leme
T eÅŁ
K Ã¼ltÃ¼r
ĠkarÄ±ÅŁ Ä±m
ĠK astamonu
lem i
Ñ Ĥ
if i
ĠKomut anÄ±
ad Ã¼f
Ġyav ru
Ġok ulu
ib a
k ut
ĠAlÄ±ÅŁ veriÅŁ
ay dÄ±n
Ġoluyor uz
ĠV it
ed d
ĠÅŁof Ã¶r
ĠÃĩ ukur
ĠEs en
ĠsÄ±k Ä±ÅŁtÄ±r
c im
Ġk adem
ĠsÄ±f at
Ġnis p
Ġves il
ĠÄ° pek
Ġkork ut
ĠaÃ§ arak
ĠÃ¼m it
Ġekonom isi
ĠdÃ¶k Ã¼l
ĠT UR
ley se
ĠÃĸ Äŀ
ĠÃ§alÄ±ÅŁ arak
Ġ aÄŁÄ±
ĠyÄ±l larca
Ġbilin iyor
ĠMut lu
Ġpas aport
Ġengel lemek
Ġr et
Ġkent sel
Ġbul dum
uÄŁ la
Ġsorgul ama
B r
Ġit faiye
ĠV ekili
Ġj e
- )
Ġmes ele
t eb
ĠÃ¶l Ã¼mÃ¼
B as
Ġbelir lenmiÅŁ
laÅŁ mÄ±ÅŁ
ĠÃ§eÅŁ idi
ĠN as
Ġhikay esi
ĠyatÄ±rÄ±m larÄ±
R EN
ĠBel gesi
ĠÃ§alÄ±ÅŁ maktadÄ±r
Ġh ic
Ġistem iyor
ah an
Ġkap lama
hats app
ĠKr ipto
Ġis eniz
ĠHak kÄ±
ĠÃ§alÄ±ÅŁ Ä±yorum
ĠHastalÄ±k larÄ±
ĠE ÄŀÄ°TÄ°M
m y
D en
Ġakl Ä±ma
ĠBiz ans
M as
Ġtay in
in san
Ġ18 0
Oy un
Ġyap Ä±yorlar
Ġs taj
ĠDÃ¼ny asÄ±
ĠÅŁar ap
Ġver ildiÄŁi
ĠV eli
ĠkÃ¶k lÃ¼
lam Ä±ÅŁtÄ±r
kÃ¼ dar
ĠdÃ¼ÅŁÃ¼n mek
ĠÅŁun lardÄ±r
or ge
ĠkÃ¶ken li
len diÄŁi
rip t
ĠBil imler
---- ----
ĠSar ayÄ±
Ġdakik alÄ±k
S ay
ĠHar it
Ġetm eyen
Ġart arak
Ġmes ai
ĠbÃ¶lÃ¼m Ã¼ne
Ġsem ptom
ak e
ac Ä±nÄ±n
ĠSur iyeli
ĠBul un
ĠðŁ ĺ
al aÅŁ
ĠI M
ĠkazandÄ±r an
Ġmet ro
Ġdikkat ini
ez ya
Ġenerj isi
ĠsayÄ± larÄ±
D av
Ġkab a
ĠS U
Ä°s rail
ĠdÃ¼ÅŁÃ¼n erek
ĠR om
ĠKarab Ã¼k
Ġsaat ler
Ġkatli am
ĠanlaÅŁ Ä±lÄ±r
M AZ
ma in
Ġyurt taÅŁ
ĠgÃ¶z le
Ã¶r ek
ĠyaÅŁ Ä±na
ĠbuluÅŁ tu
ĠÅŁirket lerinin
ĠH Ã¼rriyet
Ġf igÃ¼r
Ġfak ir
B una
Ġham l
Ġkonum da
Ġsat mak
Ġuygulam asÄ±nÄ±
Ġteknoloj ileri
Ġtalep leri
ers en
ĠmaÃ§ a
ĠC oÅŁ
em de
Ġref ah
ĠsaldÄ±r gan
ĠgÃ¶nder diÄŁi
ĠkeÅŁ if
Ġg Ã¼ler
ĠdeÄŁiÅŁ ti
Ġham ile
ĠbaÅŁlam asÄ±
Ġak ciÄŁer
Ä° C
Ġbin anÄ±n
B al
ĠmÃ¼lk iyet
Ġed itÃ¶r
Ġbir ebir
iÄŁ ine
Ġmor al
ĠdÄ±ÅŁ Ä±ndan
ĠkullanÄ±c Ä±nÄ±n
Ġh elal
op ar
ĠÅŁif re
Ġcenaz e
las h
Ġbas amak
o und
Ä°N Ä°Z
Ġkon usunu
Ġekran a
Ġzor dur
ĠKo le
al p
Ġkonfor lu
t iÅŁ
ĠÄ°t tifak
Ġak si
Yer el
Ġek im
Ġplan lama
ac ivert
ĠTop lantÄ±
ĠYeni den
Ġkolay lÄ±k
ĠK Ã¶k
Â ®
c y
ÅŁ Ä±k
ĠgÃ¼ven liÄŁini
Ã¼yor du
ut e
ĠvatandaÅŁ lara
ĠkÄ±r Ä±l
Ġbirik tir
KÄ ±
Ġhesap larÄ±
ek iz
ĠgerÃ§ek Ã§i
ĠKom itesi
Ġplak alÄ±
ĠG Ã¼nde
ĠhatÄ±rlat an
Ġn ar
Ġv an
Ġkar lÄ±
Ġyararlan mak
Ġz ahmet
mas ya
ĠÅŁart larda
Ġinceley ebilirsiniz
ĠPa ul
ĠeÄŁitim in
Ġolmay abilir
ĠbaÄŁÄ±m lÄ±
Ġf Ä±ndÄ±k
ĠhazÄ±r lamak
Ġpar aya
ĠKon gre
ĠÃ¶ÄŁretmen ler
Ġoksi jen
Ġbeklen tiler
Ġgetir miÅŁ
Ġkonusu dur
9 7
og ram
ĠkÄ±z Ä±n
S ey
ĠEn g
est en
Ġh elikopter
ĠkonuÅŁ mak
Ġher ÅŁey
ĠG Ã¼len
K om
Ġtaleb inde
ĠgÃ¼Ã§ lÃ¼k
m ine
ĠMark a
Ġvar ol
Ġadr esini
Ġdayan arak
Ġark asÄ±ndan
B ab
Åŀ eh
ĠD uvar
em eleri
Ġvurgul an
n es
maz lar
Ġes erler
ad asÄ±
ĠH AY
Ġp et
Ġn orm
Ġalan Ä±n
ĠC errah
Ġk ef
Ġbeb eÄŁ
ĠYargÄ± tay
Ġeski den
iy o
Ġortak lÄ±k
ĠP ir
Ġtoplum da
ti a
Ġbur asÄ±
ĠÃ§Ä±k maya
r ap
Ġail eler
ĠB a
LE Åŀ
ĠW hatsApp
B alÄ±k
ĠÄ°liÅŁ kiler
Ġpart inin
Ġyaz Ä±yÄ±
Ġul us
at h
Ġsay gÄ±n
Ġm usun
Ä±r h
ĠÃ§ok tan
ĠBrez ilya
ĠKÃ¼r esel
ĠÃ§ocuÄŁ a
Ġ9 5
en ci
ĠJ ack
ĠCam i
Ġprens ip
ĠolmadÄ±ÄŁ Ä±na
ĠayrÄ± calÄ±k
ĠdÄ±ÅŁarÄ± da
Ãĸr neÄŁin
9 6
ĠSay Ä±sÄ±
M EN
Ġsay Ä±lan
Ġkadar Ä±yla
Ġid rar
Ġy epyeni
ĠgÃ¶rÃ¼n Ã¼ÅŁ
ati ons
ĠaÃ§ abilir
Ġdost luk
Ġr eg
ĠS MS
ĠÅŀ if
ĠS GK
ar ÅŁ
ĠG lobal
Ġort aÄŁÄ±
Ġkon san
ĠD Ã¼ÄŁÃ¼n
ĠÅŁehir ler
ĠÅŁÃ¼k Ã¼r
Ġsit esini
8 1
Ġ up
ul e
ĠD emek
ĠÅŀ ar
ĠyÃ¶n Ã¼
Ġde gil
ĠS ÃľR
Ġsen et
o ol
Ġk lav
Ġkor ona
ĠgeÃ§ir ildi
ĠTer im
Ġalg orit
l op
Sonr aki
ĠÅŁey lerin
Ġkan alÄ±
Ġk eÃ§
ĠkÄ±s alt
t iz
Ġev li
ĠyÃ¼ksek tir
iÄŁ inde
Uy gul
Ġn eye
ĠS ER
Ã¼l tÃ¼
ĠAn tik
Ġgereken ler
Ã§ Ä±nÄ±n
Ġmuht aÃ§
larÄ±m Ä±n
ĠiÅŁlem lerinizi
ĠyÃ¶net melik
ĠE h
ĠEm lak
ĠdeÄŁerlendir ilmesi
Ġkar an
al iz
ilm esinde
Ġm uz
ĠÄ±ÅŁ Ä±ÄŁÄ±nda
Ġyap abilmek
ĠEv i
ĠBir bir
AD A
Ġf as
Ġken ti
ĠB ÃĸL
ĠB ÃľY
Ã§ ilere
ĠyayÄ±m lan
ĠbÃ¶lg esine
ĠgÃ¶ster ge
N ET
ek Ã¼l
ĠsavaÅŁ Ä±n
ĠK elim
ĠÃ¶n Ã¼ndeki
ĠU EFA
ĠkÄ±l avuz
y ah
ĠgÃ¼n lerinde
OK Ä°
ĠG em
Ġister iz
ĠBah ar
adÄ± lar
ĠB erk
Ġdestek li
Ġd ib
Ã» m
Ġfak Ã¼lt
ĠaÃ§Ä±k tÄ±r
i da
Ð ½
EH Ä°R
k am
ic o
C on
Ġtec avÃ¼z
ĠseÃ§ mek
Ġhar ik
ĠbaÅŁar Ä±sÄ±
ist al
l Ä±ydÄ±
Ġ11 2
ĠA mazon
Ġmad denin
Pro gram
ĠyaÅŁ adÄ±ÄŁÄ±mÄ±z
Ġform Ã¼l
Y E
ĠÃĩek ici
Ġsun du
Ġd uÅŁ
larÄ±nÄ±z la
Bey az
K endi
Ġc eh
Ġmo tivasyon
ĠÃ§alÄ±ÅŁ tÄ±ÄŁÄ±nÄ±
ayÄ±n ca
ĠL id
Ġstan dar
M ic
ey z
ĠÄ°h racat
Y eÅŁil
ĠÃ§erÃ§ev ede
ig h
ĠVal iliÄŁi
K urum
at ed
i an
Ġsay Ä±n
Ġgelecek tir
Ġkom utan
ĠbaÅŁlay abilirsiniz
ous e
Ġbin asÄ±
GerÃ§ ek
av v
Ġver miyor
ĠS tu
ĠfarklÄ± dÄ±r
ĠAj ans
Amer ik
Ġproblem leri
8 7
ĠT oto
Ġmuhab ir
ĠP S
ĠÃ¼rÃ¼n lerinin
diÄŁ ine
Ġmas al
Y D
ĠÃ§ek er
ĠHar ek
ĠmÃ¼k ellef
dÃ¼k ten
S ah
Ġedeb ilmek
K Ã¼r
ĠRes im
Ġzaman dan
ĠÃ¼st elik
ĠÄ°mparator luÄŁu
elerin deki
baÅŁk a
Ġlit re
Ġopsiyon lar
Ġtelefon la
Ġf os
ĠbaÅŁ layÄ±p
Ġtamam layan
ĠS enin
l ilere
Ġsey red
Ġan Ä±lan
c er
Ġolan lara
ĠZeyn ep
T P
ĠÃĩ OK
ĠbarÄ±ndÄ±r an
Ġter min
illi am
em ediÄŁi
S aÃ§
S EL
ĠLev ent
G Ã¶k
ĠyoÄŁun luk
ĠÃ¶ bÃ¼r
Ġat ar
A pple
V an
Ġpro v
ĠRapor u
acaÄŁ Ä±nÄ±n
Ġdey ip
Ġmetrek ar
ĠR Ä±za
Ġtan k
kur may
ĠÅŁ em
Ġeder se
Ġetk isiz
Ġver meyi
Ġsend rom
Frans a
ĠoluÅŁtur ulmasÄ±
Ġail esine
ĠvatandaÅŁ Ä±n
B ana
g usu
ĠSan al
k urt
Ġse ans
Ġd ed
Ġmobil ya
ĠS tan
Ġal Ã§ak
ĠgeÃ§ ip
ĠR ah
Ġm Ã¼slÃ¼man
B un
leÅŁtir mek
Ġak Ä±ÅŁÄ±
Ġel imizden
Ġin ter
ĠsÄ±nÄ±f landÄ±r
ap ur
ĠhastalÄ±k lar
ĠÅŁu an
ur at
s ah
es k
ĠDer nek
ĠTab lo
Ġkural lara
Ġkap anÄ±ÅŁ
C D
Ġver diler
Ġprogram lar
Ġhav ayolu
Ġw as
ĠAk ÅŁ
ĠBirleÅŁ miÅŁ
Ġbulun muÅŁ
Ġses leri
ĠdÃ¼zen leyen
ĠÅŁekl indeki
Ġkom ÅŁ
ĠHizmet ler
lan a
Ġsistem de
Ġter ap
ĠgÃ¶n l
ĠsÃ¶z cÃ¼
ĠÃ§ek tiÄŁi
Ä±mÄ±z la
ĠgÃ¶k yÃ¼z
ĠKap alÄ±
ĠparÃ§ alan
ĠKÄ±r Ä±k
ĠÃ§ocuk larÄ±nÄ±n
ĠY ER
ĠbaÅŁar Ä±ya
ĠDÃ¼nya da
Ġmekan ik
Ġrefer andum
Y et
ĠÃ§ekir dek
Ġfiyat Ä±nÄ±n
Ġaray arak
st em
t y
Ġter im
Ġkurul muÅŁtur
ĠÃ¼lk emize
Ġm l
ih a
Ġar anan
Ġmut l
ĠRe al
abilecek leri
Ġbir Ã§
ĠBel ir
Ä°M Ä°
ĠsaÄŁ lÄ±ÄŁÄ±nÄ±
c alan
ĠÄ°ÅŁ Ã§i
Ġb ini
l Ä±nÄ±n
ĠÃ§an ta
iy ye
Ġmas um
ĠÃ§ et
ĠBAÅŀ KAN
ĠW ashington
ĠAr k
É Ļ
Ä±r sa
Ġdeplasman da
der es
m o
ĠÄ°z mit
ĠÅŁ ebek
Ġsah asÄ±nda
ĠyaÅŁ Ä±ndan
ĠTok at
Ġdestek lem
ĠiÅŁtir ak
gÄ± c
bar ek
ĠSer maye
Ġcumhur iyet
EN D
Ġkim liÄŁi
âĢ ²
ĠbÃ¶lg eler
dek si
ĠHaz ine
ĠÃ¶ner iler
Ġruh sal
k oz
ĠPol onya
Ġk uz
ĠoÄŁ l
ĠgÃ¼lÃ¼m s
ĠgÃ¶rÃ¼ntÃ¼ leri
Ġoyunc unun
ock chain
c am
c ess
ĠistediÄŁ imiz
ĠT AK
Ġuygulan acak
Ġhizmet ini
er gah
Ġgib iydi
im er
ĠsÃ¼r er
Ġsonu ca
Ġyap alÄ±m
Ġoper atÃ¶r
d is
ĠÅŀ iir
ĠKÃ¼rd istan
Ġbitk isel
ĠSal dÄ±r
Ġkullan Ä±yorum
ĠDev rim
Ġhak ikat
ĠE bu
Ġyakal ay
Ġdez enf
ĠA ut
Ġkalk Ä±n
ĠÃĩ iz
ĠH y
r d
iniz deki
Ġuzman lar
AR ET
Ġb itim
ĠdoÄŁrultu da
8 4
ĠoluÅŁtur maktadÄ±r
ĠsÄ±nav a
Ġsigort asÄ±
ĠaÅŁ an
Ġrenk ler
Ãľ cret
Ġzor la
ĠkÃ¼f Ã¼r
Ġay larda
ĠMÃ¼hendis liÄŁi
ĠSaÄŁlÄ±k lÄ±
dir me
D iyarbakÄ±r
Ġzih niyet
P N
Ġteknik leri
ĠA pp
ans al
j uv
ĠHaft asÄ±
Ġtak dim
ĠkarÅŁÄ± tÄ±
Amer ika
ĠSay Ä±lÄ±
ĠarttÄ±r mak
ad as
ĠyoÄŁ urt
9 3
ĠaÃ§Ä±l acak
ĠKor un
ĠÃ§alÄ±ÅŁ mayÄ±
ĠkarÅŁ Ä±nÄ±za
Ġy eme
ĠD alÄ±
Ġtez gah
ĠÃ§alÄ±ÅŁmalar Ä±nda
Ġmakin eleri
ĠFir ma
Ġhaber e
ĠÃ¶ teki
Ġdey iÅŁle
ĠTel evizyon
mÄ±ÅŁ lar
F ark
F or
Ġgez i
Ġkarar Ä±n
T ok
Ġistem iÅŁ
Ġkur t
Ġkar aciÄŁer
Ġmem uru
ĠSilah lÄ±
ĠiÅŁÃ§ ilerin
tuÄŁ unu
Ġsoru larÄ±n
ĠA F
Ġfayd asÄ±
Ġkelim eler
ĠsÄ±nav Ä
ĠsÄ±navÄ ±
ĠY outube
ĠK ovid
ĠÅŁim dilik
ĠTurk cell
Ġal acaÄŁÄ±nÄ±z
ĠaydÄ±nlat ma
ĠMar s
Ġet nik
ĠgÃ¶rdÃ¼ÄŁ Ã¼nÃ¼z
Ġbirlik t
Ġmerak lÄ±
ĠZ iya
D ik
ĠdÃ¼k k
ev ler
s ite
ĠKah v
g on
ĠT rak
tur k
Ġgerek ebilir
Ġordu su
iy enin
Ġkend iliÄŁinden
ĠiÅŁlev sel
ĠdÃ¼ny asÄ±na
Ġkonum unda
ĠAv cÄ±
F in
ĠKurtul uÅŁ
Ġsorun lara
âĹ ı
ĠnÃ¼f usu
Ġalan Ä±ndaki
Ġser gi
ĠP oker
Ġiz n
ĠmÃ¼ÅŁter ilerin
ĠÃ¼ret mek
Ġkop yal
ĠB B
ĠDav id
ĠyÃ¶netic isi
Ġn iÅŁ
Ġdol aylÄ±
Ġuygul amanÄ±n
w ap
Ġan dan
Ġtah vil
Ġoku du
Ġsezon unda
Er z
Ġgel meye
ov asyon
ĠbÃ¶lg elerinde
eÄŁ er
ur lar
Ġbozuk luÄŁu
T UR
tif ika
ĠKam pany
Ġsim g
EC E
M K
OB Ä°
Ġpart isi
Ġver ecektir
Ġn iÅŁan
Ġb ine
hend isi
Ġemin im
ĠsÃ¶y leÅŁ
ĠgÃ¼ven ce
Ġn eyse
ĠgÃ¶r Ã¼p
Z aman
Ġav uk
Ġgit tik
ĠgeÃ§ir ilen
v ir
Ġkurum un
ĠsÄ±kÄ±ntÄ± lar
Ġsev diÄŁim
may acaÄŁÄ±nÄ±
Ġyap Ä±nÄ±n
Ġkatk Ä±sÄ±
ĠY Ã¼ce
L AH
ĠmÃ¼h im
al eti
Ġs ark
D il
Ġkullan mayÄ±
P R
c k
of ya
ĠhÃ¼kÃ¼m leri
ĠgÃ¼ven le
Ġbab am
ĠRes ul
ĠfotoÄŁraf lar
ĠseÃ§ ildi
is y
em iÅŁtir
er on
ĠOlim piyat
ĠD ÃĸN
Ġac Ä±m
ĠBur cu
Ġsen sÃ¶r
siy um
Ġ Ø§ÙĦ
Ġtak Ä±ma
Or ta
iÅŁ ik
Ġgelir i
Ġada p
Ã¢ k
Ġsoru larÄ±nÄ±
ĠyapÄ±l Ä±rken
ĠYal ova
ĠD iyet
ilik on
Ġtem p
ĠB uz
Ġziyaret i
ON OM
Ġas Ä±r
ĠGÃ¶ Ã§
Ġkend inden
ĠsÄ±r alarÄ±nda
ĠÃ¶nem ine
Ġan ayasa
l inin
us undan
ĠOt o
ĠKÃ¼t ahya
ĠPlan Ä
ĠPlanÄ ±
Ġkazan dÄ±ÄŁÄ±
ev Ã®
ĠfaktÃ¶r ler
ĠKal p
ĠkonuÅŁ uyor
ĠYah ud
Ġiddi alÄ±
8 2
Ġpiyas alarda
ĠB ed
Ġmobil y
ĠÅŁ Ã¼phe
ik ar
men ts
ĠYet er
Ġyuvar lak
Ä±l malÄ±
ĠÅŀampiyon lar
Ġbu t
ĠAÅŁaÄŁÄ± daki
Ġmesaj larÄ±
Ġr ah
n el
Ġsahip lerine
ĠGÃ¼ven liÄŁi
ĠaÃ§Ä±klam alarÄ±
ĠÃ§alÄ±ÅŁ acak
M art
T icaret
ĠtaÅŁÄ±m acÄ±lÄ±k
A Ã§
ĠÃĸ ÄŁ
ĠÄ°l han
OL OJ
w ood
ĠÃľy elik
may alÄ±m
Ġkaynak lar
ebilm e
ĠBil iÅŁim
Ã® r
Y en
ĠC el
ĠÃ§Ä±kar dÄ±ÄŁÄ±
Koca eli
ĠPr emi
et k
ĠAd res
ĠÃ¶de mek
Ġs iber
inc isi
Ġente gr
Ġm Ä±sÄ±nÄ±z
Ġilk e
ĠMac ar
ĠÅŁ en
Ġy ut
ĠkoÅŁul larda
D in
ĠR a
ĠgÃ¶rdÃ¼ÄŁ Ã¼mÃ¼z
ĠTarif i
iyet le
ĠkullanÄ±l mÄ±ÅŁtÄ±r
ĠAbd ul
Ġot ob
Ã¼l ten
ĠM ekt
ĠfÄ±r Ã§
Ġbulun arak
ĠÃĸz er
Er kek
ĠA A
ĠK od
Ġd ram
] .
amÄ±z dan
Ġp lay
S ON
ĠdeÄŁiÅŁ iyor
Ġbelirt iyor
ĠBul uÅŁ
ĠBil dir
ĠKon ak
Ġtarih in
8 3
ĠÃ§alÄ±ÅŁ tÄ±m
ĠÃ§alÄ±ÅŁ Ä±n
ĠT Ä±k
Ġyap Ä±sÄ±nÄ±
ĠHÄ±r istiyan
ĠErz incan
ĠaÅŁaÄŁ Ä±ya
ĠDoÄŁ a
ĠTat il
ĠOy unu
ÃľL T
b urt
Ġyar Ä±sÄ±nda
Ġoyn uyor
ad Ä±ÅŁÄ±
Ġab art
ĠÃ§Ä±k Ä±ÅŁÄ±
ev et
y ani
g et
ĠiÃ§in dir
Ġmesl ektaÅŁ
Ġin ci
ĠAd asÄ±
ĠdÃ¼ÅŁÃ¼n dÃ¼m
n ot
Ġsunul uyor
Ġdur du
Ġtop tan
f Ã¼m
k uÅŁ
ĠÃľlk e
Ġ1 10
D ol
Ãľ S
ĠdÃ¼ÅŁtÃ¼ ÄŁ
ĠH rist
ĠBen ce
ĠI l
ler se
Ġef end
or gan
Ġdest eÄŁiyle
ĠK ing
W indows
ĠkÃ¶t Ã¼lÃ¼k
Ġistem eyen
dik i
Ġfilm de
Ġistih barat
ĠAl tay
Ġbirisi dir
Ġbir eyin
f ir
ĠÄ°nsan larÄ±n
Ġtek stil
ĠkarÅŁÄ± t
Ġsay Ä±sÄ±na
ĠDen etim
ĠD EN
l aki
aÃ§ Ä±k
Ġs eti
Ã¼n ist
Ġh Ã¼r
Ġkom ik
ĠTemsil cisi
ĠBel Ã§ika
Ġert esi
Ġism inin
Ġher ÅŁ
2 000
Bir Ã§ok
Ġtur u
ĠM P
ĠÃ§Ä±k maz
Ġkey fi
Gazi antep
Ġab one
b arÄ±
Ġbelir tir
ĠmÃ¼zak er
y r
ĠU sta
ĠbÄ±rak an
Ġsahip lerinin
Ã¼s k
Ä±m lar
ĠS ivil
Ġiz lenme
Ġkarar Ä±nÄ±n
Ġasker lik
Ġgid in
Ġgerekiyor du
Ġem lak
Ġal ey
ĠG id
ĠaÃ§Ä±k layan
Ä±n Ã§
ĠAr acÄ±
ĠyÄ±l dÃ¶n
Ġsezon un
c ileri
Ġkon usuna
ĠS OR
Ġin gil
M M
il k
Ġdiy abet
ĠAn ayas
Ġkon umu
Ġli f
ĠyÃ¶n Ã¼ndeki
ĠÄ°st ih
Ġz ann
f iye
Ġek lemek
Ġakadem isyen
Ġtemel inde
Ġbelg esel
Ä° Ãĩ
Ġyapan lar
Ġm am
Ġcihaz larÄ±
ĠT uÄŁ
ĠD OÄŀ
Ġay Ä±na
Ġdurum dur
Ġ ÄŁ
ĠiÅŁ lerin
H Ä±z
Ġdosy asÄ±
Ġsal at
ĠA dem
Ġtaraf lÄ±
ED EN
Ġmuay en
ĠÃ§al Ä±n
ĠS ep
Ġc ol
ĠÃ¶ner ileri
ĠÃ§Ã¶zÃ¼m leri
eniz de
Ġad Ä±nda
ĠtarÄ±m sal
ĠYaz dÄ±r
Ġvir Ã¼sÃ¼
Ġaday larÄ±
g Ã¶l
E x
Ġfiyat larÄ±nÄ±n
Ġyap abileceÄŁiniz
ir men
ĠÃ¶rnek ler
Ġbilg isini
il ebilecek
Mes aj
ĠÃ§alÄ±ÅŁmalar da
ĠM Ã¼st
Ġmak s
ĠF as
ĠB izi
B U
Ä±nÄ±z la
Ġn eyi
ĠyÃ¼kÃ¼m lÃ¼
AN I
Ġbenim le
K ab
ĠF abrik
ĠyÃ¶n den
u cak
F otoÄŁraf
ĠdÃ¼ÅŁ mÃ¼ÅŁ
Al t
Ġkal dÄ±ÄŁÄ±nÄ±
Ġlist elen
Ġin di
Ġsor uya
Ġyan Ä±ndaki
AY I
ĠB isiklet
azz am
el ler
Ä° d
D AK
m aca
ib il
Ġs tad
ĠkÄ±s kan
Ġko alisyon
Ġmuht ar
Ġkal a
abildiÄŁ ince
ĠyÃ¶netim inde
Ġetm elisiniz
Ġtarih ini
ĠÃ§ek ildi
Ġac ent
Kas Ä±m
ĠsuÃ§ u
ĠakÅŁam Ä
ĠakÅŁamÄ ±
ĠÃ¶mr Ã¼
y at
ĠW i
ĠB ingÃ¶l
Ä±l madan
te fik
ĠgeÃ§ tikÃ§e
ĠT ap
s o
Ġc ar
ĠdeÄŁin en
Ġistis mar
ĠB Ã¼t
ĠB Ã¶
Ġolur sanÄ±z
Ġ ï
Ġbak Ä±yor
Ã§ iliÄŁi
ĠÅŁaÅŁÄ±r t
Ġdol ap
ĠG Ã¼mrÃ¼k
Y unan
Ġdiz ayn
B at
w n
ĠaÃ§ Ä±lmÄ±ÅŁ
ĠÃ¼lk elerinde
ten t
Ã¼nÃ¼z e
ĠE S
Ġas falt
Ġsol uk
b iye
Ġnas ip
ia omi
ĠCev abÄ±
Ġ6 7
Ġg or
Ġgit tikÃ§e
mam Ä±zÄ±
ĠT Ã¶r
ks Ã¼r
am amasÄ±
ĠSal on
ĠÃ§Ä±k arken
ĠGar anti
M ersin
M is
Ġilgilendir en
laÅŁ an
ĠsaÃ§ ma
Ġkazan abilirsiniz
c ol
Ġhast alarda
iliÄŁ ini
Ġbek ley
An n
Ġyaz arak
ĠgÃ¶nder mek
S Ä±r
ĠAk ar
Ġbirbir ini
Ġteknoloj inin
Ġgarant isi
ĠB TC
ĠÃľÃ§ Ã¼ncÃ¼
Ãľ T
ĠÃ§Ä±kar ma
ĠÃ¼lk esi
ek ler
f in
Ġmit ing
** *
op ol
Ġc or
y umu
m Ã¼
kin lik
AN K
Ġar Ä±yorum
ĠÄ°d di
Ġhat alÄ±
ĠAÃĩ IK
Ġtak tik
ĠyÃ¼rÃ¼t Ã¼l
ĠbaÅŁ kent
Samsun g
Ġtaraf Ä±n
d s
ĠSt ore
ad en
T aÅŁ
ĠEr soy
ĠYol larÄ±
um artesi
Ġkaz asÄ±
ĠsÃ¶yl edik
Ġsor uyu
Ġalg Ä±lan
AM A
Ġkelim esi
ĠDur umu
ĠolasÄ±l Ä±ÄŁÄ±
ĠÃ§ irkin
ey a
ĠyÃ¼rÃ¼t en
r uz
Ġtat b
oot h
de st
ĠSes li
ĠBur adan
ĠMas ter
ĠÅŀehir cilik
ĠNur i
Ġedilm esine
Ġy am
Ġat Ä±ldÄ±
ĠB Ä±rak
iz de
Ġsevin dir
ĠR en
ĠÃ¼ret iciler
ĠYÃ¶net melik
ĠÃ¶zen le
Ġmalzem esi
ĠaÃ§ lÄ±k
ĠFay d
Ġnokt alar
ĠsÃ¶yl Ã¼yorum
ĠB UR
ĠMuhar rem
ac t
ĠdeÄŁer inin
Ġhev es
ĠK aÅŁ
o larÄ±
ĠyazÄ± larÄ±
Ġmevdu at
Ġsah aya
Ġyat ay
Ġbenz et
T ah
B Ä°T
ĠÃ§atÄ±ÅŁ ma
ber al
Sab ah
Ġp ul
Ġayr Ä±lÄ±k
t edir
Ġf eth
ĠHik met
op e
ĠÄ° y
ĠErmen istan
9 4
Ġc ook
ĠYarÄ±ÅŁ masÄ±
ĠÃ¼retic isi
ĠY ENÄ°
mamÄ±ÅŁ tÄ±
Ġbulun makta
Ġindir mek
oz isyon
ĠsuÃ§ undan
Son ra
Ġann em
ĠaÃ§ Ä±sÄ±
âĢ¦ .
ĠÃ¼z Ã¼m
ĠT en
Ġum arÄ±m
ĠTek rar
ĠTr ip
Ġmu af
â ĸ
l ediÄŁiniz
Ġders ler
ĠC al
il eceÄŁi
ĠolduÄŁumuz u
o ul
Ġal ay
ĠalÄ±n abilir
acak larÄ±
eks ika
Ġver ilere
ĠSÃ¶z cÃ¼sÃ¼
ĠÃ§ek tir
Ġbur Ã§
acaÄŁ Ä±mÄ±zÄ±
ĠkullanÄ±m Ä±nÄ±
Ġen j
g eneral
ĠSah ip
Ġdest eÄŁini
ĠgerÃ§ekleÅŁtir ebilirsiniz
em ber
n y
ĠyÃ¼z me
Ġark asÄ±na
Ġrenk leri
ĠI r
Ã¼l k
Ġhar am
ĠOL DU
ĠÅŁek eri
ĠbaÅŁlay Ä±n
AS YON
anÄ±z a
ĠolduÄŁ unuzu
Ġanlat maya
ruk lu
l eden
9 2
M I
Ġol abilmek
GÃ¼n ey
Ġsaat lerde
Ġilk okul
Ġer it
Ġaz a
Ġal Ã¼minyum
Ġal mÄ±ÅŁtÄ±
T O
Ġay gÄ±
Ġf iÅŁ
k az
ĠKor onavirÃ¼s
viv or
ÅŁ en
ĠOl aÄŁan
Ġgez in
ĠAlbay rak
Ġyurt dÄ±ÅŁÄ±
Ġsay Ä±sÄ±nda
D ur
ĠT as
M Ã¼z
c Ã¼l
Ġziyaret Ã§i
g ini
ĠBor Ã§
Ġh ele
ĠyÄ±l dÄ±zÄ±
Ġayr Ä±lÄ±r
ĠhÄ±zlÄ± ca
ĠÃĩavuÅŁ oÄŁlu
Ġduyg usu
Ġkoy duÄŁu
as ite
p ir
ĠyaÅŁan Ä±yor
ĠGiz lilik
t as
ĠtanÄ±m ak
ĠNev ÅŁehir
Ġoran Ä±nÄ±
ĠEr tuÄŁrul
m ediÄŁ
V ideo
Ġver sin
ĠbaÅŁlan gÄ±c
p ik
Ã» n
Ġrast gele
h um
Ġkazan maya
Ġat om
ĠÃ§alÄ±ÅŁ masÄ±nÄ±
larÄ±m la
Ä±l a
ĠAn lam
Ġkurtul uÅŁ
Ġolacak tÄ±
Ġh im
ĠSan ay
ĠÃ¶n eri
am adan
Ġciv ar
ĠKÄ±r Ä±m
l imi
ĠaÃ§ Ä±yor
Ġden ge
Ġl ojistik
od ik
ĠiÅŁ tah
Ġkurtar mak
Ġhesap lama
Ġtes adÃ¼f
ĠâĨ Ĵ
ĠpiÅŁ man
Ġtut ulmasÄ±
EL Ä°K
t Ä±na
Ġtut arak
ĠAy han
ĠE lem
ĠO Y
ÃĸÄŁr enc
P azar
Ġmerak la
ĠTer cih
Ġtah ta
Ġkor idor
ĠTÃľRK Ä°YE
p azarÄ±
N er
ĠgÃ¶v de
ist en
Ġnit eliÄŁi
Ġtr ilyon
ĠvatandaÅŁ larÄ±mÄ±zÄ±n
ĠgerektiÄŁ inde
ĠgÃ¶rÃ¼nt Ã¼sÃ¼
ĠAt ak
ĠÃ¶ldÃ¼r Ã¼l
Ġel iyle
Ġotur up
ĠÃ¶ dÃ¼n
Ġistiyor lar
Ġhalk Ä±na
l ediÄŁimiz
ĠÃ¼lk elerden
ĠC oin
Ġ6 3
Ã¼b nan
Ġde g
ĠgeÃ§miÅŁ i
Ġyap arlar
Ġolur uz
mel iyat
ĠtÃ¼r den
ĠÃ¶nem s
y em
Ä±y aka
ĠEr en
Ġdur ul
ĠY em
Ġok ut
ĠOp tion
Ġbulun duklarÄ±
Ġkazan c
ĠAn ti
Ġplan larÄ±
Ä±nÄ±z daki
Ġh Ä±rs
Ġolumsuz luk
Ġyeten eÄŁi
Ġt Ã¼zel
mar is
k ir
Ġbak anlÄ±k
ĠpeÅŁ in
Ġkoy an
at il
ĠÃ¶zgÃ¼r lÃ¼ÄŁÃ¼
ĠY ozgat
f te
Ġokum aya
200 5
ĠK lasik
Ġ lar
lam asÄ±na
Ġkal dÄ±k
dev let
kar ahisar
Ġvideo larÄ±
ĠtÃ¼rk iye
Ġneden lerle
Ġkar e
Ġ6 6
ĠsÄ±kÄ±nt Ä±sÄ±
Ġf ren
Ġo v
ĠArt vin
Ġbek ler
ĠĠ Ġ
Y ok
Ġy ukar
at al
ĠAs keri
Ġbul muÅŁ
ĠA LI
Bel ediye
ĠKul Ã¼p
ĠÄ°Ã§ inde
lin k
Ġprogram da
S es
ĠaÄŁ acÄ±
ĠEv den
ent o
ĠU marÄ±m
ĠgeÃ§ tiÄŁini
ĠSin op
Ġmer ham
Ġyer lerden
F ETÃĸ
ĠDev amÄ±
ĠsÃ¼r Ã¼mÃ¼
Ã§ elik
ĠÄ° K
ĠKen an
ĠdÃ¼ÅŁ mesi
Ġbelirlen miÅŁtir
ĠÅŀirket i
Ġkonu daki
ĠBel li
ĠgÃ¶z yaÅŁ
b az
ĠKit abÄ±
ERK EZ
ĠuÄŁr una
Ġtes isi
Ġmuh akkak
Ġbilg isay
ĠgÃ¶rev den
ĠteÅŁ eb
ĠTedav i
± dÄ±r
ĠA kif
Ä ±dÄ±r
ĠF uar
Ġpolitik alarÄ±
ĠyapÄ± lar
Ġkarakter i
ĠÃĸn der
Ġfer ah
ĠGenÃ§ ler
Ġsemin er
Ġdar al
s iyle
ĠilÃ§ ede
Ġtekn iÄŁi
Ġzaman ki
SY M
m ark
ĠbaÅŁkan larÄ±
ĠÅŁeh re
Ġpotansiy eli
Ġengel ler
ĠKal iteli
R ek
T ag
iyor sa
Ġversiyon u
ko Ã§
ĠseÃ§im lerinde
Ġleh ine
Ġat Ä±yor
ĠÃ§ocuk luk
len mesine
Ġc uma
tÃ¼ d
c asÄ±
l ediÄŁ
ĠbileÅŁ en
al Ä±n
yap Ä
yapÄ ±
ĠulaÅŁ Ä±l
Ġkab ar
Ġkom bi
Ġfazlad Ä±r
G iz
ĠD om
Ġar Ä
ĠdeÄŁiÅŁiklik leri
ĠD UR
ĠboÅŁ a
ĠarÄ ±
ĠÅŀim ÅŁek
Ġdav anÄ±n
Ġvak t
ĠgÃ¶ster miÅŁ
ĠOk tay
ĠÅŀ am
ĠdÃ¼z eyi
ĠM Ã¼s
ĠsonuÃ§ ta
G UL
de di
ĠAr ÅŁiv
Ġkal madan
ĠÃ¶ÄŁr enin
ĠP Ä±nar
Ġsoru lara
F utbol
IN IN
Ġ199 8
F il
ĠyÃ¼k lem
ti dar
Ġp oÅŁ
Ġo z
ĠA mir
Ġin stagram
ĠG EÃĩ
Ġbelir ley
an mÄ±ÅŁ
Ġis lam
Ġil i
os istem
Ġlig de
Ġbaz lÄ±
Ġkullan Ä±rken
ĠL td
ĠKaf kas
Ġed ersiniz
Ġaday larÄ±n
ĠsÃ¼t Ã¼
Ġyetkil iler
ĠYar Ä±m
ĠK ans
Ġnih ai
dÄ±r an
Ġteb liÄŁ
Ġkar g
Ġlisans lÄ±
Ġes en
Ġdayan Ä±ÅŁma
ĠsÃ¶y lenen
ĠGÃ¼Ã§ lÃ¼
Ġhayvan lar
ĠpaylaÅŁ Ä±mÄ±
ĠÃ¶ÄŁren ebilirsiniz
Ġn iÃ§in
Ġhizmet ine
ĠC ur
Ġm eme
ĠH ekim
Ġsit elerine
ĠA C
eÅŁ im
Ġzar arÄ±
ĠbaÅŁ larÄ±nda
ĠZ eki
ta ur
ĠSonuÃ§ ta
ĠÃ§ar esiz
Ġ9 00
eter iner
Ġik il
Ġj andarma
Ġver diÄŁiniz
Ġiler iye
Ġtakip Ã§i
Tekn oloji
Ġden eyin
Ġyan Ä±ndan
O cak
ĠÃ¶n cel
amaz lar
Ġsen esinde
Ġbul up
Ġc ir
Ġdikkat le
Ġas tr
Ġotel leri
ĠGÃ¶rÃ¼n tÃ¼
y azÄ±
ĠvatandaÅŁ larÄ±
ĠR is
Ġt adÄ±
ĠÃ§ocuk larda
ladÄ±ÄŁ Ä±m
len ecek
Ġdeng eli
k es
DoÄŁ ru
eliÄŁ in
ĠH oc
ĠDemir el
Ġtut tu
AL ARI
Ġhareket le
ĠdeÄŁer inde
Ġgel ebilecek
ĠsÄ±r f
ĠE M
Ġses lendir
ĠsÃ¼r eleri
Ġanlat Ä±r
ĠH el
ÃľN YA
lan maya
omo tiv
Ġkal Ä±ntÄ±
TÃ¼rk Ã§e
ĠgÃ¶ster miÅŁtir
Ġpar it
Ġver eceÄŁiz
S Ä±n
ĠS eri
Post ed
ĠAd ayÄ±
og a
ĠâĢ ĭ
A lan
In stagram
Ġgeliyor du
abilm eleri
c ik
Ġolan a
ĠtÃ¼c c
ĠsÃ¶yl edim
Ġnitelik te
Ãľn lÃ¼
Ġtesis at
Ġincel emek
Ġkal mayÄ±
Ġhat alar
Ġtey it
Ġgem isi
leÅŁ mesi
ĠÃ§Ã¶zÃ¼m e
Ġirti b
Ġy Ã¼ce
Ġal Ä±nÄ±p
ĠÃ¶zellik lerine
ĠeÄŁlen c
Ġp ast
ĠsoÄŁ ut
Ġdiy elim
ĠaÃ§Ä±k lay
Ġm Ä±sÄ±r
iÅŁ imi
ĠH int
Ġhukuk a
P ara
ez z
ĠÅŁirket inin
Ġp ist
Ġseviy esini
od y
ĠoluÅŁ tu
ĠÄ°z le
ĠBur saspor
Ġhesab Ä±nÄ±
ebilir sin
Ġ ur
\ '
Ġsokak ta
ĠÅŁey tan
Ġ Ä±z
Ġdevam Ä±nda
Ġyer lerinde
ĠFinans al
ĠTek lif
ĠkatÄ±l acak
ĠY Ã¼cel
Ġotom o
Ġsu da
Ġbenz in
lendir ici
diÄŁ in
ĠHep si
ĠOtel leri
ĠP etrol
iy en
Ġder gi
ĠkuruluÅŁ lar
ĠsÃ¼r at
Ġokul larda
k ab
Ã§ ay
Ġbir de
ad o
AN LAR
ĠDo larÄ±
Ġalan larÄ±n
ĠMer t
Ġgiy s
j an
Ġhat asÄ±
ĠdÃ¼ÅŁtÃ¼ ÄŁÃ¼
ĠAkadem isi
Mil let
ĠTan r
at Ä±cÄ±
Ġtah mini
ĠÃ§Ä±kar Ä±lmasÄ±
an ik
k itap
ĠÃ§ek ip
ĠKab ul
Ġkoy up
ĠÃ§alÄ±ÅŁ tÄ±k
T EK
cel ona
ĠÅŁ ur
av an
Ġt encer
ĠgÃ¼c Ã¼ne
ĠY oÄŁun
hab alar
Ġpersonel in
ĠendÃ¼str iyel
Trabz onspor
ĠList esi
Ġm eb
has sa
Ãĩ an
Ã¶r ler
ĠKÄ±zÄ±l ay
ĠEr kan
uz el
ĠyÄ±l Ä±nÄ±
Ġdiz inin
Ġteh di
Ġn ice
ÅŁ ir
Ġhey eti
ce des
Ġtut uyor
Ġyar a
ada ÄŁ
ĠYÃ¼z yÄ±l
Ġpar lament
ez erv
Ġedeb iliyor
ĠKim dir
Ġyaz maya
ĠS ub
Ġpo li
UN U
g s
| -
Ġ6 1
ĠÃ§Ä±l gÄ±n
Ġgel medi
Kam u
Ġhar Ã§
ĠKar tÄ±
Ġadres e
Ã¼p hane
w a
ĠÃĸnc eki
Ġpiyas anÄ±n
ĠyapÄ±l abilecek
ic inin
Åŀ ehir
eceÄŁ inizi
ekk e
ĠSekret er
ĠOt obÃ¼s
Ġhus usunda
Ġat mÄ±ÅŁ
Ġyol la
ĠÃ§ek iÅŁ
ĠÃ§iz en
Ġpiyas asÄ±nÄ±n
Ġbulun muÅŁtur
ĠAn laÅŁ
lan mak
ĠAÄŁ a
eg a
Ġgiz lilik
Ġkes tir
ĠfÄ±rsat lar
Ġar adan
ĠÄ° ster
ĠaÄŁÄ±r lÄ±ÄŁÄ±
Ġdin ley
ĠtaÅŁÄ±n maz
ĠÄ° c
Ġoynan acak
Ġkullan abilir
ĠZ ek
ĠU ÅŁak
ĠÅŁaÅŁÄ±r tÄ±cÄ±
alar daki
Ġmed yum
ĠMÃ¼slÃ¼m anlar
ĠA la
Ġm art
Y atÄ±rÄ±m
Ġsor ulan
Ġtr ib
ĠSer best
Ġkir li
ĠÃ§alÄ±ÅŁan larÄ±nÄ±n
ĠdÃ¶n Ã¼yor
ĠL ok
ĠyaÅŁ Ä
ĠyaÅŁÄ ±
here um
Ġak Ä±n
Ġab i
Ġdol ay
Ġyetenek li
ad min
Ġhep sinin
lam adan
Ġsar Ä±m
Sev gili
Ġdestek lemek
alÄ± p
ĠC D
Ġokul lar
ĠgÃ¼z ergah
ĠMes ut
ĠÅŁiddet le
A ile
Ġc al
Ġbilgiler inizi
Ġkat ma
Ġzorun luluÄŁu
à ¸
ĠÄ°h san
r anÄ±n
Ġalan lara
l Ä±lÄ±ÄŁÄ±nÄ±
Ġotomo tiv
Ġkadro su
Ġr it
SP OR
ĠmÃ¼z iÄŁi
ĠL og
ĠgeÃ§ meden
Ġpar m
ilm eden
ĠsÃ¼reÃ§ leri
ĠY OK
ĠseÃ§im lerde
ĠgÃ¶r mesi
ĠBilg ileri
Ġedin mek
ĠiliÅŁk ilerin
Ġmiktar Ä±nÄ±
c alÄ±
ĠV odafone
ĠSin ema
ĠBakan lar
Ġimkan larÄ±
p eri
ans a
ĠP DF
Ġmet ot
ev e
Ġoyun unu
Ġmu v
edd Ã¼t
ĠNih at
Ġsak lÄ±
Ġbelir leyen
Ġyet kisi
Ġhizmet in
Ġan iden
ĠMag azin
Ġsorumlu dur
ĠS ipariÅŁ
Ġaf et
ĠS ec
Ġrad ikal
AN A
ĠbaÅŁlat tÄ±ÄŁÄ±
ĠH AL
ĠbÃ¼yÃ¼k lÃ¼ÄŁÃ¼
ĠSeÃ§ enek
Ġar Ä±ndÄ±r
ĠÃĩeÅŁit li
ĠÃ§Ä±kar Ä±l
Ġbul duÄŁu
ĠbÃ¶lÃ¼m Ã¼nden
Ġboy n
ĠgÃ¶rÃ¼ÅŁ Ã¼
Ġkanal larÄ±
as ebe
c ay
ĠÃĩel ebi
ĠAl tÄ±
t emiz
Ġetmek ten
ĠÃĩaÄŁ rÄ±
ĠÃ¶dem eler
k oÅŁ
op i
ĠeÄŁitim ler
ro jen
ĠÃľ N
ĠM ete
Ġpro grama
onav ir
ĠFran k
ĠKUL LAN
Ġkol on
Ġpat lama
Ġver miÅŁti
F atih
Ġhedef leri
ĠÃ¶n Ã¼nÃ¼
ĠAl Ä±m
ĠP akistan
maz sa
Ġed ine
Ä±z Ä±n
Ġu cu
Ġkitap ta
n o
ĠG o
Ġel le
ĠaldÄ± lar
ĠmÃ¼ÅŁteriler imize
Ġinsan lÄ±ÄŁÄ±n
Ġfaaliyet ler
Ġedilm ez
ĠgÃ¶ster mesi
ĠK Ã¼l
Ġser vet
Ġakl Ä±na
II I
Ġin anan
Ġbilet leri
ÅŁ ar
os man
Ġkahv alt
Ġfil an
Ġhast asÄ±
Ġel indeki
es iniz
may acaÄŁÄ±
ĠOn larÄ±
ĠeÄŁitim ini
ed din
ĠSer t
ĠkonuÅŁ masÄ±nÄ±
Ġvaz if
H DP
ĠBil ecik
Ġy i
klar eli
ĠanÄ±m sat
ĠeleÅŁtir i
Ġm iz
ĠMen deres
ĠS oÄŁuk
ĠhÄ±r sÄ±zlÄ±k
Ġrisk leri
m alÄ±k
Ġ199 7
Ġmesaj lar
Ġhav aya
st en
et tÃ¼r
Ġkay dÄ±r
ĠR ep
ĠbÄ±rak arak
Ġbah sede
en Ã§
Ġ3 50
ĠtaÅŁ Ä±t
n ur
ĠT eh
ĠÃ¶ner iriz
ĠÃĸÄŁrenc iler
ĠAk saray
our nal
ĠFa aliyet
Ġruh u
tan e
un lu
ĠAL T
ĠRob ert
Ġar sa
ĠS ir
an z
9 1
ĠÄ°liÅŁ kin
ĠH or
ĠHukuk u
Ġf laÅŁ
Ġbiy olojik
tik et
Ġot uz
Han gi
ĠseÃ§ ilmiÅŁ
ĠI N
ĠcoÄŁraf i
ĠiÅŁ yeri
Ġyemek leri
iz ler
ĠĠĠĠĠĠĠĠ ĠĠĠĠĠĠĠĠ
ĠolduÄŁ unca
Ġkoruy an
ĠEr ken
ĠniteliÄŁ inde
Ġengel lem
Ġeh liyet
G eri
ĠÄ°s met
ĠÃ¶de mesi
Ġ }
f red
Ġpro f
b le
ĠÃ¼ret tiÄŁi
ĠL it
Ġters i
ĠÃ§ Ä±plak
ĠÃ§ikol ata
ay iÅŁ
ĠkÄ±z Ä±l
ï¿½ ï¿½
abil eceÄŁimiz
Yak laÅŁÄ±k
S tr
I A
ĠU s
ĠP uan
Ġrul et
Ġp iyan
Ġb ilerek
Ġtamam lanmasÄ±
ĠKay n
Ġetk ilerini
ya da
anÄ±z Ä±n
b oy
Ġtasar lanan
edir gin
Ġf aÅŁ
Ġkoc aman
ĠB ro
eÄŁ li
Kar ÅŁ
ĠkaÃ§ an
lan Ä±p
abol iz
ĠP R
D ÃľR
ĠD ede
ĠmaÃ§ larÄ±
Ġindir imli
ĠBen zer
Ġsandal y
Ã¢ d
ĠÃĩev r
Ġtep kiler
Ġyarg Ä±l
Ġmu azzam
ĠÄ° H
ĠBas kÄ±
ro und
Ġpan ik
Ġuzman larÄ±
ak ta
ĠsÃ¶yl ediler
ĠuÄŁr at
Ġkoy arak
Ġkut usu
ĠkÃ¶y Ã¼nde
an am
Ġb Ã¼k
ti j
ĠJ ames
ĠteÅŁ h
ez ik
os una
Ġtem eli
Ä°l gili
ĠaraÅŁtÄ±r maya
YaÅŁ am
Ġiddi asÄ±
ĠE lif
il de
Ġiz ah
Ġkoy uyor
ĠF it
GÃ¼n eÅŁ
ĠÃĩev rim
ĠgerÃ§ekleÅŁ ir
Ä±c Ä±nÄ±n
p g
g Ä±cÄ±
h af
Ġhay ali
Ã® m
ĠgÃ¶z lÃ¼k
ĠÅŀ Ã¼ph
fer ansÄ±
M em
Ġdam g
Ġs kan
Ġb ron
Ġhip er
ĠYAP IL
ĠG Ä°R
Ġiz ler
ĠDen et
ĠaÅŁ ama
Ġaral Ä±ÄŁÄ±nda
tÄ±ÄŁ Ä±nÄ±zda
Ġver ebilirsiniz
Ġsos y
Ġbulun abilir
Ġortam larda
Ġver eceÄŁi
Ġmark anÄ±n
D ep
ĠÃ¼retim inde
Ġderec eye
ĠAr navut
ĠiP ad
hid rat
Kon uÅŁ
H ABER
ĠboÅŁ anma
Ġmal um
Ġs i
ĠeÄŁitim leri
il asyon
Ġmod Ã¼l
ĠTÃ¼rk lerin
Ġil ki
esi h
ĠD EM
ĠAlan Ä
ĠAlanÄ ±
Ġ6 2
Ġtak Ä
ĠtakÄ ±
B an
or s
ĠsÄ±r alarda
ĠÄ±ÅŁ Ä±l
Top lum
alan an
ĠR ol
ĠUz ay
Ġd inin
Ġyap acaÄŁÄ±nÄ±
ĠR ot
ĠyaptÄ±ÄŁ Ä±mda
ĠiÅŁlem in
± h
Ġek ranÄ±
as tr
Ġokuy un
ĠsaÄŁlay abilir
Ġla ik
Ġyap malarÄ±
ĠgÃ¶r Ã¼leb
Ġkayb ede
Ġp azarÄ±
Ġp embe
el la
ĠsÃ¼r eyle
k ah
Dem ir
ĠyapÄ±l masÄ±na
ĠsaÄŁ lama
ĠÅŁik Ã¢yet
ĠkadÄ±n larÄ±
av er
M ac
ĠN am
Ġhav alandÄ±r
D Ã¶n
ĠN ok
Sor u
ĠsaÄŁlan maktadÄ±r
ag ue
Ä ±h
il le
olog y
Ġtoplant Ä±ya
Ġyarat tÄ±
Ġgel mesini
Ġvaz iyet
ĠR ic
ĠMah keme
Ġsinyal leri
Ġkap lÄ±
ĠHakk ari
ĠEfend imiz
Ġsuy unu
m adde
Ġkalit ede
ĠGÃ¶r e
ĠtartÄ±ÅŁ malar
Ä° sim
ect ed
Ġder im
Ġpiyas alarÄ±nda
alar Ä±nÄ±zÄ±
ary ak
ĠReh ber
Ġf rekans
ĠkÄ±r k
ĠgeÃ§ ebilirsiniz
ĠDeÄŁ iÅŁtir
ĠD ili
diÄŁ inden
MAD DE
Ġist in
ĠÃ§evr eye
ĠC OVID
Ġprogram Ä±nÄ±
k esi
Ġderin lik
Ġ7 7
B undan
Ġyar atÄ±r
ĠM AD
av ar
ĠiÃ§erik leri
Ġiz i
V EN
ĠO ran
ĠbÃ¶lg esindeki
ak Ã¢r
Ġmuhaf az
Ġeksik lik
Ġseviy esinin
ĠW illiam
Ġed erseniz
Ġal em
Ġkims eyi
mÄ±ÅŁ tÄ±m
Ġbank alarÄ±n
ĠiÅŁlet melerin
ĠÃ¶z lem
ĠMic hael
Ġid am
Ġet ek
ĠÅŁ ube
Ġp adiÅŁah
Ġsam im
Ġuyar Ä±sÄ±
ĠDeÄŁ il
Ä±k lar
eniz in
ef f
Ġparam etr
Ġz anlÄ±
Ġuz laÅŁ
ikat Ã¼r
Ġkes me
Ġsorum lusu
ĠI Q
ĠgÃ¶rÃ¼l mesi
ĠKat ar
ĠÃ§ev iri
ĠL ider
Ġsen etleri
Trabz on
Ġdevrim ci
ĠmaÄŁdur iyet
Y O
Ġm alÄ±
har e
ĠyakÄ±n Ä±nda
Ġhedef leyen
Ġdir eksiyon
ĠÃ§ev resel
Ġr i
ĠyapÄ± da
ĠdÃ¼ÅŁÃ¼n m
Ġbilg inin
Ġs olu
Ġproj eye
Ġoyun larÄ±nÄ±
Ġs eg
ĠÃ¼y elerin
Ġl ot
Ġkal ori
Ġz Ä±rh
ĠfÄ±r lat
ost ing
ain t
uy ucu
Ġlez z
Ġsah asÄ±
ĠS AT
Ä±m lÄ±
ĠgÃ¶ster meye
ĠbaÅŁlat Ä±ldÄ±
et tin
ĠB ut
Ä±r Ä±z
Ġkal mÄ±ÅŁtÄ±r
ĠZ el
Ġkart larÄ±
ĠsektÃ¶r Ã¼ne
Ġbilm eniz
ĠBur adaki
Ġfutbolcu larÄ±
p i
Ġbel lek
Ġen g
T amam
dÄ±k Ã§a
ĠÃ¶ÄŁren dim
ĠsaldÄ±r Ä±ya
Ġyapmak tan
ĠmÃ¼hendis lik
B y
ĠgÃ¼n Ã¼ne
Ġhak ik
ĠÄ° S
ĠIn ternational
ĠV ir
Ġmak ar
Ġhedef liyor
Ã¼k sel
Ġp ank
ĠbaÅŁ bakan
ĠÂ ©
Ġat am
Ġinan Ä±yoruz
c istan
Ġkol u
ĠP e
Ġf l
ĠseÃ§ erek
m adÄ±r
Ġgiy en
S Ä°Z
Ġirti bat
ĠdÃ¶n mek
Ġoyn adÄ±
Ġp encere
Ġhava alan
ĠJ on
Ġdiy ecek
Ġf an
ĠsavaÅŁ a
ĠÃ¶ÄŁret meni
ĠP ak
Ġw h
Ġyenil eme
Ġetkilen en
Ġmahkem eye
ĠWord Press
ĠÃ¶zel liÄŁine
ĠZ ey
Ġ Î
An ne
em eler
Ġpar sel
Ã§ek mece
ĠO D
Ġhizmet lerinin
Ġsevin irim
ĠbÃ¶lÃ¼m leri
ĠYazÄ± cÄ±
ĠkazanÃ§ lar
Ã¼f us
ĠyakÄ±n larÄ±
ĠY OL
Ġoldu g
Ġerkek lerin
ĠsektÃ¶r e
Ġcev iz
ĠDeÄŁer lendirme
ĠO per
Ã¼ v
Ġfikir leri
Ġko Ã§
Ġam atÃ¶r
Ġo mur
Ġst art
Ġs adÄ±k
et ooth
ĠÃ¢ lem
ĠkayÄ±t larÄ±
M ag
Ġnik ah
Ġyor ul
Ġzeytiny aÄŁÄ±
S il
Ġif tir
Ġdam la
Ġol abildiÄŁince
ĠC er
Ġis kel
ĠYÃĸN ET
ĠG AZ
ĠOd alarÄ±
ar s
Ġihan et
O Åŀ
ĠgÃ¶rÃ¼n Ã¼mÃ¼
ĠdeÄŁerlendir en
ĠM ES
Ġsub ay
G er
ĠÃĸn Ã¼mÃ¼zdeki
veren gi
ĠtarayÄ± cÄ±ya
iy se
Ġgalib a
eÃ§ h
Ġzinc iri
Ġn evi
Ġaf f
Ġmin net
or oloji
os it
Ġseviy eleri
tÃ¼d yo
Ġkim ler
g Ã¢h
Ġap artman
Ä±m Ä±nÄ±
d Ã¼ÅŁ
Ġtac iz
ĠAnal izi
Ä±l acaÄŁÄ±
ĠAr aba
Ġkur arak
k adir
ĠD NA
ĠAl l
diÄŁ inizde
r ey
ĠsÄ±nÄ±r landÄ±r
Ġbak tÄ±m
Ġser p
day Ä±m
Ġsavun an
D ijital
Ġyapmak ta
ĠH AS
Ġekran da
ĠOtom atik
Ġel veriÅŁ
ĠT ech
miÅŁ tim
ĠH ES
Ġsistem lerinin
Ġev rim
N o
ĠgÃ¶rev ine
ĠKam er
om as
Ġoyn ar
Ġfor masyon
Ġmaliyet li
Ġbir ileri
ĠulaÅŁ Ä±n
l ileri
ĠDÃ¶n emi
ĠanlaÅŁ masÄ±
Ġar ayÄ±n
ĠR Ã¼yada
ĠG roup
ĠÃ¼lk edeki
ĠTeÅŁkil atÄ±
ĠbaÅŁvuru larÄ±
ilm i
ĠM erk
ĠI V
P U
Ġistiyor sunuz
ĠKend isi
ĠMes leki
ĠbaÅŁk alarÄ±nÄ±n
Ġdo larÄ±n
Ġtop luluÄŁ
Ø ¨
Ġ199 5
iÅŁ kin
ĠM uÅŁ
Ġkamer alÄ±
Ġuygulan abilir
ĠLir asÄ±
ĠKÃ¶pr Ã¼sÃ¼
Ġhik met
raf t
C H
Ġ7 6
ĠyalÄ± tÄ±m
ĠSer ver
Ġk asa
ĠDev r
Ġolay da
Ġiktid ara
Ġfaaliyet lerine
y s
Ġyap Ä±sÄ±na
Ġsefer ber
pek tif
Ġal maz
Ġbayan lar
ing s
ĠÃĸdÃ¼l leri
Ġilg il
ĠoluÅŁtur du
Ġp antolon
ĠEt hereum
ĠkullanÄ±m Ä±nÄ±n
Ġdurum unun
ĠulaÅŁ mÄ±ÅŁ
Ġkan lÄ±
ur i
Ġkaybet tiÄŁi
Ġelekt r
ĠgÃ¶rÃ¼ÅŁ lerini
ot ek
Ġproj ede
Ġedilir ken
ĠVat an
Ġsig ar
t le
Ġsalg Ä±nÄ±n
ĠOrgan ize
c inin
ĠHas ta
Ġroman tik
Ġfiyat Ä±nÄ±
Y anÄ±tla
V at
ĠdÃ¶n g
ĠsaÄŁlam aya
tÄ± p
ĠTEK N
Ġek ley
O ÄŁ
Ġunutul maz
ĠfarklÄ±lÄ±k lar
rop ol
Ġkap Ä±yÄ±
Ġzih in
ĠÃĸz bek
Ġkalk Ä±nma
Ġteor ik
ĠB y
Ġek sen
f o
Ġkim e
ĠOl uÅŁtur
ĠOk um
ĠgÃ¶rdÃ¼ÄŁ Ã¼m
ĠdÃ¶nem lerinde
ĠkullanÄ±cÄ± larÄ±nÄ±n
ĠsÃ¶z lÃ¼k
ĠM S
Ġcihaz Ä±n
lem esine
ĠB AY
ĠÃ§or ba
M en
ĠDemokr asi
ĠgÃ¼r Ã¼lt
Ġproblem ler
Ġkullan manÄ±z
Ġazal tÄ±r
Ġod asÄ±na
am adÄ±k
Ġder di
P aylaÅŁ
ĠÃ¶zel leÅŁtir
Ġel ma
Ġkoy ul
ĠÄ°d daa
ĠÃĩ al
ĠyÃ¶ntem lerle
ĠK aÄŁÄ±t
ĠTemiz lik
n n
Ã¼y Ã¼ÅŁ
Ã¼ fer
Ġsor mak
har d
G A
ili v
Ġaz Ä±n
Ġobj ektif
Ġkat Ä±na
ĠS ul
ĠÃ§oÄŁ alt
Ġsit elerin
ĠSon unda
Ġkab uk
ĠÃ¶lÃ§ ekli
eti ce
ĠOf is
ĠF re
Ġot or
Ä°Åŀ Ä°M
ĠseÃ§im ler
Ġkayd Ä±yla
ĠDÃ¼ÅŁ Ã¼k
mas Ä±z
ĠVad isi
Ġyaralan an
ĠDeniz i
Ġf e
KÄ±s a
200 4
Ġsit elerinden
ĠkonuÅŁ malar
M AS
Ġetm esine
ĠS om
d ine
l ov
Ġpar asÄ±nÄ±
B log
mak am
Ġ7 8
ĠBaÅŁ langÄ±Ã§
ĠÃ§alÄ±ÅŁ anÄ±
Ġadam lar
ĠsÄ±cak lÄ±ÄŁÄ±
ĠMis afir
Ġisteyen lerin
lam asÄ±nÄ±
im arka
ĠO N
Ġeylem i
ĠN a
ĠsÄ±k Ä±ntÄ±lÄ±
os unun
Ġolun ur
l Ä±y
ĠEb Ã»
Ġgru ba
ĠEk le
ĠSov yet
Ġfutbolcu lar
Ġklas Ã¶r
in s
ĠsÃ¼r Ã¼len
ĠM ERKEZ
Ġs ih
Ġp ot
Ġsun maya
Ġst op
Ġiler leme
t es
Ġpay daÅŁ
ĠS eni
Ġuzak lÄ±k
Ġbonus larÄ±
Ġef endim
ĠolduÄŁ umu
Ä°Z MET
taur ant
ĠO c
Ġprogram Ä±n
Ä°Y AT
Ġt edirgin
Ġad Ä±ndan
Ġf ull
Ġoyn ama
d elen
Ġbenz iyor
Ġkamu oyu
ĠÃĸZ EL
ĠkarÄ±ÅŁ Ä±mÄ±
Ġkal bi
ĠTop lu
ĠaÅŁ Ä±l
Ġkr it
D O
Ġyap Ä±t
Ġyay Ä±lan
Ġres imleri
Ġiht il
Ġtelefon lar
ĠpÃ¼r Ã¼z
l iyesi
ĠÄ°dar e
k r
ĠBÃľY ÃľK
all y
Ġalmak ta
Ġifad eler
Ġi bar
B ebek
ĠM elek
Ġetm edi
Ġtat ili
ĠÄ±s lak
Ġbulun muyor
ĠgerÃ§ekleÅŁ mesi
Ġd eli
ĠTrans fer
Ġ19 60
emiz deki
uv al
Ġhayvan larÄ±n
ĠÅŁark Ä±cÄ±
ĠK OBÄ°
Ġg ri
Ġter ey
Ġkur su
D on
ĠC N
Ä° m
ladÄ± lar
Ġtercih i
s uru
Ä°Y AS
ĠS iirt
Ġtasar lanmÄ±ÅŁtÄ±r
Ġ199 6
Ġc aiz
Ġbiliyor sunuz
ab inde
ĠgÃ¼c Ã¼nÃ¼n
ĠkonuÅŁ tuk
Ġtan Ä±mÄ±
ĠÃ¶y l
Es kiÅŁehir
Ġl ak
Ġdevlet e
Ã Ĺ
ĠPar lament
D OÄŀ
Ġpir inÃ§
Ġor ant
ĠV ur
an ak
Ġsalon unda
n ed
Ġrak ibi
B unlar
ĠdÃ¶nem inin
Ġtar ama
ĠmÃ¼j de
Ġter eddÃ¼t
Ã¼y dÃ¼
eh an
SÄ° AD
ĠEr iÅŁim
Ġistik amet
ĠtÃ¼rÃ¼ dÃ¼r
C B
ub le
ik li
j antin
Ġko operatif
azÄ±r da
ĠsaÄŁlam Ä±ÅŁ
ĠMu has
j ack
ladÄ±k larÄ±nÄ±
ĠseÃ§en eÄŁini
Ġkorum aya
it leri
ĠboÅŁ an
ĠyapÄ± larÄ±
ĠTek in
Ġtak Ä±lan
ĠA masya
emey iz
Ġplan lÄ±yor
ĠM ol
ek in
L is
ĠR AM
ĠDon ald
LÄ° ÄŀÄ°
ĠsonuÃ§ larÄ±na
ĠgÃ¼l dÃ¼r
mas a
Ġg un
l s
mal Ä±yÄ±m
ĠSiyas i
ĠB us
tur e
os unda
Ġres imler
d r
k est
Ġniyet li
ĠDemokr atik
Ġoluyor du
T B
Ġf ena
Ġ199 4
H izmet
T U
Ġal masÄ±nÄ±
lu lar
ĠolmadÄ±ÄŁ Ä±ndan
ĠgerÃ§ek lik
ĠTanÄ±t Ä±m
ĠgeÃ§ erken
ĠÅŁey dir
Ġekib imiz
as tÄ±r
ĠEn f
ĠkarÄ±ÅŁtÄ±r Ä±n
ĠgÃ¶revl ileri
ĠKÄ±r ÅŁehir
ĠHizmet i
Ãľlk emizde
ok sit
Ġkonu lara
ĠKorun masÄ±
Ġz er
Ġm iydi
S c
lan masÄ±nÄ±
Ġr utin
rag on
Ġver medi
Ġbenz eyen
Ä±nday Ä±z
Ġb iÅŁ
Ġs iv
Ġkullan dÄ±ÄŁÄ±nÄ±z
Ġyemek ler
b l
Ġzorun dayÄ±z
Ġail eleri
ĠcÃ¼ml eler
V ar
ĠgÃ¼r eÅŁ
Ġyar Ä±da
Ġbirbir leriyle
ĠsÃ¼r esinin
Ġsan atÄ±
Ġdiy ebilirim
ĠbÃ¼r Ã¼n
as u
ĠkonuÅŁ ulan
Ġtehlik eye
ĠaraÃ§ larÄ±nÄ±n
ĠÃ¼z Ã¼ntÃ¼
ĠyarÄ±ÅŁ ma
Ġp eki
ĠM asa
Ġkoz metik
Ġbelir ler
ĠS ing
ĠBaÅŁar Ä±lÄ±
ef a
ĠW al
ĠGÃ¼ney doÄŁu
BÃ¶l g
ĠÃ¼rÃ¼n lere
l edikleri
Ġyet in
s Ã¼nÃ¼z
m eme
Ġindir me
Ä±f Ä±r
ĠN eler
Ġyap m
ĠHat ip
ĠdÃ¼ÅŁÃ¼n dÃ¼
ĠAl per
ĠÄ°k tis
ĠMat ematik
ĠgÃ¼ndem de
ĠyaÅŁ ant
Ġi ta
ĠNet flix
ĠY anÄ±tla
leri dir
Ġdoy ur
ĠÃ§ar e
Ġsor ar
eb et
Deniz li
Ġlist esine
Ġokul un
Ġtasarruf u
Ġc ari
ĠyaklaÅŁ Ä±mÄ±
ĠÄ°st atistik
Ġinsan lardan
em emiÅŁ
ĠhatÄ±r lam
ĠsaÄŁ lÄ±ÄŁ
ĠÃ¶ÄŁ Ã¼n
ĠÅŀ em
ĠpaylaÅŁ tÄ±ÄŁÄ±
Ġon ayÄ±
Ã¢ f
ĠL ey
Ġettik ten
Ġmadd elerin
K ad
ĠGenel kurmay
ĠPiyas a
ĠÃ¶ngÃ¶r Ã¼len
ĠAkÅŁ ener
ĠKon ser
ĠÅŁ i
Ot om
c es
ĠUl us
ĠK os
az ara
Ġsul ama
Ġt elif
Ġiddi asÄ±yla
may Ä±nÄ±z
ĠiÅŁÃ§ inin
Ġkay ak
p on
Ã ¤
ĠÃ¶dÃ¼l lendir
oksi dan
ĠTeknoloj ileri
Ġterc Ã¼me
ad ok
ĠYan lÄ±ÅŁ
ĠN iÄŁde
it li
Ġkal eci
Ġf ol
ĠdÃ¼ÅŁÃ¼nc esi
Ġder ler
u j
B l
il dikten
Ġdevam Ä±nÄ±
ĠmÃ¼cadel enin
ĠH ele
Ev de
ĠB eÄŁen
Ġyap maz
ĠÅŁekil lerde
acaÄŁ Ä±mÄ±
ĠSÄ±nav Ä
ĠSÄ±navÄ ±
Ġd eyim
Ġhav ale
ĠSan ki
ĠEn deksi
Ġez ber
ĠpaylaÅŁ an
Ġkor ur
ĠB iden
Ġkon uma
Ġtalep lerini
ĠMÃ¼slÃ¼man larÄ±n
Ġak sam
Ġsahn eye
ĠyoÄŁun luÄŁu
ĠgÃ¼r Ã¼ltÃ¼
ilm eyen
Ġ19 70
ĠD ER
Ġproj esinin
ĠsÃ¼r esini
Ġikin cisi
Ġekip lerinin
ĠdÃ¼ÅŁÃ¼n dÃ¼k
g im
ĠyayÄ±n ladÄ±ÄŁÄ±
rom e
Ġproj eyi
ĠR obot
Ġan ahtarÄ±
c han
ad y
Kay seri
Ġuzman lÄ±k
ĠSan a
O tel
Ġister se
K ent
Ġalan Ä±nÄ±
Ġprogram Ä±nÄ±n
Ġay lar
LAM A
Ġver meyen
Ġner de
ĠEy Ã¼p
AL T
ĠB araj
Ġz af
Ġkamuoy una
Ġuy uy
ĠKur u
d alar
Ġkazan Ä±yor
lan masÄ±na
AH A
ĠyakÄ±n larÄ±nda
Bilg isayar
Ġpart iler
L C
ĠgÃ¶zÃ¼k Ã¼yor
ĠDÃ¶nÃ¼ÅŁ Ã¼m
Ġisten meyen
Ġtur istik
ĠB artÄ±n
Ġken arÄ±nda
ĠD H
ĠTat ar
Ġ qu
Ġtaraf Ä±na
ĠBur dur
ĠkapÄ± larÄ±nÄ±
ĠkiÅŁiler de
ĠtanÄ±n mÄ±ÅŁ
K uzey
Ġpuan la
Ġpat ent
Ġses len
S ig
Ġs is
ĠPol at
s eler
amay Ä±z
ĠgÃ¶r ecek
ĠKar aca
Ġgiy in
Ġbur ad
Ġvermek te
ĠVol kan
ĠkiÅŁiler den
Ġham le
ĠK imi
ĠP laj
ĠOl ur
Ġap tal
ĠA ta
Ġtut ulan
ĠÃ¼st esinden
ĠO zan
Ġin iÅŁ
ast ro
Y azÄ±
Ġbur cu
ĠÅŀ Ä±rnak
o om
Ð º
Ġiktidar Ä±n
Ġhaz in
Ġs Ä±y
G EL
ĠÄ°L K
ĠIn ternet
ĠkullanÄ±l mÄ±ÅŁ
G erek
ĠdeÄŁerlendir di
ĠEy lem
Ġedebil eceÄŁiniz
ĠedeceÄŁ im
ĠSin em
ĠÃ§alÄ±ÅŁ acaÄŁÄ±z
Ġfiyat larÄ±n
Ġameliyat Ä
ĠameliyatÄ ±
Ġfark l
aryak Ä±t
Ġyakal amak
ĠyaptÄ±r mak
Ġhak sÄ±zlÄ±k
ĠYÄ±l lÄ±k
ĠsÄ±r aya
ĠM eÅŁ
or du
ĠYazÄ± lar
en li
ĠÃ§am ur
eceÄŁ in
ĠPl astik
Ġdep ozit
Ġdilek Ã§
ester ol
Ġsev iyor
ĠV ah
ĠiÅŁlem ci
ĠTip i
Ġbur juv
ĠÃľs kÃ¼dar
Ġod asÄ±nda
Ġmut ab
Ġayr Ä±lmÄ±ÅŁ
ĠsaÄŁ layÄ±
Ġyan l
ĠEv lilik
ĠKÃ¶r fez
Ġbil iÅŁim
Ġkitab Ä±nda
ĠsÃ¼p Ã¼r
eÄŁ iniz
Ġkarar laÅŁtÄ±r
ET LER
oin t
ĠbÃ¼yÃ¼k lÃ¼ÄŁÃ¼nde
Ġsorun unu
10 1
Ġkat Ä±larak
Ã¼c Ã¼k
Ġbilm em
Ġpan dem
Ġkal kan
Ġson bahar
B eni
ĠtanÄ±y an
Ġotel ler
ĠÃĩalÄ±ÅŁ an
if er
Ġ13 0
ĠÃľ m
Ġzar if
Ġtak lit
ĠSh ow
ĠiÅŁ leyen
ĠgÃ¼n kÃ¼
ĠAk ademi
ĠgÃ¶ster ecek
Ä±y er
abil iyoruz
Ġoyn amaya
abÄ± ta
Ġyaz Ä±p
ĠY atÄ±r
ĠkazanÃ§ lÄ±
ĠY avaÅŁ
Ġhav aliman
Ġharc ama
BÄ°T AK
Ġhukuk u
Ġbekl ediÄŁi
S ize
Ġhesap lar
Ġm enkul
Ġrahat Ã§a
z Ä
i P
ĠDemokr at
ĠaÃ§ mÄ±ÅŁ
Ġk asÄ±
ĠtÃ¼cc arlar
L a
vis or
Ġp ers
Ġek osistem
ĠJ ul
Ġbit en
D ar
Ã§Ä± larÄ±
Ġtaraf sÄ±z
ĠH enÃ¼z
Ġtal ih
ĠKo operatif
ĠulaÅŁ masÄ±
ĠVÃ¼c ut
And roid
akk ab
Ġmer haba
Ġedil ip
Ġc iÄŁer
b un
ĠgenÃ§ lere
Ġek leyerek
ĠyÃ¼k Ã¼
Ġas ist
Ġman uel
st ur
lo ud
Ġev leri
iversit y
ĠÃ§alÄ±ÅŁ Ä±yorlar
B ek
ĠD ay
ĠÃ¶ÄŁ Ã¼t
Ġsit eyi
S Ä
ĠMakin esi
Ġirtib ata
ĠÃ¶ ksÃ¼r
ĠyÄ±l lara
K il
ĠH on
ĠÅŀ iddet
ĠkuÅŁk usuz
Ġyap Ä±sal
Ġs ipar
Ġheyec anÄ±
Top lam
og rafik
ĠS efer
il iÅŁ
ĠbaÅŁkan lÄ±ÄŁÄ±nda
Ġ8 8
ĠAn ahtar
E mek
ol uk
Ġgal ip
Ġkal or
M alatya
ĠÃ¶nc Ã¼lÃ¼ÄŁ
ĠaralÄ±k larla
ĠgÃ¶ steri
Ġsen ary
ĠiÃ§erik ler
Ġet menizi
ĠbÃ¶lÃ¼m Ã¼nÃ¼n
Ġan imasyon
il at
mÄ±z Ä±lÄ±
ĠbaÅŁar an
EK Ä°
Ey lÃ¼l
ĠAlt un
ĠC elal
c enter
ĠHar ry
Ġoda da
ĠiÅŁken ce
Ġ8 2
duÄŁ una
ĠKÃ¶ ÅŁ
Ġal abilmek
Ä°ST ANBUL
eÄŁ imiz
abil itasyon
ĠSay gÄ±
Ġazal ma
baÅŁkan lÄ±ÄŁÄ±
Ġzul Ã¼m
. -
Ġefsan e
Ġkullan abileceÄŁiniz
Ġsonuc una
E X
ĠD ah
ĠDÃ¼ÅŁ Ã¼n
ĠMik ro
ĠV el
ĠSon y
Ġbam baÅŁka
ĠS erkan
Ġh ile
s Ã¼r
Ġgrub unda
Ġ7 4
Ġyaz Ä±nÄ±n
ĠOn lara
ĠgÃ¶ster ebilir
Ġf al
Ã§ eli
Ġkend ilerinin
IM I
Ġf ant
ĠkuÅŁ ak
Ġhedef ler
Ġkon ulan
ĠÃĩ ap
Ġev ler
Ġol aya
Ġtan Ä±r
Ġs c
Ġotel de
ĠÃ§ok lu
Ġmerkez e
ĠA lÄ±
ĠyerleÅŁ ik
Ġmark alar
ĠbÄ±rak tÄ±ÄŁÄ±
ĠkatÄ±l Ä±mÄ±
Ġn eyin
Kr edi
ĠmÃ¼sa ade
J ap
ĠF inal
ĠÃ§Ä±kar Ä±ldÄ±
Ġat ak
ilm esiyle
H Ã¼kÃ¼m
ĠS lot
Ar alÄ±k
ÅŁ an
ĠKral lÄ±k
P at
H ava
Ġtan Ä±ma
Ġsayf asÄ±na
Ġsunul acak
EY E
ĠHis se
ĠAm aÃ§
unu p
ĠalÄ±n tÄ±
Ø ª
Tek nik
ĠÄ° leri
iy ana
ĠbaÄŁ layan
tÄ±ÄŁ Ä±na
uÅŁ ak
ĠÃ§arp tÄ±
ĠY eri
Ġetmek tir
ĠmaaÅŁ Ä
ĠmaaÅŁÄ ±
ĠL u
Ä°n ÅŁ
Ġbulun ul
ĠeÄŁit men
ĠG rafik
Ġnez dinde
ĠgÃ¼zel di
Ġmillet i
ĠH uawei
Ġyak alam
Ġver iyorum
Ġplatform da
ĠÃľrÃ¼n ler
Ġp lat
zÄ ±
Ġat Ä±p
ag o
ĠbÄ±rak Ä±ldÄ±
ac Ä±lÄ±ÄŁ
Ġv il
Ġc eket
Ġyar Ä±ÅŁÄ±
Ġbulun madÄ±ÄŁÄ±
Ä°Z M
ĠAr if
T av
KÄ± brÄ±s
Ġilgili dir
ch ester
ĠsÃ¶ylen ebilir
ĠMÃ¼ ft
Ġbilm ez
ĠS TK
ĠB edava
ĠG etir
Ġk uc
b istan
g ara
Ġkul Ã¼bÃ¼
Ġharit asÄ±
Ġkent te
ĠGe orge
Ã¼l eme
ĠmÃ¼ÅŁter ileri
Ġhac im
ĠgÃ¶r eceÄŁiz
ĠÃ§Ä±karÄ± p
ĠNor veÃ§
Ġolmak ta
ĠKole ji
Ġob ez
B oy
ĠEr can
emez siniz
K Ã¶y
Ġver ilebilir
Ġolm alÄ±sÄ±nÄ±z
Ġ6 9
Ġz ev
ĠR ektÃ¶rÃ¼
M ayÄ±s
ĠMah alle
Ġalan Ä±nÄ±n
macÄ± lar
YukarÄ± da
ĠKategor i
ĠgÃ¶rÃ¼ntÃ¼len di
liliÄŁ in
Ġces ur
G EN
ĠdÃ¼ÅŁ manÄ±
US U
Ġbeklent ileri
Ġvar lÄ±ÄŁÄ±n
ĠyatÄ±rÄ±m cÄ±nÄ±n
ĠKur su
Ġkurul acak
R I
ĠKÃ¼t Ã¼phan
Ġiktid arÄ±
ĠR ahat
ÄŁ dÄ±r
AL IK
Ġfaaliyet e
Ġ3 60
opar l
Ġayar larÄ±
Ġgir in
Ġgol Ã¼
Ġgelir ken
ĠB Ä°N
Ġsor dum
ĠyurtdÄ±ÅŁ Ä±nda
Ne w
ĠihtiyaÃ§ larÄ±na
ĠkiÅŁiler le
ĠBugÃ¼n e
Ġpolis in
Ġtop lamak
ĠÅŁ ak
G ar
ĠÃ§ ukur
ik ip
lÃ¼ÄŁ Ã¼nÃ¼n
day ken
Ãĩ E
ed an
K S
Ġkol larÄ±
Ġbil diÄŁimiz
Ġal arm
Ġdevr ed
am ayÄ±
ĠgÃ¶rÃ¼l mÃ¼ÅŁtÃ¼r
ros s
b ilim
ĠeriÅŁ imi
Ġede mey
Ä±m Ä±na
ĠBel irt
ĠMey dan
Ġpiyas alarÄ±
av ir
ĠÃĩÄ±k ar
Ġkork usu
Ġlider lik
N isan
Ġmad alya
ĠS w
ĠS ky
Ġun suru
Ġd eyince
ĠF I
re at
ĠYÃ¼z de
Ãĸn ce
Ġem zir
ĠmÃ¼t tefik
Ġekonom isine
D R
re am
ĠPop Ã¼ler
ĠhazÄ±r lanmasÄ±
y asÄ±
Ġtelefon un
Ġsezon da
ĠmÃ¼z e
Ã¶ mer
Ġsigort alÄ±
ĠfÄ±r tÄ±n
art ma
ĠGel iÅŁim
ĠgeliÅŁtir diÄŁi
ĠF ed
ĠKol larÄ±
Ġziyaret Ã§iler
ĠÃ§ok Ã§a
Ġed iniz
E f
ĠdavranÄ±ÅŁ larÄ±
ul us
Y aÄŁ
ĠiÃ§ ki
Ġkapsam Ä±na
Ġbulun acak
in ess
Ġgelir se
ĠKÃ¶ tÃ¼
Tar Ä±m
Ġ199 2
Ġ199 3
ĠgeliÅŁtir ilmiÅŁ
Ġc oin
Ġsay Ä±sal
Ġim ha
ĠCoÅŁ kun
Ġgir meden
Ġla v
Ġkor san
GeÃ§ miÅŁ
idd eti
ĠÃĸ calan
Ġad Ä±nÄ±n
Ġhareket ler
Ġkampany alarÄ±
Ġbulun duÄŁumuz
ĠyaklaÅŁ an
Ġo ut
Ä ł
Ġ9 8
ĠDev amÄ±nÄ±
ilmek te
Ġa id
ĠU sul
ĠHrist iyan
Ġk in
ĠarkadaÅŁ larÄ±mÄ±z
Ġm iyiz
Ġday at
Ġtak si
Ġk ud
Ġkend imize
Ġail elerin
c ilere
Siz in
j a
ĠKur s
S akarya
ĠiÃ§er mektedir
r asÄ±
Ä°H A
Ġart tÄ±ÄŁÄ±
ĠAk ses
Ġcep he
dak ilerden
ĠT AN
ĠÄ°n Ã¶nÃ¼
Ġyol larla
Ġil ah
Ãĩ ift
ĠYÃ¶netmel iÄŁi
z en
n ow
ĠM EB
ĠK Ã¼b
ĠbaÅŁvuru da
Ġp i
Ġkat led
Ġnef is
ĠÄ°ST ANBUL
B ize
Mic rosoft
Ġoran lar
en ni
Ġk alarak
Ġot orit
P op
Ġbur c
Ġalan daki
Ġkoy ar
Ġucuz a
Oy uncu
ĠuÃ§ aÄŁÄ±
ĠB ig
Ġtak tir
Ġver mem
Ä°L Ä°K
Ġkabil iyet
Ġkapsam Ä
ĠkapsamÄ ±
ĠgÃ¶z altÄ±
ĠbaÄŁÄ±m sÄ±zlÄ±k
ĠA cÄ±
ĠdaÄŁ Ä±lÄ±m
ĠaÅŁ Ä±sÄ±
Ġuzak ta
ĠDÃ¶v iz
ĠÃ§evr esi
ĠFik ir
eÄŁ im
Uz man
ĠtakÄ±m larÄ±
ĠM Ã¼ÅŁ
Ġay dan
sÄ±n lar
Ġev inin
ĠbÃ¶yl elikle
ĠÃ¶nc esine
ĠÅŁans lÄ±
V ali
ĠkarÅŁÄ±l Ä±ÄŁÄ±nÄ±
ĠÃ§ ayÄ±
ĠO SB
Ġkend im
Ġkarar Ä±na
Ġbal on
Ġiy isini
ĠY Ã¶r
am m
ĠÄ±sÄ±t ma
ĠHerk esin
ĠTak sim
ĠD eri
ĠâĢ Ŀ
Ġak lÄ±
anÄ±z da
Ġeklen t
ĠTrak ya
ĠÃ§alÄ±ÅŁ mÄ±ÅŁ
ĠC ad
Haz iran
k Ä±rÄ±m
ĠsÃ¼r ek
Kategor iler
ĠgerÃ§ek te
li dir
k m
ĠG ebze
Ek im
Ġm y
ist lerin
Ġvar y
ĠDayan Ä±ÅŁma
Ä°L ERÄ°
Ġkend isiyle
ĠÃ¶ÄŁrenc ilerinin
os h
ĠK AZ
Ġsor usunun
ĠM eksika
D oÄŁu
ĠN okt
Ġkurul umu
Ġhamil elik
................................ ................................
Ġmaliyet leri
edik al
Ġa g
ĠÅŁah s
Ġgetir meye
ĠÄ°ncel eme
Ġhay ret
ĠAl b
ĠtaÅŁÄ± dÄ±ÄŁÄ±
ĠP TT
ĠF Ä±rs
ak s
Ä Ĳ
Ġkur am
Kor onavirÃ¼s
Ãľcret siz
Ġsin dir
UL U
Ġdev asa
Ġkullan dÄ±ÄŁÄ±mÄ±z
ĠKullan Ä±mÄ±
Ġt etk
Ġistikrar lÄ±
AC I
Ġ Ä±lÄ±k
Ġpas ta
Ġz a
M on
ĠL ef
ĠÄ°ttifak Ä
ĠÄ°ttifakÄ ±
Ġs tu
ĠÅŁart Ä±yla
inter est
AN D
ĠÅŁ ov
ĠyÄ±ldÄ±z lÄ±
ĠbÃ¶lg eyi
ĠL Ã¼bnan
Åŀ anlÄ±urfa
ĠgÃ¼n Ã¼nÃ¼
ilendir me
ĠD izi
ĠayÄ±r an
Ġbul maya
Ãĩan akkale
iti on
Ġaral Ä±ÄŁÄ±
ĠyaygÄ±n laÅŁ
Ġpazar Ä±nda
1 50
Ġkaybet miÅŁ
ĠgeÃ§ im
Ġedilm ek
ĠÃ¶nem e
Ġzorunlu dur
Ġdiyor du
Ġtekrar dan
Ġyap mamÄ±z
ĠW il
Ä±k lÄ±ÄŁÄ±
ĠÃ§ub uk
dÄ±ÄŁ Ä±nÄ±zda
s s
= =
iter atÃ¼r
Ġr ok
Ġanlam aya
ĠDer in
Ġv ek
Ġhay kÄ±r
f ab
ĠEr c
Ġod alar
ĠC eb
ĠBit lis
± v
Ġmodel ini
Ġtamam lanan
ar lÄ±ÄŁÄ±
N Ä°N
ĠbÃ¼y Ã¼sÃ¼
al Ä±ydÄ±
Ġbeklen medik
ĠS et
Y AL
Ġuygulam alarÄ±n
ĠR on
ĠH en
ĠR am
Ġes in
ĠH atÄ±r
Ġbon uslar
Ä±l dÄ±m
ber t
ĠaÅŁk Ä
ĠtÃ¼rk Ã§e
ĠaÅŁkÄ ±
Ġalan larÄ±na
Ġy on
ant el
ĠU R
ĠÄ°ÅŁ ler
ĠSÃ¶z leÅŁme
ĠGÃ¼ven li
Ġark e
Ġd uman
ĠsaÄŁ lÄ±ÄŁÄ±na
ran Ã§
P KK
Ġsen edir
Ãĩ aÄŁ
ĠgÃ¼ven c
ĠBaÄŁ dat
ĠiÅŁ ver
ĠiÅŁlem inin
ĠY erli
Ġer gen
ĠDanÄ±ÅŁ man
Ã¼r i
ĠZir vesi
Ġduy uyoruz
Ġsen den
Ġb asÄ±
Ġiddi alarÄ±
ĠKal esi
ĠPort ekiz
Ġc ay
ĠamaÃ§ layan
Ġadr esinde
da j
h el
Ġhak larÄ±na
ĠÃ§Ä±kar Ä±n
Ġb ro
ledik ten
ĠT icari
ĠsoÄŁ utma
Ġ7 3
iÃ§ e
at egor
ĠyÃ¼z lÃ¼
ti Ã§i
M U
ĠdÃ¼zen ley
ĠH ediye
ĠhÃ¼c um
Ä° DE
Ġkil ogram
oter api
Ġav uÃ§
ven t
ĠteÅŁeb bÃ¼s
Ġolanak larÄ±
Ġtut tur
Ġel lerinde
Ġkonu larÄ±n
Ġkuy ruk
Kullan Ä±cÄ±
k k
may acaÄŁÄ±z
ĠM Ã¼t
DoÄŁ al
ĠgÃ¶rÃ¼ÅŁ leri
ĠDeÄŁer lendir
asyon larÄ±
Ġg azÄ±
Ġs o
ĠyÃ¶netim ine
Bel ki
ĠSiz ler
Ġsor usunu
Ġgit ar
Ġaleyh ine
Y emek
ĠkullanÄ±l dÄ±
Ġgerek ecek
ceÄŁ iz
len meye
Ġs ans
ĠYalnÄ±z ca
tr y
ĠH alÄ±
ĠoluÅŁ masÄ±
ĠÃ¼retim e
Ġn ur
ĠIn ter
ĠS EV
n az
Ġuygulam ada
ĠdaÄŁ Ä±n
ĠhastalÄ±k larÄ±n
Ġbun larla
b esi
ĠÃ§ap raz
ĠyÄ±p ran
F E
Ġolabilir ler
Ġhat alarÄ±
D e
ĠJ et
ĠmÃ¼n aseb
n esi
Ġgez dir
ĠDil ek
ĠTah min
ol an
ĠÄ° BB
ĠN ar
Ġfelsef e
Ä±m la
ĠdÄ±ÅŁar Ä±ya
ĠS ap
ĠgÃ¶rmez den
Ġkay dol
Ġmuh asebe
Ġdur mak
h il
Ġmon te
ĠBir i
ĠKim se
ear ch
Ã¢ ye
ĠsonuÃ§ lara
ĠdÃ¼ÅŁÃ¼nc elerini
ĠÃ¶dem eleri
ot u
ĠiÃ§er iyor
ĠyÃ¶netic iler
ĠEm ine
I rak
ĠiÅŁley iÅŁ
ĠEÄŁ len
Ġduy uyor
ĠsÃ¼r dÃ¼ÄŁÃ¼
ĠZ engin
ĠÃĩ iÄŁ
abil eceÄŁine
ĠseÃ§ kin
ĠT FF
ĠT SK
tr af
Ġlen s
ĠaralÄ±k sÄ±z
ĠAm atÃ¶r
Ġhak larÄ±nÄ±n
ĠErkek ler
Ġolm amÄ±z
ĠBaÅŁ arÄ±
leÅŁ ik
ĠÃ¶ d
own load
ou g
eceÄŁ inden
Ġfi dan
Ġzek Ã¢
ĠGel eneksel
ĠÃ§Ä±k mÄ±ÅŁtÄ±
Ġbask Ä±sÄ±
ĠDEÄŀ Ä°L
Ġtest leri
ĠartÄ±ÅŁ la
Pro j
ĠsÃ¶ylemiÅŁ ti
aÃ§ a
Ġfaaliyet lerinin
ĠbaÅŁkan lÄ±ÄŁÄ±
abilecek siniz
ati ce
ĠaÃ§Ä±klam asÄ±nÄ±
Pol is
Ġdur ur
Ġbilg isine
S ivas
Ġ9 6
g Ã¼cÃ¼
Ġ14 0
Ġkonu lardan
Ä° h
Ġc ad
Ð¾ Ð
ledik lerini
iliv ri
p ara
Ã¢n Ã®
ĠH Ä°ZMET
ĠÄ° kin
n at
Ġtip ik
ĠN eyse
ĠiÅŁlev i
ĠÃ§ek ilmiÅŁ
ĠÃ¢ yet
ĠKaÃ§ ak
ĠD ÃľÅŀ
ĠAl Ä±mÄ±
ĠtÃ¶ren inde
ĠmÃ¼ÅŁteriler imizin
Ġat ma
ĠTurk ey
Ġist iÅŁ
ecek lerini
x bet
Ġkut up
ĠÃ¼m met
Ġtut maya
Ġsev imli
ĠT art
Ġres sam
H ol
Ġf u
Ġfir masÄ±nÄ±n
Ġkoy muÅŁ
ĠFah rettin
Ġb adem
ĠacÄ±m asÄ±z
D IN
ĠS of
ste in
Ġtem asÄ±
oz of
ĠN ov
avv uf
ĠDEV AM
ĠeÅŁy alarÄ±
Ġavuk atÄ±
lenir ken
ĠY ur
ay e
ĠiÃ§ ini
Y ou
ĠO S
ĠÃ§ar ÅŁ
ĠTun Ã§
ĠsaÄŁlam asÄ±
ĠoluÅŁ u
ĠdÃ¶n mesi
ĠHay atÄ±
ĠA g
ĠMobil ya
ĠN ehri
ĠK eÃ§
lar sa
Bil gi
Ġuzun luÄŁu
Ġkontrol lÃ¼
D HA
ĠÄ±s Ä±r
Ġp Ã¼sk
Ġ15 00
ĠÃ§evr esindeki
ĠartÄ±r Ä±lmasÄ±
Ġ16 0
ĠUr fa
ĠkÄ± dem
Ġay Ä±ndan
ĠsÃ¶yley ebilirim
ĠH it
Ġsunul du
ĠBaÄŁÄ±m sÄ±z
Ġip uÃ§larÄ±
ĠG old
S ite
Ġzaman larÄ±n
ĠGen eral
ic an
ĠVer gisi
Ġok urken
ĠgÃ¶rÃ¼ÅŁ mek
Ġfark et
Ġhakk Ä±nÄ±n
at Ä±nÄ±
ĠMalz eme
ĠJ ournal
Ġgetir i
Ġad ama
K A
ru c
Ġnisp eten
Ġyaz dÄ±m
s inden
ĠM um
ĠI SO
tic s
Ġlir adan
ĠyanÄ±t ladÄ±
ĠB re
Ġ- -
Ġuygulam asÄ±na
Ġduygu larÄ±
Ġkal e
Ġhaft alarda
ĠmÃ¼sa it
S a
ĠyÃ¼rÃ¼t tÃ¼ÄŁÃ¼
EL ERÄ°
Ġaktiv ite
ĠDur sun
ÃĸÄŁr etmen
ĠsÃ¼rÃ¼c Ã¼sÃ¼
EK T
ĠH id
Ġtar l
n iz
Ġhafif let
Ġekib inin
Ġkur muÅŁ
ĠS us
ĠÅŀer if
Ġiltih ap
ĠdÃ¼ÅŁÃ¼nÃ¼yor sanÄ±z
Ġetm eli
Ġbeklent isi
ĠulaÅŁ abilir
ĠB eden
Ġdin lemek
ib et
Ġvideo lar
n en
B AK
larÄ±nÄ±z dan
ĠmÃ¼cadel eyi
ĠFeth iye
V al
Ä±l masÄ±nda
Ġzorun luluk
ĠAnd re
ĠkoÅŁul larÄ±na
M in
ĠuÄŁr ayan
eler deki
Ġmet od
Ġsal Ä±n
Ġgit tiÄŁ
ĠYaÄŁ mur
Ġyap acaÄŁÄ±m
____ ____
Ġmini bÃ¼s
ĠÃ§ocuk larÄ±nÄ±
ĠhoÅŁ gÃ¶r
ĠdÃ¼zen lemek
ĠÃ¶ÄŁretmen lerin
Tab ii
Ġat ama
Ġoperasyon da
ĠH ad
Ã¼l in
ĠHay al
Ġh Ã¼zÃ¼n
dÃ¼z Ã¼
tal yaspor
Ġn ehir
ĠUygul amasÄ±
B S
Ġec z
Ter Ã¶r
ĠkÃ¢ÄŁ Ä±t
acak tÄ±
ĠyapÄ±l acaÄŁÄ±nÄ±
ĠOn dan
Ġ7 9
Ġg o
ĠkaÅŁ Ä±k
ĠVer ilerin
ok u
Ġn olu
Ġhav e
r arÄ±
ĠOr talama
ĠT ec
ÅŁ a
Ġgel diniz
ĠBey oÄŁlu
Ġalan larÄ±nÄ±n
ĠsÄ±k Ä±cÄ±
ĠO ut
ĠBin ali
Ġtop layan
Ġlist esini
Ġkoordin asyon
ĠS izi
ebil eceÄŁimiz
ĠgÃ¶tÃ¼r dÃ¼
ĠT HY
Ġ7 1
ĠaÃ§Ä±l Ä±yor
Ġonay lan
ĠdÃ¼zelt me
ĠKanunun un
San at
ĠMak ine
s ol
Ġver mekteyiz
it or
ĠbÄ±rak Ä±r
Ġdayan ak
Ġokuy up
Ġsun arak
Ġt Ã¼tÃ¼n
Ã¶ ÄŁ
Ġak an
ĠF ord
Ġil anÄ±
ĠK Ã¢
h or
ĠSev gil
ĠdÃ¼zen lenmesi
ĠÃ§ocuk larÄ±na
Ġk Ã¶l
ch er
Fark lÄ±
Ġbil eÄŁ
ĠT ES
ĠAy akkabÄ±
Ġnot u
ĠalÄ±n dÄ±ÄŁÄ±nÄ±
Ġgel meden
Ġgezeg en
21 2
ard o
ĠEtkin lik
dÃ¼r Ã¼lebilir
ĠNo te
memiÅŁ ti
Elekt rik
ĠOl dukÃ§a
ĠKon ferans
Ġek lenen
ĠkaÄŁÄ± dÄ±
Ġperformans Ä±nÄ±
Ġbak Ä±p
ĠG rand
Ġheyec anlÄ±
ĠamaÃ§ lar
lÃ¼l Ã¼k
ĠdÃ¼ÅŁÃ¼n me
ĠdÃ¶nÃ¼ÅŁ Ã¼
isi on
Ġgit mesi
ĠÅŁart larÄ±na
Ġm av
ĠTak v
Ġdil de
Ġdel eg
Ġmuc iz
EM Ä°
Ġolay lara
ib an
Ġkal maya
ildiÄŁ iniz
Ġitibar i
Ġizley ic
Ġkap asite
ĠK OR
ĠM ekke
Ġsorun larÄ±na
Ġ8 3
ĠdeÄŁer lerini
ĠbaÅŁlan gÄ±cÄ±
Ġproj elerin
Ġhedef e
Ġmo du
Ġs pr
ĠStad Ä
ĠStadÄ ±
Ġyay Ä±na
av uzu
ĠtanÄ±t Ä±mÄ±
Ġl akin
ĠSP OR
ĠbÃ¶lg eleri
C em
ĠanlaÅŁ maya
ĠKÄ±s aca
Ġhaber lerin
r ep
ĠTes lim
Ġotur du
ĠaÃ§Ä±l Ä±ÅŁÄ±
ĠDekor asyon
ĠEr g
atur a
un k
Ġbar Ä±n
Ġsoy ut
Äŀ ER
ĠSah ibi
ĠHay dar
op a
Ġmer mer
t am
ĠsÃ¼r gÃ¼n
Ġder n
ĠCem il
ĠtÃ¶ren le
ĠkonuÅŁ maya
ĠYardÄ±m cÄ±
Ġetk iliyor
ĠBur han
Ã¼nÃ¼z de
ĠÅŁey lerden
Ġheyecan la
± cak
Ġel lerini
r ad
, ...
Ġkut l
Ġn imet
ĠilaÃ§ lama
. :
ĠYan gÄ±n
Ġg oogle
Ġart tÄ±ÄŁÄ±nÄ±
ĠsaldÄ±r Ä±sÄ±
ĠÃ¶ g
c is
Ġbirbir iyle
ĠP ower
ilm em
ĠtÃ¶ren ine
ĠtÃ¼m Ã¼
Ġyakalan an
Ġyar al
ĠP i
ĠB eh
Ġmilletvekil leri
Ġtah r
s iyesi
Ġel an
Ġkonsan tr
ĠkÃ¶t Ã¼ye
ET Ä°
Ã¢ de
ĠkonuÅŁ masÄ±
Ġbak Ä±ma
BÃ¼yÃ¼k ÅŁehir
Ġsebep ten
er o
Ġetap ta
ĠÃ§Ä±k masÄ±na
ĠO ca
Ġrakam lar
Ġmuhat ap
ĠedilmiÅŁ ti
Ġt witter
L ig
g ay
Ġita at
ec ilerin
ĠdÃ¼ny aca
Ġo m
ĠsÃ¼r Ã¼n
y etler
asyon lar
Ġfikir ler
ar ch
ED Ä°R
ĠBors asÄ±
ĠgÃ¶nder me
ĠHes ab
Ġtan r
Ġ8 4
Ġuzak lÄ±kta
Ġask Ä±ya
Ġkon ten
Ġkon gre
as lan
dÄ±ÄŁ Ä±n
ĠÅŀ ark
ĠU p
Ġ ine
Ã¢z Ä±m
y azar
ĠKarÅŁ Ä±yaka
ĠSendik asÄ±
acak sÄ±n
M urat
Ġgetir ip
ib r
Ġsefer inde
ĠÃĩank aya
Ġliste de
Ġkont eyn
Ġedilm eli
ĠgeliÅŁim ini
ekt eyiz
Ġmev z
Ġdurumda dÄ±r
ĠM I
Ä±nt Ä±sÄ±
g ate
Ġpazar da
ĠyÄ±l lardan
C M
K Ä±ÅŁ
du y
ĠNum arasÄ±
ĠBas it
oz an
Ã¼m kÃ¼n
Bunun la
Ġindir imi
ĠÄ°ÅŁ birliÄŁi
Ġz eki
Ġilgilen en
al li
ĠkuÅŁ at
Ġgetir miÅŁtir
ĠrÃ¼zg Ã¢r
Ġay aÄŁÄ±
lÃ¼ÄŁ Ã¼n
ĠtanÄ±m lanan
Vat andaÅŁ
Ã¶l ye
Ġokul larÄ±n
ĠY el
ĠSP K
em iyoruz
GÃ¼n lÃ¼k
Ġmil lÃ®
Ġmemnun iyetini
ĠgÃ¶nder en
ul um
Ġim p
Ġvur an
H es
Ġh or
ĠbÃ¼r o
ta in
ĠgÃ¼n delik
Ġgrub unun
Ġem isyon
ĠÃ§ap lÄ±
r iye
ĠolmasÄ± yla
Ã¼ h
Kah raman
P iyas
C am
ĠkaldÄ±r ma
M ec
Ġkab in
Ġ8 6
ĠKar iyer
Ġtap Ä±n
asyon a
Ġdep artman
Ġbank asÄ±
Ġbelir leyici
Ġgerek mez
Ä°S K
ĠÃ¶rgÃ¼t leri
ĠAs Ä±l
: ""
Ġbil ek
Ġkal mÄ±ÅŁtÄ±
at on
Ġgetir dik
Ġpart ner
Ġnok tadan
Ġpol isi
Ġkur gu
ĠYorum lar
K art
ĠkadÄ±n larda
Ġtab l
ĠSonr aki
dÄ±ÄŁ Ä±nÄ±n
ĠGEN EL
ĠMer al
rah man
ĠgeleceÄŁ in
len mesini
ĠÃ¶lÃ¼m Ã¼ne
ĠMobil e
Ġan ladÄ±m
Ġsunu c
ĠyaÄŁ Ä±ÅŁÄ±
ĠBar celona
Ġkur ab
Ġspor tif
Ġsak lÄ±dÄ±r
ĠmÃ¼ barek
ĠiÅŁlet menin
ĠhoÅŁ lan
ĠW h
r aÄŁÄ±
k iÅŁ
ĠL G
Ġap p
Ġtoz u
ĠPar Ã§a
Ġfaydalan mak
l esin
Ġor adaki
ig er
Ġ7 50
Ġh om
Kr ipto
lÃ¢ h
Ġyap masÄ±nÄ±
Ġaz iz
od yum
ilm emiÅŁ
ĠUz ak
Ġyan lÄ±
ĠC lub
Ġk Ä±lÄ±Ã§
ĠÃ¶zellik lerinden
Ġpozisyon u
Ġfes h
Ġev lerinde
al esi
ĠAr ka
ĠtanÄ± dÄ±k
ĠDanÄ±ÅŁ manlÄ±k
D uy
Ġgit tiÄŁini
A AT
En gel
Â ²
ĠL am
Ġgider ilmesi
Ġkalk tÄ±
Man isa
am adÄ±ÄŁÄ±nÄ±
Ġ( ""
ĠAy v
Ãĩ ocuÄŁ
aman Ä±zÄ±
Ġpres tij
ĠFel sef
et iÄŁi
ĠalÄ±n Ä±yor
Ġhediy eler
ĠyaÅŁ Ä±nÄ±
Ġkapat ma
Ġelem ent
Ä±l amaz
Ġt aÃ§
ĠFu at
K ir
Ġk aya
ĠkuruluÅŁ larÄ±nÄ±n
Ġduy dum
il et
ĠR os
ĠÃ¶den mesi
Ġkolay lÄ±ÄŁÄ±
Ġpek iÅŁtir
ab b
ĠÃ¼lk elerinin
Ġay Ä±p
Ġmet ni
ĠAlev i
Ġkat Ä±nda
ĠGazet eciler
ĠiÅŁÃ§ ilik
eÅŁ e
ĠÃ§Ä±kar Ä±yor
ĠKaynak larÄ±
ĠtakÄ±m da
ĠiliÅŁk ilerini
ĠÅŁ amp
Ġkullan dÄ±klarÄ±
ĠG ibi
F er
ðŁ ĺ
Ġzor laÅŁtÄ±r
Ġam bar
K ara
ĠkÄ±sÄ±t lÄ±
Ġcevap lar
Ġg uzel
Ġh iz
inc eye
s n
ĠÅŁey lere
ĠAn Ä
Ġkap Ä±sÄ±nÄ±
Ġekonom inin
Ġyazar Ä±n
Ġetm emiz
ĠYap Ä±mÄ±
Ġyay Ä±nda
Ġkay da
ĠgÃ¶rdÃ¼ÄŁ Ã¼nÃ¼
ĠF l
.. ...
ul maz
Ġkr ediler
ĠkullanÄ±c Ä±ya
ĠÃ§ek imi
ĠAnÄ ±
Ġmut suz
Ġal malarÄ±
ĠÃ¶ner ilir
Ġpolis e
unu cu
ĠL o
ĠY emen
pr Ã¼
ĠYukarÄ± da
Ġgetir mektedir
Ġsiz ce
ĠMÃ¼st eÅŁ
ĠgeliÅŁ mekte
ĠFilm leri
abilecek tir
ĠCey lan
ĠF al
ĠÃ§erÃ§ev e
ĠÄ°dar i
Ġli gin
ĠAb dur
on i
ĠMeh med
Ġgelecek teki
ĠP rim
Ġann esinin
Ġbenim sen
ĠBay burt
ĠkoÅŁul larÄ±nda
iyet e
ant ina
ap top
Ġyap mÄ±ÅŁtÄ±
ĠBoÄŁaz iÃ§i
ĠT OKÄ°
Ġiz ledi
ĠPer formans
ĠÄ°lan larÄ±
ĠsatÄ±ÅŁ larÄ±
Ġpar fÃ¼m
Ä°L EN
ĠyÃ¶n Ã¼yle
Ġistis na
ĠsÃ¶ylen iyor
H emen
ĠoluÅŁtur ulmuÅŁ
ĠAy ak
Ġil acÄ±
Ġskan dal
Åŀ ubat
Ġisim lerin
Ġuz ant
Ġyan Ä±nÄ±zda
v anÄ±
Ġhar can
ie ws
Ġmah rum
Ġk lim
ĠkuruluÅŁ larÄ±n
BaÅŁk a
ĠOb ama
ĠeÄŁil imi
ĠsaÄŁ a
Ġmez hep
Ġver giler
ĠR Ã¼z
6 00
or tal
ĠGaz ze
ini p
ĠiÃ§erik li
ĠÃ¼y eliÄŁi
Ġp ak
ĠK u
ĠTAR Ä°H
Ġhav asÄ±
ĠBes lenme
Ġk ed
ĠbeÅŁ inci
ĠYas asÄ±
Ġyorgun luk
lan Ä±n
ĠdÃ¶v Ã¼ÅŁ
Ġoyun larÄ±n
elik li
ĠDep rem
ĠbÃ¼yÃ¼m esi
ĠS o
L AT
Ġ| |
ĠS ib
Ġban d
ĠAÅŁaÄŁÄ± da
ĠÃ¼retim ini
ĠiliÅŁk ilendir
ĠmÃ¼t ev
Ġdiler iz
ĠaldÄ±k larÄ±nÄ±
ĠhÃ¼kÃ¼met inin
ĠTed arik
Ã¼m Ã¼n
Ġdes tan
ĠÃ§arp Ä±ÅŁ
ĠKim lik
Ġiz ol
ĠFransÄ±z ca
¸ ı
Ġten is
ĠTur larÄ±
ĠGÃ¼n gÃ¶r
Ġiyil eÅŁme
ĠF lor
Ã§Ä± larÄ±n
il eceÄŁini
ot al
ĠE ki
C en
. âĢĻ
ĠkÃ¶ÅŁ esinde
Ġk Ã¼s
Ġorta okul
ĠBos na
Ġsun muÅŁ
Ġoran Ä±na
Ġum ur
ĠgiriÅŁim ci
Ġduy mak
Ġkaz anÄ±n
ĠBEL ED
ĠÃ§alÄ±ÅŁan larÄ±na
ic ilik
ĠÃ¶ner isi
Ġkadros una
ĠdoÄŁrul ama
ĠK AN
c en
ĠSorum lu
ĠkaldÄ±r dÄ±
" '
ĠR od
Ġden emek
ro v
Ġkaynak lardan
ĠCen net
ĠR an
tan siyon
H ast
ĠÃĩ erez
TÃľRK Ä°YE
Tem el
Ġkap tan
Ħ ¢
Ġfiyat lara
Ġmev s
ĠÃ¼st Ã¼nden
ĠNo el
Ä° G
ĠStu di
ĠdÃ¼zen siz
Ġar ayÄ±p
Ġgerekiyor sa
Ġtamam lamak
Ġhas ret
ĠSel ahattin
ĠFestiv al
Ġkaf e
ĠgÃ¶rev ler
Ġrehber lik
ĠP lat
ĠG iyim
Ġmillet imizin
Ä°ngil izce
ĠBir likte
ĠKap lan
B atÄ±
Ġsor uyor
Ġinan Ä±yor
el iler
Ġpart ilerin
Ġs ultan
Ġy edir
Ġyol suzluk
Ġort ama
ĠadÄ±m larla
ĠmÃ¼l akat
Ġtesis leri
iÅŁ ler
ĠÃ¶n lenmesi
200 3
ĠÃ§Ä±k tÄ±k
Ar aÃ§
Ġser amik
M ill
Ġk Ä±p
ĠsÃ¼rdÃ¼r mektedir
ĠdÃ¼ÅŁÃ¼n dÃ¼r
ĠK R
ĠKur tar
ĠD osy
b ih
e et
ĠTim es
Ġhus uslar
Ġkal mÄ±yor
Ġbul acaksÄ±nÄ±z
ĠmÃ¼cadel eye
Ġfar z
ĠgeliÅŁtir meye
ĠiÅŁ lere
ĠOy n
eler ce
Ġorganiz asyonu
Ġh ibe
ĠÃ¶lÃ§ ek
Ġat Ä±f
ĠhÃ¼km Ã¼
Ġyer lerini
var yum
ĠÃ§iz im
ĠÅŁef kat
ĠTeÅŁ ekkÃ¼rler
ĠgÃ¶rÃ¼ntÃ¼l eme
ĠÃ§ en
tek in
ĠÅŀ ev
Ġpen altÄ±
Ġkons ol
cÄ±lÄ±ÄŁ a
Ġb o
ĠÅŁart tÄ±r
ĠkarÅŁÄ±l ayacak
ĠHam il
ĠEc z
Ġadres leri
T emmuz
Ġkazan manÄ±n
ĠÃ¶de v
Ġnaz ik
Ġokum uÅŁ
Ġdev i
EN T
ĠnÃ¼f usun
b or
Ġsu ik
Pro je
ĠEr eÄŁli
Ġyer lerine
ĠT ir
Ġ:) )
Ġmedy anÄ±n
ĠdÄ±ÅŁ a
ef endi
ĠsÃ¶y le
Ġdenet imi
ĠyaÅŁ adÄ±ÄŁÄ±nÄ±
Ġders iniz
Herk es
ĠÃĩ Ä±nar
Ġbirinc isi
Ġh uy
Ġy Ä±ÄŁÄ±n
LI ÄŀI
is tir
ĠdoÄŁ uÅŁ
ĠgÃ¼ndem ine
ĠbÃ¶lg elere
ĠS iv
Ġlam b
el ekt
K AT
ĠâĢĭ âĢĭ
R amazan
ĠyÃ¶n e
Ġhav uzu
as ofya
ĠÅŁ eri
ĠK op
Ġat abilirsiniz
P sik
ay ir
ĠÄ°p tal
ĠMet ro
Ġ199 1
Ġann eler
Ġgider mek
Ġok uyor
ĠAd li
ĠÃ¼lk esinde
ĠAd il
Ãĸ yle
ĠyanÄ± tÄ±
Ak Ä±llÄ±
Ġal Ä±yorum
t ok
Ġkarbon hidrat
Ġtelefon larÄ±
ĠyaÅŁ adÄ±klarÄ±nÄ±
B avul
ik leri
Ġev lerine
Ġuygulam asÄ±nÄ±n
ĠSer isi
ĠsÄ±nÄ±f ta
ĠbiÃ§im inde
ĠBur aya
ĠNAS IL
enek on
Ġh usu
Ġy eÄŁ
ĠbÃ¼yÃ¼k lÃ¼k
dir ler
s enin
Ġfilm inin
K Ã¼rt
Ø ¯
ĠÅŁ ab
Ġmet aboliz
ĠKem er
Ġbilin mesi
ĠiÃ§eriÄŁ ini
Ġduygu larÄ±nÄ±
Ġsev erek
ĠpaylaÅŁ Ä±lan
ð Ŀ
Ġkitab Ä±nÄ±
Ġrapor da
Ġkulak lÄ±k
ev re
iz z
D Ãľ
r ent
Ġkullan masÄ±
e a
ĠY ÃľK
Ġhayat larÄ±nÄ±
Ñ ĥ
ĠC han
Ġ umu
ĠbiÅŁ ey
Ġarac a
abil im
duÄŁ undan
Ġgerek Ã§e
Ġyarat Ä±yor
ĠolduÄŁ un
ĠÅŀ arkÄ±
Ã¼ d
ĠGÃ¼r cistan
Ġhissed iyorum
ĠDen eme
ĠTur nuv
"" )
Ġnormal de
ĠseÃ§ me
ĠG i
Ġhar man
ĠS Ã¼m
Ġcez asÄ±na
Ġcook ies
ĠAt aÅŁ
ĠgerÃ§ek leri
Ġ12 5
s ada
Ã¼r ler
ĠBir imi
Ġzarf Ä±nda
Ġkap aÄŁÄ±
ĠÄ° hale
ĠÃ¢ lim
ĠaÃ§ acak
atÃ¶r ler
Ġdin lenme
ĠtakÄ±m Ä±nÄ±n
Ġfed akar
il in
Ġkem er
Y alnÄ±z
ĠÃ¼ret ilmiÅŁ
ĠhÃ¼kÃ¼m lerine
Ġfirmalar a
s ib
Ġoy na
ĠeÅŁ inin
ĠKilis esi
Ġy etim
p ot
ĠÅŁ iddeti
ĠkatÄ±l ma
ĠAÃ§Ä±k lamasÄ±
k eli
ĠKir alama
Ġhizmet lerinden
Ġtek ne
Ġah laki
av at
ĠK Ä°M
ĠG ur
B R
ih azÄ±rda
Ġkar Ä
ĠÅŁampiyon u
Ġa ut
ĠFa iz
miÅŁ lerdir
ĠKon feransÄ±
? Â»
ser ispor
g round
lad im
z ade
ĠmÃ¼ÅŁter ilerinin
ĠkarÄ ±
Ġuygul adÄ±ÄŁÄ±
Ġser tifika
ĠÄ°k lim
ĠborÃ§ lu
Ġsol a
) (
iliÄŁ ine
Ġdiz isinin
ĠyayÄ±m landÄ±
t v
Ġcil din
K Ä°N
Ġotomobil in
ĠÃĩ il
Ġif las
ĠR em
Ġb ast
Ġtehlik esi
, ,
ĠH AZ
Ġcins inden
ĠEy l
Ġhizmet lerine
Ġkaybet meden
ĠMil lÃ®
ĠHayvan cÄ±lÄ±k
ĠL an
len mek
Ã§ er
Ġsat Ä±lÄ±k
Ġey lÃ¼l
Ġver ilerini
Ġyak Ä±nÄ±n
Ġihtim alle
Ġharit a
G AZ
ï ¸ı
Mu ht
koÅŁ a
oÄŁ ol
.. "
Ã½ r
v es
ĠUn iversity
DÃ¼nya da
ĠMar ÅŁÄ±
Ġhastal Ä±ÄŁa
ĠH aÅŁ
ĠÃ¼lk elerine
S U
ĠHat tÄ±
ĠtÃ¼n el
ĠeÅŁit lik
Ġesn ada
Ġek leme
ĠMar maris
D oktor
g erÃ§
Ġbirbir lerini
ul acak
uz a
Ä±y Ä±k
ĠkÄ±z lar
ĠgÃ¼Ã§ lerinin
Ġr est
Ġantren Ã¶r
ĠK ep
Ġark asÄ±ndaki
ĠsuÃ§ lam
ĠtasarÄ±m larÄ±
S avaÅŁ
Ġgarant ili
Ã¼s Ã¼nden
Ġrej imi
ĠK lima
ĠyansÄ± tan
ĠTiyatro su
ĠarÄ±yor sanÄ±z
abiliyor lar
g es
Ġbuy urdu
Ġart masÄ±na
Ġgec eleri
ĠKÄ±rÄ±k kale
Ġn elere
kÃ¼ ler
Ġust asÄ±
ĠSer tifik
Ġand roid
ĠA meliyat
isy enler
ĠbaÅŁ lÄ±klarÄ±
ĠyaÅŁ ayacak
ĠaygÄ± t
M uÄŁla
ĠPart ili
ar da
Ġolmay acaÄŁÄ±nÄ±
Ġod aya
abileceÄŁ inizi
Ġalb Ã¼mÃ¼
Ġstratej iler
ĠCh ris
Ġbors ada
Ġkazan arak
ĠÃ§ek meye
maktadÄ±r lar
Ġkarar Ä±yla
ĠkullanÄ±l maya
ĠTun celi
ĠÅŁu dur
Ġuy ruklu
ĠIn tel
A ra
Ġ Ã¼ÅŁ
Ġverim lilik
Ġb Ä±k
Ġgel diler
Ġoyun unda
ĠyetiÅŁ en
nam esi
ĠtaÅŁÄ±n masÄ±
ing ir
ĠÃ§ Ä
ad ig
ĠD iler
Ġcid d
ĠvÃ¼cut ta
Ġkullan mÄ±ÅŁ
ĠU st
Z ER
Ġbelirt ilmiÅŁtir
el ey
Ġbir e
U krayna
Ġkayb Ä±na
Ġincelen mesi
ĠÅŁif a
Ġbelir sizlik
ĠsÃ¶zleÅŁ menin
Ġgit meye
Ġyol unun
Ġtemel ini
OC UK
ĠtÃ¼m Ã¶r
ĠUn ited
Ġerk eÄŁin
Y abancÄ±
ĠkÄ±z Ä±m
Ġkapsam Ä±ndaki
ĠY iÄŁit
ĠKork maz
ĠBur asÄ±
Ġetmek le
Ġhafif Ã§e
ĠÃĩank Ä±rÄ±
Ġar amaya
Ġ Ã¼t
ĠtÃ¼r Ã¼ne
Ġi br
ĠAbdÃ¼l ham
ĠHÃ¼kÃ¼m eti
Ġkur maya
ĠDeÄŁ iÅŁim
Dem okr
Ġtarz da
ĠEs ad
Ġan ki
d Ã¶
l iyorum
ĠY AK
Ä±sÄ±r a
ĠOf isi
ĠHur da
ĠgeÃ§miÅŁ e
Ġkan unun
oloj inin
ĠartÄ±r Ä±r
Åŀ ekil
ĠGÃ¶z tepe
B UR
Ġsavun du
M at
ĠÃ¶ÄŁrenc ilerine
ĠyÃ¼ksek liÄŁi
Ġsayf alarÄ±
Ġmetrekar elik
Ġinf az
ĠfÄ± st
Ben ce
Ġbil imi
Ġihrac atÄ±
Ġkal siyum
ĠoluÅŁ acak
ebil iyoruz
Ġetkinlik te
Ġmasa Ã¼stÃ¼
Ġbir iydi
Ġpas if
ĠB ektaÅŁ
Ġy astÄ±k
ug h
M aÃ§
C o
ĠgÃ¶r Ã¼lecek
ĠkeÅŁ ke
ED E
ĠÅŁ aÅŁ
ĠaraÃ§ larÄ±nÄ±
Ad visor
ĠtarayÄ± c
Ġsorun larÄ±nÄ±n
ĠbaÅŁlangÄ±Ã§ ta
AÅŁ k
ĠAk taÅŁ
S istem
K aÃ§
ĠÃ§ar pan
ĠÅŁart larÄ±nÄ±
ĠÃ§Ä ±
ĠSer v
ĠVad eli
Ġnak il
P ek
OB B
ĠseÃ§im e
ĠH ani
ĠÅŁirket e
Ġd ub
Ġinan dÄ±r
Ġ9 7
ĠVer en
ĠbÃ¶yl esine
ĠCem iyeti
Ġz Ä±t
ĠÃ§Ä±k masÄ±nÄ±
Ġbayr aÄŁÄ±
Y S
mey le
Ä±lmasÄ± yla
Ġfiyat Ä±n
Ġekonom isinin
k inden
Ġpar alarÄ±
ay ip
av el
Ġiade si
ĠÃĸ SYM
Ġistif ade
ĠsaÄŁ lÄ±yoruz
ĠmÃ¼ÅŁter ilere
Ġal man
ĠdÃ¶nÃ¼ÅŁ tÃ¼
ĠgÃ¼ven de
ĠpeÅŁ inden
ĠbaÄŁÄ±m lÄ±lÄ±k
ĠoluÅŁtur arak
ĠkullanÄ±l amaz
ĠvÃ¼c uda
Ġincel edi
tik lerini
Ġdel alet
Ġoyn arken
Ġsan tim
Ġden gel
Ġn un
O nun
ĠBir den
Ġanti biyotik
ĠA tÄ±k
k Ä±l
ĠB eb
Ġkap tÄ±r
ĠD V
ĠMÃ¼hendis lik
Ġd ediÄŁim
Ġbelir lediÄŁi
Ġc ildi
Ġmadde sine
esi gn
co unt
Giz lilik
ĠHABER LER
if or
malar Ä±nda
Ġ/ /
Ġ Ã¼rk
r iz
Ġtelaf i
HÄ±z lÄ±
ĠÄ° M
Ġoyn ayacak
Ġceh enn
iler imizin
Ġhav anÄ±n
LAR A
Ġinceley erek
Ġdikkat leri
Ġmahk Ã»m
ĠBaÅŁ ta
ĠD iv
ĠL eg
an masÄ±
Z iyaret
ĠÃ¼Ã§ te
Ġtab losu
Ġtam iri
Ġbelir leme
ĠgÃ¶rÃ¼ÅŁ meleri
Ġkur b
l ali
ĠiÄŁ ne
Ġbahis ler
Ġgir meye
Ġvar lÄ±klar
ĠArda han
Ġ19 50
Z or
Ġay ni
in dir
ĠdeÄŁerlendir mesi
Ġbilet lerini
Ġc er
un i
H azÄ±r
ĠAlman ca
Ġbec eri
ĠgÃ¼Ã§ ler
Ġart maktadÄ±r
ĠE tiketler
Ġpiyas adaki
Ġamac Ä±na
Ġanlam Ä±nÄ±
ĠC as
Ġhedef liyoruz
Ġp us
ĠYar Ä±n
st at
gel din
Ġtaraf larÄ±n
ĠHareket i
ih an
ĠgeliÅŁ melerin
ĠAy Ä
ab ah
Ġsin dirim
leÅŁ ti
ĠAyÄ ±
ĠseÃ§ ebilirsiniz
ĠÅŀen ol
ĠTaÅŁ Ä±n
ĠelveriÅŁ li
ĠyatÄ±rÄ±mcÄ± lara
ĠiÅŁ lerde
Ġs uyla
ĠSev gili
Ġgelen ler
b log
Ä±m larÄ±
Ġver diÄŁim
n it
Ġv oleybol
ĠA Äŀ
Ġincelem elerde
Ġfiyat Ä±na
Ġsad akat
Ġat maya
Ġkes imi
Ġonay lÄ±
S av
ĠAk hisar
Ġtut ma
ĠSn ap
ĠH AR
Ġman ev
Ġortal amasÄ±
Ġs icil
ran iye
A ÄŁustos
g Ä±z
Ġmark alarÄ±n
Ġp azara
Ġkr om
Ġgeril edi
ĠAvrup alÄ±
Ġsebeb iyet
ĠPol itika
ĠBak Ä±mÄ±
ol ama
el y
Ġbulun duÄŁunuz
Ġbah an
Ġkar ab
ar dÄ±
ĠsÃ¼r Ã¼l
Ġbit er
emey eceÄŁi
ĠLid eri
ĠÃ¶ÄŁren dik
Ġekonom iye
Ġsakin leri
ĠGenel de
Ġb Ã¼lten
p ati
ĠS i
Ġbag aj
Ġkapat tÄ±
Ã ³
ebiliyor sunuz
ĠG R
Ġoyun larÄ±nda
ArkadaÅŁ lar
Ġplatform larÄ±
T BMM
ĠR eg
ĠKon f
is m
d alÄ±
Ġtem enni
ĠÃ¶ner ilen
ĠMan ag
ĠB Ä°Z
Ġkapat mak
ĠKend ini
ĠS edat
ĠRoman ya
ĠyÃ¶ntem le
ĠdÃ¼z eye
ĠgÃ¶r ebilir
Ġolmam Ä±ÅŁ
Ġh asÄ±l
Ġpro p
Ġolm adÄ±k
ĠBaÅŁsav cÄ±lÄ±ÄŁÄ±
ob a
Ġbur n
D iÅŁ
V A
ĠgÃ¶z de
ĠÃĸz lem
Ġkonum landÄ±r
ob e
ĠU Z
ĠdÃ¼zen lenmiÅŁ
ĠBak Ä±ÅŁ
Ġtem muz
Ġkapasit eli
ĠGÃľN CEL
Ġhayvan cÄ±lÄ±k
ĠSor ular
ĠH ER
ĠmÃ¼ÅŁter inin
ĠoluÅŁ umu
Ġkal mayacak
Ġnokt alara
Ġer dir
ĠU laÅŁtÄ±rma
ĠJ e
Ġiz mir
ĠR ul
ĠkarÅŁ Ä±sÄ±ndaki
K E
BaÅŁ vur
gin Ã§
Ä°ÅŁ let
Ġsu lar
ĠDan imarka
Ġyap amaz
Ġy in
ĠKap sam
ĠM Ä°T
Ġlis ansÄ±
geÃ§ miÅŁ
Ä°Y Ä°
mas i
ĠBoy utu
Ġk l
C ovid
Ġiptal i
ĠgÃ¶m lek
G M
Ġm Ä±ydÄ±
h ol
Ġin dik
KÃ¼r esel
ĠR oy
Ġifad elerine
Ġizley ebilirsiniz
Ġyan Ä±sÄ±ra
ĠMillet vekil
Ġsevgil isi
Ġcihaz larÄ±n
Ġsun acak
ĠMed ine
Ġpers pektif
P A
K AD
Ġunsur lar
Ġan Ä±t
Ġak abinde
ĠF onu
ĠaÃ§ Ä±ÄŁÄ±
ĠD or
j der
Ġsahib ine
LER Ä°N
ĠForm u
ĠgeÃ§ it
Ġpart isinin
ĠEmek li
ĠFir mamÄ±z
P ort
Ġen ter
Ãľ y
Ġedil ebilecek
Ġtan Ä±yor
ĠtÃ¼f ek
Ġp Ã¼f
Ġseyir ci
bur nu
ĠÅŀart larÄ±
ĠAk soy
C ar
Bil in
Ġmuam el
f urt
ĠSev gi
ĠY erler
Ġkelim eleri
S arÄ±
d Ã¶rt
Ġm ayÄ±s
Amerik an
adok ya
Ġkorum asÄ±
ĠÃ¶ldÃ¼r Ã¼ldÃ¼
Ġkalk Ä±p
Ġâ Ĥ¬
ĠmaÃ§ Ä±nÄ±
Ãĩev re
ĠÃ§iz di
M ad
ĠyÃ¶net en
200 2
ĠMart in
Ġverilm esini
Ġj et
Ġp e
Ġhak lar
â Ĩ
Ġkod larÄ±
ĠOrdu su
ĠKÄ±s acasÄ±
Ġkur gul
OL U
Ġistiyor du
ĠaydÄ±n lÄ±k
ĠT oy
ĠH ome
Åŀ ah
Ġopsiyon u
ĠS ÃĸZ
ĠÅŁans Ä±nÄ±
Ġul tr
Ġark adas
ĠsaldÄ±rÄ± larÄ±
yan us
ĠE Y
ĠKÄ±r klareli
ĠoluÅŁ abilecek
T or
ĠmÃ¼z isyen
ĠÃ§Ä±kar Ä±r
Ġkir let
ĠÃ¼z gÃ¼n
sin ler
Ã§ am
Ã¢ v
Ġb inden
Ġfilm inde
ĠT ic
Ġizley in
lÃ¢ k
Ġ8 7
ĠÃ§at Ä±sÄ±
ÃĩalÄ±ÅŁ ma
am alar
Ġf Ä±s
Ø ¹
iz za
ĠtakÄ±m lar
E b
Ġpar anÄ±zÄ±
Ġ8 9
S aat
Ġkategor ide
V ak
Ġsp read
Ġdav ada
ĠkarÅŁÄ±l ayan
ĠD AHA
Ġbir inden
El bette
ĠKes kin
c em
ĠdÃ¶k Ã¼m
liliÄŁ e
Ġm iy
ĠHam za
ĠTeÅŁ ekkÃ¼r
Dev amÄ±
Ġbul aÅŁÄ±k
Ġyaz Ä±sÄ±nda
ic iliÄŁi
ĠYÃ¼r Ã¼yÃ¼ÅŁ
ĠTedav isi
C AN
ĠsaldÄ±r Ä±da
Rek lam
is s
F orum
for masyon
ĠyÄ±l baÅŁÄ±
ĠUÃ§ uÅŁ
Ġdol gu
Ġyar Ä±sÄ±nÄ±
y Ã¼k
ĠÃ¼retim inin
ĠM az
Ġtak Ä±l
Ġbank anÄ±n
Ġmodel lerini
Ã¼r Ã¼n
ĠiÅŁlem lerde
Ġanti oksidan
ĠOsman iye
ĠA ÄŁu
ĠÅŁikayet Ã§i
Ġhedef imiz
Ġol alÄ±m
Ġyaz dÄ±k
ĠH P
Ġkaynak larÄ±n
ĠM alat
ĠbÃ¶lg esinin
Ġgrup ta
ĠgeÃ§ir miÅŁ
Ġgel eceÄŁine
lem eler
Ġdevlet ler
ĠG ames
Ġteklif leri
ĠFayd alarÄ±
Ġziyaret Ã§
ĠÃ¶z erk
Q L
ĠC F
ĠÃĸÄŁr et
ĠTamam en
ans Ä±n
ĠtecrÃ¼b esi
eliÄŁ ine
Ġw e
ĠulaÅŁ tÄ±ÄŁÄ±
Ġno ter
ĠHal buki
ĠÃ¶den en
Ġanlam sÄ±z
Ġm ul
Ġter mal
Ġmerkez de
ĠPort alÄ±
ĠKesin likle
Ġel lerinden
ĠTh omas
ĠM Ã¼kemmel
ĠAkses uar
sk y
Ġel li
Ġr Ã¼ÅŁ
Ġkav ur
ĠgÃ¼zel liÄŁi
ĠseÃ§enek lerini
z ersiz
ĠeÄŁitim de
ĠAr jantin
ĠdonanÄ±m lÄ±
ag en
diler de
Ġaz dÄ±r
ĠS T
ĠCen ter
Ġal l
g usal
Ġek leyip
Ġ ade
ĠbahÃ§ esinde
ĠdÃ¼ÅŁÃ¼n Ã¼len
ĠaÃ§Ä±k lamak
ĠAk tif
ĠTur u
Ġdo lardan
Ġunsur larÄ±
Ġ9 4
y anÄ±n
ĠOrta okulu
ĠYap Ä±m
Ġmes leÄŁi
H ocam
lÄ±yor du
Or du
Ġtuz ak
Ġmark alarÄ±
ĠY ÃĸK
ĠS EÃĩ
ĠgeÃ§ir ilmesi
Ġtaktir de
ĠB EN
Ġimzalan an
Ġpil av
ĠEr dal
ĠCih an
Ä° b
ĠalÄ±n malÄ±dÄ±r
Ġac ele
Ġel lerine
ĠKon g
Ġbilgiler inin
ĠO T
Ġal lah
ĠBayrak tar
ÅŁ ah
unc tion
v arÄ±
Ġdam ga
ĠÅŁiddet e
Ġsit elerde
GÃ¼ven lik
Ġincel eyen
ĠT IR
omet rik
ĠS AH
Ġsab un
Ġtak as
L ADI
ĠMak ed
IN DAN
V Ã¼c
Ġanaliz leri
Ġsembol Ã¼
Ġkud ret
Ġolun an
lÄ±k larÄ±n
Ġkaynak larÄ±nÄ±n
ĠaÅŁ amasÄ±
Ġ9 3
Ġdiz isinde
Ä±z da
ac ag
Ġmut luluÄŁu
Ġn Ã¼s
Ġbesin ler
Ġdil le
Ġm Ã¢n
ĠP eter
Ãĸ l
Ġpolitik alar
Ġmalzem elerin
Ġ iri
Ġtitiz likle
Ġmiktar larda
Ã¶mer t
ĠiÃ§eri de
ĠkÄ±s Ä±mda
AZ AR
oz u
ĠTaÅŁ Ä±ma
Ġbit miÅŁ
ĠKom p
ro z
. }
ĠKer em
ĠÄ°htiy aÃ§
Ġarm aÄŁan
Ø ³
ĠG ran
istan bul
P OR
Ġip ucu
iliÄŁ inin
r ic
Ġfiyat tan
af Ã¶r
K Ä±lÄ±Ã§
Ġbil anÃ§
ĠTÃ¼ket ici
Ġotur t
Ġbol ca
Ġekib in
te gr
Ġann enin
ĠdÃ¼ÅŁ kÃ¼n
wit ch
Ġ ler
o e
Ġsaf h
ĠsarÄ±m sak
Erz urum
Ġc Ä
Ġdil edi
ĠEngel liler
Ã¶r neÄŁin
am Ä±yoruz
Ġkullan acak
Ġk ub
ĠkÄ±l mak
Ġar om
Ġaltyap Ä±sÄ±
ĠÃ¼rÃ¼n e
ĠL Ã¼t
liÄŁ indeki
ĠgÃ¶r kem
Ġf ederasyon
ĠH adi
Ad alet
ĠÅŁah si
ĠDevlet in
ĠKam era
Ä°nsan lar
Ġt om
Ġsav cÄ±
iyor dum
ĠbÄ±rak Ä±l
Ġkal masÄ±nÄ±
ĠM im
Ġduyur u
ort h
Ġsek ret
ena ult
a x
ĠÅŀ afak
ĠyÄ±k Ä±m
ĠTaÅŁ Ä±m
ĠkÃ¼t l
lay alÄ±m
ĠÄ°ÅŁ in
Ġgid iyoruz
Ġfir maya
u al
as an
t atÃ¶r
Ġhesab Ä±nÄ±zÄ±
ĠgeÃ§ tikten
ĠAfyon karahisar
ÃľLT ÃľR
Ġcid diye
Ġgetir me
Ġp ed
ĠdÃ¼ÅŁ me
ĠBÄ°L G
oc h
ĠSt ok
ĠbaÅŁk asÄ±
ĠSanat lar
ĠM ul
ĠbÃ¼yÃ¼k ÅŁehir
ĠL atin
ĠV PN
Av ust
ob el
ĠM uz
Ġak sak
av ig
Ä±rs Ä±n
Ġt ik
ĠvÃ¼c udu
Ġol a
ĠG Ã¼
Ġyet kin
v est
iy eri
ĠT una
lendir mek
ĠbaÅŁvuru lar
ĠÃ¶ner irim
ĠgÃ¶rev lerini
ĠiÃ§ mek
Ġcumhur baÅŁkanÄ±
Ġdiler seniz
ĠR iz
ĠgÃ¼neÅŁ in
c asino
p lay
v ekk
ĠyaÅŁ larda
Ġgecik me
ĠGay rimenkul
Ġdin leme
Ãĩ EK
Ġf eda
ĠMacar istan
l ekli
Ġide olojik
Ġplan lÄ±
Ġbelirt ildiÄŁi
Ġ9 2
po ol
g or
Ġeden lerin
Ġverim liliÄŁi
GerÃ§ ekten
Ġvah ÅŁi
Ġor g
ĠÃ¼Ã§ lÃ¼
Ġes kisi
Ġneden lerden
al Ä±ÄŁÄ±n
ri ce
ĠM Ä
ĠkÄ±sm Ä±ndan
l ut
Ä°L DÄ°
8 00
ĠgÃ¶z etim
Ġtelefon da
Ġkr istal
Ġbul manÄ±z
ĠgÃ¶rÃ¼ÅŁ tÃ¼
ĠK uv
c ev
ĠÃ¶z Ã¼
Ġgel din
madÄ± lar
ĠEnd Ã¼str
HiÃ§ bir
uÅŁtur ma
lam Ä±ÅŁtÄ±
ĠaÃ§Ä±k ladÄ±ÄŁÄ±
ĠTarif leri
ĠÃ§Ä±k acaktÄ±r
ĠP OL
Ġmensup larÄ±
ĠÃ§ab al
Ġbin alar
ĠV is
ĠyapÄ± larÄ±n
Ġbilg ilerine
ĠdoÄŁ anÄ±n
ĠSur esi
ĠK Ä°Åŀ
ĠyardÄ±m a
Ã¼st e
Ġkazan masÄ±
h ip
Ġzengin lik
ĠBÃĸL ÃľM
ĠalÄ±n masÄ±nÄ±
ov ic
Ġm ore
ĠM Ã¼r
k Ä±z
en en
ĠgerÃ§ekleÅŁtir ilmesi
? ..
iyor sun
Ġyapar sanÄ±z
ĠaraÅŁtÄ±r masÄ±
Ġasker ler
T al
Ġyiyecek ler
ĠayrÄ±ntÄ± larÄ±
Ġbul abilir
ĠmÃ¼lt eci
Ġbur ayÄ±
Ġic at
Ã Ń
Ġmon itÃ¶r
ĠN em
Ġbelirt iler
ĠkÄ±ÅŁ Ä±n
ĠMer cedes
Ġst abil
A J
Ġsit elere
ĠgÃ¶r mektedir
um i
at aÅŁ
ĠY ORUM
Ġfav ori
ĠKal em
ĠC omp
mey eceÄŁini
ĠBaÅŁkan vekili
Ġdokun uÅŁ
j ik
ĠSonr asÄ±
Ġay aÄŁ
Ġbilet inizi
de x
s Ã¶rÃ¼
Ã¼lÃ¼ ÄŁÃ¼
Ġkol esterol
ĠsÃ¶zleÅŁ meli
Ġtaraf lar
Ġkurul duÄŁu
ĠSa id
ĠmÃ¼ÅŁter iye
Ġhaft aya
ĠGÃ¼mÃ¼ÅŁ hane
ĠÃ§ab asÄ±
ĠHAK K
ĠhÃ¼cr eleri
Ġkur tarÄ±
ĠEr oÄŁlu
Ä±yor sun
N ur
oparl Ã¶r
w eb
Ġ4 50
ĠÄ° HA
ĠdÃ¼ÅŁÃ¼n meye
Ġat anan
ĠhemÅŁ ir
z ar
Ġfiyat larÄ±nda
end ek
lek si
Ġp ip
Ġmadenc ilik
Ġanlat Ä±lan
ta da
Ġmol ekÃ¼l
ind ek
O F
Ġvurgul ayarak
Ġhayvan larÄ±
Ġseyir c
Dik kat
Ġtedav iye
Ġd ata
BÃ¶l Ã¼m
Ġbul duk
Ã Ħ
ĠT AÅŀ
ĠÃ§alÄ±ÅŁmalar Ä±mÄ±z
oÄŁ az
ĠÃ¼retic ileri
ĠNew s
ĠBÃ¶lg esel
Ġred de
meler e
ĠkoÅŁ u
ĠPRO J
Ġduygu lar
ĠY asin
Åŀ im
af fer
Ġsend ika
ĠE fes
ĠMÄ ±
Ġakl Ä±nÄ±za
Ġl as
ĠS up
Ġhareket in
Hakk Ä±mÄ±zda
ĠAs lÄ±
ĠoluÅŁtur abilirsiniz
Ġkullan dÄ±m
Ġzann ed
Ġtav r
Ġre el
ĠBakan lÄ±ÄŁ
ĠgÃ¶ÄŁ s
Ġs ik
ĠÃ§ek ilmesi
Ġzir ve
ĠgeÃ§ ersiz
Ġaz ami
Ar t
Ġyol lardan
ĠEs er
ĠM B
Ġkapital ist
Ġisteyen lere
) -
Ġkazan mÄ±ÅŁtÄ±r
adÄ±k tan
u de
land iya
ĠarkadaÅŁ larÄ±m
tÃ¼ el
Ġediyor sunuz
ĠÃ§eÅŁit liliÄŁi
t il
n ez
r ab
Ġc is
ĠFilm i
IN IZ
IL DI
ĠB eyin
Ġfil tre
ĠKaz akistan
ir siniz
Ġyitir di
Z ir
Ġfirmalar Ä±nÄ±n
Ġiz liyor
ĠBir eysel
r usu
ĠtÃ¼m Ã¼yle
R P
Ġli beral
Ġtem s
ph p
b Ä
ĠB AS
Ġseg ment
Ġs ilme
ĠdÃ¼ny adan
in di
Ġtut up
ul uÅŁ
ĠO P
ĠKon yaspor
Ã¼n ye
ĠUlaÅŁ Ä±m
Ġetkili dir
ĠGÃ¼n Ã¼n
ĠmaÄŁ lub
ĠY PG
Ġtamam Ä±nÄ±n
Ġkazan acak
Ä±r dÄ±
ĠUy gur
oci al
ĠtuÅŁ una
Ġek ÅŁi
Ġfor vet
Ġmekt ubu
ĠtaÅŁÄ± dÄ±
Ġp Ä±rÄ±l
liÄŁ imiz
Ġsenin le
Ġyap malÄ±
ĠKullanÄ±cÄ± lar
ĠalÄ±n acaktÄ±r
ĠBaÅŁkan lÄ±k
Ġ10 1
Ġfonksiyon u
ĠmÃ¼dÃ¼r lÃ¼k
ĠÃ¶lÃ¼m e
ĠTak Ä
Ġbir iyle
ĠV illa
O f
Ġkamer asÄ±
Ġincel emesi
Ġn Ã¶r
ONOM Ä°
Ġper forman
Ġbas Ä±na
Ġid rak
ĠsÄ± h
ĠmaÃ§ lar
Ġor anÄ±n
Ġsaat e
Ġziyaret e
ĠDen eyim
Ġt im
Ġt rak
Ġbil iyordu
Ġal acaÄŁÄ±z
ĠAk su
Ġad liy
ĠSa adet
is er
Ġenstr Ã¼man
Ġam p
lik dÃ¼zÃ¼
ĠL aborat
Ġpar ayla
ĠMimar lÄ±k
Ġbek leme
est el
ĠHal a
ĠhÄ±z Ä±nÄ±
ĠJ ean
ĠA car
ĠduruÅŁ u
ĠForum u
Ġal manÄ±n
Ġbilin ci
ĠseÃ§im inde
ĠyÃ¶net mek
Ġtak s
ĠgerÃ§ekleÅŁtir dik
ĠL akin
Ġb aya
Ġdiy enler
ĠÄ°lk okulu
ĠbaÅŁlayan lar
sik lop
ĠÅŁim diki
K uÅŁ
c iliÄŁi
Ġhaz iran
ĠkiÅŁ iyle
ĠTakÄ ±
Ġart tÄ±kÃ§a
P ay
ĠsÄ±nÄ±r larÄ±nÄ±
ĠAk bank
V C
ĠL uc
ĠMak yaj
pa gan
ĠEt ti
Ġettir en
Ġrakam larÄ±
ĠÃ§Ä±kar maya
ĠÄ±s Ä±nma
ĠFik ret
ĠD inÃ§
Ġkah verengi
S AL
ĠBakan lÄ±ÄŁÄ±nÄ±n
Ġman tÄ±ÄŁÄ±
Ġn ic
Ġsefer de
Ġisim lerinden
T AÅŀ
ĠK AM
T AK
Ä±ÄŁ Ä±ndan
Ð »
ĠoÄŁ ul
Ġtor b
ĠTÄ±p kÄ±
ĠbaÅŁar Ä±yÄ±
av gat
ĠK ES
Ġderec esi
Ġfaaliyet i
El azÄ±ÄŁ
asyon el
ĠgeÃ§ mektedir
ĠÄ°ÅŁ e
ĠÅŁer it
Ġhar ici
abilm iÅŁ
g ed
Ġol acaÄŁÄ±m
Ġs tÃ¼dyo
ĠMer yem
Ġlev h
ĠÅŁ ut
ĠÄ°d lib
Ä° OP
t Ã¼n
ĠBil et
ĠG Ãĸ
Ġnumar asÄ±nÄ±
Ãĩ ek
Ġver ilerek
ĠgerÃ§ eÄŁe
ĠM id
Ġs tand
Ġan kara
Ġem tia
Ġiler ley
Ġalan larÄ±nÄ±
j et
ĠdeÄŁiÅŁtir ilmesi
ĠP ers
ĠÅŀirket in
L Ã¼tfen
miÅŁ ler
Ġmilyon dan
Ġdetay larÄ±nÄ±
Mis afir
dÃ¶n Ã¼ÅŁ
Ġdurdur ul
d k
ĠDÃ¼zen leme
D UR
ĠS end
Ä°ngil iz
ĠbÄ±rak Ä±lan
Ġyararlan arak
P eygamber
ĠSar Ä±k
ĠÃ¶f ke
Ġanaliz ler
ĠyÃ¶ntem iyle
Ġmo tif
Ġavantaj lar
ĠseÃ§ erken
ĠĠ Ċ
ĠTer c
ĠAk l
iyet in
ĠsaÄŁlan acak
ĠsÄ±z dÄ±r
ĠK ale
liliÄŁ inin
ĠJo se
ĠvatandaÅŁ larÄ±mÄ±z
ek onomik
S ol
y id
Ġtakv iye
Ġduy uyorum
ĠK Ä±lÄ±
Y as
Ġc asus
iÅŁ sel
Ġrenk te
Ġmerkez inin
ĠoluÅŁ muÅŁ
ĠÃ¶ÄŁren meye
Ġhan i
Ġsev diÄŁiniz
Ã§ ik
ĠyalÄ± t
Ġb ack
ĠKÃ¶ pek
ben im
Ġtah amm
Ġkampany alar
Ġkims eler
ĠD ini
ĠMÃ¼dÃ¼r lÃ¼k
Ġperiy ot
Ġder inden
b ook
Ġh d
Ġorant Ä±lÄ±
Ã¢ let
ĠK O
G Ã¼Ã§
ĠhatÄ±rlat tÄ±
M IÅŀ
ĠKend isine
Ġkonum una
Ġreng ini
ĠÃ§oÄŁ unun
ĠKon uk
ĠÄ°r landa
Ġbelg elerin
Ġsanat sal
ĠÃ§alÄ±ÅŁ Ä±p
ĠgerÃ§ekleÅŁtir ilir
Ġtop ladÄ±
ĠGÃľ VEN
ĠtanÄ±ÅŁ ma
ĠYat ak
ĠD ec
ĠkÄ±lÄ± f
Ġgrub una
Ġdir enc
Has an
G O
ag a
ĠÅŁiÅŁ e
ĠgeliÅŁim ine
Ġver diklerini
r r
Ġdedik odu
Ġbal Ä±ÄŁÄ±
Ġumu du
Ġel inizde
ĠmaÄŁ ar
Ġbecer ileri
ĠdoÄŁru dur
S Ä±k
Ġrisk ler
En d
ĠSigort asÄ±
bÄ ±
d ullah
ĠoluÅŁtur maya
Ġay akkab
ĠYap Ä±lacak
ĠKarab aÄŁ
Ġiler liyor
ĠT ef
yÄ±l dÄ±z
Bay ram
ĠendiÅŁ elen
Ġhat larÄ±
Ġul uslar
em elen
â Ħ¢
Ġhast alarÄ±
ec eg
G EB
Ġtutar lÄ±
Ġfas ul
Ä±l Ä±ÅŁÄ±
ĠaynÄ± dÄ±r
ĠsaÄŁlam Ä±ÅŁtÄ±r
Ġcil de
ic tor
Cevap la
S ultan
ĠÄ°c ra
ĠyapÄ±l malÄ±
ĠKal k
Ġard Ä±nda
oÄŁ ullarÄ±
Ġmanz ara
ĠbaÄŁlam Ä±nda
sey di
En erji
Ġc ahil
ĠÅŁekilde dir
ĠD ip
Ä±mÄ±z daki
ĠbÃ¶yl esi
ĠÙ Ī
ĠÅŁirket lere
ĠToplum sal
ĠTek stil
iÅŁ Ã¶rt
Ġn isan
ĠEski den
ĠAy lÄ±k
Ġkullan Ä±yoruz
ilm emesi
ĠÃ¶ le
Ġlan et
ĠKar arÄ±
Ġal abileceÄŁiniz
ĠM AL
Ġh ib
ĠamaÃ§ larÄ±
ĠÃ§alÄ±ÅŁ masÄ±na
alan dÄ±
ĠÅŀ ener
Ġistis n
ĠyÃ¶n Ã¼nÃ¼
aÄŁ aÃ§
ĠÅŀÃ¼k rÃ¼
K ork
Ġyaz Ä±cÄ±
ĠEg emen
ĠÅŁÃ¼k ran
ĠÃ¼retim in
ĠÃ§oÄŁun luk
Ġinternet e
ĠO v
m Ã¼n
Ä°Ã§ iÅŁleri
ĠMod eli
ĠBun lara
ĠkÃ¶y de
Ġol salar
b Ã¼l
ĠiÅŁaret lenmiÅŁ
D olar
ĠAf rin
Ġdayan Ä±ÅŁ
ĠHak im
ĠÅŀ Ã¶yle
M P
el eyen
li e
ĠÄ° mar
M AY
ab ildi
Ġ17 0
Ġform unu
ĠgeÃ§ir mez
Ġbil eÅŁik
Ġsandal ye
eceÄŁ imizi
ost al
Ġver ebilecek
ĠAÄŁ aÃ§
ĠyÃ¼k s
Ġar amÄ±zda
Ġtoprak larÄ±
ĠyatÄ±rÄ±m larÄ±n
C ep
Ġy il
b ed
ĠSah il
ĠT ru
ĠGal eri
ĠOk uma
ĠfÄ±r tÄ±na
ĠHav acÄ±lÄ±k
sc he
Ġg u
lik e
ĠBiz de
ĠT ro
Ġgec enin
ĠM ans
ĠgÃ¶rm edim
Ġmak ro
Ġver ildiÄŁini
t he
h oÅŁ
ĠÃ¶z eti
Ġtel aÅŁ
ĠyÃ¶netim ini
ĠÃ§iz giler
ĠOl mak
Ġbil diÄŁiniz
ĠÃ§ift Ã§iler
Ġkav r
D D
Ġap ar
Ġzar ara
ĠalÄ±r lar
ĠÅŀ iÅŁ
Ġgrup larÄ±n
ilm esinden
U Ãĩ
ĠseÃ§im de
da d
Ġdevlet inin
Ġsit eden
man n
ĠÃ§if ti
Ġilk esi
Ġkurum a
2 50
Ġtap u
ĠÂ °
ĠY TL
Ġkut lama
Ġist ekli
iy es
Ġgr ip
sel am
Ġmilyon a
Ġtah rip
ĠÃ§evir di
Ġgez ilecek
ĠmÃ¼h Ã¼r
ĠG ame
las Ä±n
Yunan istan
ĠÄ° Ã§i
Ġmo tive
el iyim
Ġan est
ĠgeliÅŁtir en
ĠiÅŁit me
Ġperiy odik
ĠZ inc
Ġpiyas alar
ĠbÃ¼yÃ¼k tÃ¼r
ĠdavranÄ±ÅŁ lar
uv arÄ±
YukarÄ± daki
Ġal acaktÄ±r
Ġtermin al
ĠV iyana
ĠM AH
Ġazal masÄ±
ĠÃ¶mÃ¼r lÃ¼
ent s
Or gan
Ġruh unu
d unun
Ġedilm esinin
ĠYas al
ĠÃ§Ä±k tÄ±ÄŁÄ±nda
ĠS ami
Ġbur da
Ġpar asal
Ġdeneyim ini
ĠgeÃ§ miÅŁtir
ĠgÃ¼Ã§ lerin
ĠDE AÅŀ
Ġk ili
ĠsaldÄ±rÄ± lar
ĠDuy gu
ta ge
Ġusul Ã¼
Ġilet iÅŁimi
ol f
aÅŁ ma
ĠiÃ§er diÄŁi
Ġd at
Yar dÄ±m
ĠÄ°lk Ã¶ÄŁretim
Ġordus unun
ĠkÄ±sÄ±t lam
ĠmÃ¼zak ere
ĠÄ±srar la
Ġpat lat
ĠsavaÅŁ ta
ĠKAR Åŀ
Ġbil hassa
Ġuyar dÄ±
m Ä±yoruz
Ġazal Ä±r
S enin
Ġkorun ma
Bir az
Ġs wap
Ġik isinin
Ġsayf alar
ĠAkadem ik
Ġ19 20
ĠR ey
Ġbah Ã§esi
at tan
den t
Ġd Ä±r
Ġortak lÄ±ÄŁÄ±
m ud
Ġl iteratÃ¼r
ĠDir ektÃ¶r
Ġ198 9
ĠM AN
Ġyaz arlar
K ayÄ±t
ĠmaÃ§ Ä±nÄ±n
G I
Ġmen z
AÄŀ I
ĠY rd
ĠAr asÄ±
Ġdosy asÄ±nÄ±
Ġkur utma
ĠB T
A dam
Ġman ip
Ġbul acak
ly wood
ran Ä±ÅŁ
R U
Ä° talya
Ġtah Ä±l
y ok
ĠSonuÃ§ larÄ±
ĠdÃ¼zenlem esi
Ġolmak tÄ±r
Ġgir erken
Ġyet eri
m Ä±yordu
ĠA ley
Ġsev giler
P osta
ĠB IST
ti an
ĠR Ã¼ya
ĠGÃ¼n dÃ¼z
ĠyÃ¶net tiÄŁi
leriniz le
ĠT ren
Ġd ul
Ġetk iye
Ġservis leri
Ġk is
il eÅŁ
ĠyÃ¶net mel
Ġis raf
Ġfav or
Ġ10 80
ĠMad en
Ġkor u
iv i
ĠiÃ§ sel
Ãĩ ar
ĠbaÅŁk alarÄ±na
Ġder se
ðŁ ĵ
ĠAl ternatif
ĠMak al
H edef
Ä±yor sa
Ġih lali
ĠÃ¶n Ã¼nden
ul aÅŁtÄ±r
Ġdur madan
mamÄ±z a
ĠV il
ĠsaÄŁlamak tÄ±r
ĠÃ§Ä±k madan
ĠYaÅŁ lÄ±
Ġiz lerken
at Ä±na
ĠAÅŁ Ä±rÄ±
iy eye
ĠMaÄŁ az
Ġmillet e
ĠdoÄŁ aya
Ġ aman
ĠiÃ§eriÄŁ inde
H atay
ĠM r
Ġolmam asÄ±na
ĠgÃ¼nde mi
ĠhastalÄ±k lara
Ġyararlan abilirsiniz
ĠN us
v eti
Mod ern
il ince
P O
Ġverilecek tir
Ġkurum lara
w ord
G Ã¼r
Ä±r sanÄ±z
ĠÄ°z in
Ġn i
an sta
ĠtaÅŁÄ±m acÄ±lÄ±ÄŁÄ±
ĠaÃ§Ä±k Ã§asÄ±
ĠdeÄŁerlendir mesinde
Ġ12 8
ĠiÅŁ lenen
ĠkÄ±yaf etler
edik ten
ĠyetiÅŁtir mek
F I
ec an
Ġolabilir di
Ġyap manÄ±zÄ±
Ġolay la
o te
ĠSaÄŁ lam
Ġb atÄ±r
Ġdik ey
Her hangi
ĠbaÅŁladÄ±ÄŁ Ä±nda
Ġoyuncu lara
Ġmakam Ä±nda
and o
Ġkadem eli
Ġan ma
TM L
BaÅŁ ar
Ġetm elidir
Ġoran larÄ±nÄ±n
iy eleri
ĠiÅŁ lenmiÅŁ
V I
Ġedebilir iz
ekt Ã¼el
ĠÃ§Ã¶zÃ¼nÃ¼r lÃ¼k
Ġb unda
ĠYÄ±l Ä±n
Ġport akal
ĠDub laj
ĠiÅŁlet mec
ĠF ur
ĠgÃ¶ster isi
id ge
ĠOn ay
emey eceÄŁini
K Ã¼t
ĠyayÄ±nlan acak
Ġdosy ayÄ±
an ne
Ġsilin dir
ĠsabÄ±r sÄ±z
G al
ĠYazÄ± larÄ±
ĠVar lÄ±k
ĠBen de
ĠÃ¶z gÃ¼ven
ĠBil gisi
es te
OLOJ Ä°
ĠÃĸ lÃ¼
S IZ
leÅŁ menin
ĠYazar lar
ĠBet s
P D
ĠsonuÃ§ larÄ±nÄ±n
Ġtemel li
Ġdik iÅŁ
ĠyÃ¶ntem lerini
out h
ub a
ĠD ÃľZ
Ġmerham et
Ġip ek
Ġiz lemeye
ĠyayÄ±n larÄ±
Ġark aya
Y Ã¼r
P as
ĠN ap
oÄŁ a
Ġver elim
ĠMev lÃ¼t
Ġal alÄ±m
ĠgÄ±d alar
ĠyÃ¶netim in
ĠÃ¶yl esine
ĠÃ¶nc Ã¼lÃ¼k
GÃľN CEL
ĠyaygÄ±n laÅŁtÄ±r
ĠÃ¼stÃ¼n lÃ¼k
ĠsÃ¶z leriyle
Ġlin ki
Ġkriz in
ĠkÃ¼ltÃ¼r Ã¼nÃ¼
mam aya
ĠÃ§arp tÄ±r
em an
ĠBaÅŁ ladÄ±
AT IR
Ġc umartesi
Ġer im
Ġr Ã¼yada
ĠpÃ¼rÃ¼z sÃ¼z
m aÃ§
ĠbaÅŁ larÄ±na
ĠAm ac
ĠD ivan
Ġser isinin
ĠdÃ¼ÅŁÃ¼nc eleri
Ġis min
ig ital
Ġtalim atÄ±
ĠI ÄŁdÄ±r
ĠB AÄŀ
ĠÃĩocuk larÄ±n
ĠÃ¶ncÃ¼lÃ¼ÄŁ Ã¼nde
ĠgÃ¶r erek
ĠTal ep
ĠMÃ¼dÃ¼r lÃ¼ÄŁÃ¼ne
ĠEn erj
Ġl Ã¼z
Ġbelir ledi
v ay
Ġpaket leri
Ġyel ken
ĠMuh af
ĠZ ih
ĠPan demi
Ġsat Ä±l
ĠÃ§alÄ±ÅŁ tÄ±klarÄ±nÄ±
ĠulaÅŁ arak
ĠyapÄ±l mamÄ±ÅŁ
ĠH Ã¼k
Ġbitir di
Ġkut lu
Ġsayf asÄ±ndan
Ġr Ã¼t
gun luk
ĠM enkul
ĠOt omotiv
eg asus
Ġar adÄ±ÄŁÄ±nÄ±z
Ġyap Ä±sÄ±nÄ±n
ĠEn ver
col or
ĠGÃ¶r sel
ĠM eg
ĠLey la
ĠMer ak
on line
N ormal
Ġboyut ta
Ġdevlet lerin
ĠH atice
ĠRe is
ĠC adde
ĠyÃ¶r esel
SeÃ§ im
ub lic
Ġor jinal
ĠulaÅŁ Ä±labilir
ĠÃĩaÄŁ daÅŁ
ĠiÅŁÃ§ ileri
Ġanlam Ä±ÅŁ
ĠTÃľ BÄ°TAK
Ġyay Ä±nÄ±
Ġes rar
Ġgiz emli
Ġpro pagan
ĠTesis leri
Ġfi ili
Ġmar j
H Ã¼rriyet
ĠX box
ĠdaÄŁÄ±t Ä±mÄ±
Ġuzun luk
ĠadlandÄ±r Ä±lÄ±r
ĠY ÃľZ
Ġdiz Ã¼stÃ¼
B odrum
ĠartÄ±r an
ĠÃ¶z deÅŁ
Ġboy ama
ĠÃ¶ÄŁrenc iye
ĠRenk li
Ã¼l ya
Ġbahset mek
Ġrisk e
ĠÃ¼cret ler
ĠKap ak
Ġver meniz
ĠUY GUL
g Ã¼zel
ĠS esi
BÃ¶yle ce
ĠS k
d as
R AN
ĠDEÄŀ ER
Ġkaz ada
Ġedil eceÄŁi
ĠAc aba
ĠO m
E din
ĠGÃ¶r mek
ĠyapÄ±l mak
Ġgider leri
Ġedeb ilm
ak ip
Ã§ ocuk
ÅŁ er
Ġdiplom atik
ou ch
ĠyanÄ±t Ä±nÄ±
if ik
Ġder gisi
ĠUlu daÄŁ
ĠkullanÄ±l abilecek
d eleri
Ä° r
Ġetk isinin
Ġr a
p l
Ġdil ini
ĠÃĩukur ova
T asar
ĠkÃ¼ltÃ¼r Ã¼nÃ¼n
Ġtas dik
Ġbl ack
Ġger eÃ§
Ġm eg
siz liÄŁi
ĠbÄ±rak ma
LEM E
Ġkon f
D ir
ĠÃ¶rgÃ¼tÃ¼n Ã¼n
ĠtartÄ±ÅŁ maya
p en
Ġabon elik
Ġyat kÄ±n
b eli
ĠC oÄŁraf
ĠÃ¶ngÃ¶r Ã¼l
c ast
ĠmÃ¼te ahh
iP hone
ĠÃ¶ldÃ¼r dÃ¼
Ġsunul masÄ±
iv a
ĠÄ°n c
ĠI stanbul
ĠBil gin
ĠTop tan
Ġceza i
Ġgir miÅŁtir
Ġdayan Ä±r
Ġrek ab
ĠyapÄ±m Ä±nda
ĠBey koz
ĠL ise
Ġtal ip
ĠyÃ¼z Ã¼nde
Ġet men
D IM
ĠhazÄ±r layan
mit h
Ġsorunun un
Ġn emli
ĠhazÄ±rlan mÄ±ÅŁtÄ±r
ĠsÃ¶zleÅŁ meleri
Ġsipar iÅŁi
ĠS ci
ilir se
ĠdÃ¶n mÃ¼ÅŁ
ĠÃ¼z Ã¼nt
KÄ±r mÄ±zÄ±
Ġin kar
ey l
ĠP u
ĠT y
ĠAh ÅŁap
ĠÃ¼lk emizi
1 000
ĠF ederal
ES CO
Ã¢ li
Ã¢ tÄ±n
Ġreklam lar
ĠGerek en
Ġyakal adÄ±
Ġkor uyor
ĠAv antaj
Ġetkin leÅŁtir
ĠKr em
Ġve f
AV A
ĠsÄ±r asÄ±
Ġof f
ĠHal ep
Ġmuht ev
ĠbaÅŁlar ken
Ġdiren ci
Ben zer
Ġmec r
Ä°T E
ĠKal Ä±n
ĠW est
Ġfil ozof
Ġtemel de
Ġdil inde
ĠV eya
Ġdestek liyor
ĠyÃ¶netim indeki
Ġd iÅŁi
ĠO kan
Ġyan daÅŁ
ĠDetay lÄ±
Ġt raj
ĠAt Ã¶ly
ĠEr gen
Ġnumar alarÄ±
ĠF X
may arak
ĠAt illa
ĠfÄ±r Ä±nda
ĠTasar Ä±mÄ±
Ġak ar
ĠHak em
ĠK ek
uy an
Ġoran larÄ±nÄ±
Ã µ
Ġr ec
ĠÃĩ Ã¶
im deki
ĠD C
ĠB ilm
Ġotur uyor
C Ãľ
Ġolur um
ĠC y
ĠAl Ä±nan
Ġkarar lÄ±lÄ±k
Ġhaf Ä±za
Ġtem a
Ġyolc uluÄŁu
uluÄŁ unu
ĠÃ ®
ĠÃ§ alan
D AR
Ġkom edi
Ġyap Ä±cÄ±
ĠÃ¼ret ken
Ġfa il
Ġy eÅŁ
ĠkoÅŁul larÄ±nÄ±
ĠÅŁekl ini
ti hat
Ġy Ä±rt
ĠÅŀ iÅŁli
ĠOs car
y y
Ġmotor lu
Ġev lerde
t ayÄ±
Ġkesi ci
ĠÄ° ade
Ġz av
Ġtraf iÄŁe
ĠdeÄŁiÅŁ ebilir
k iÅŁi
Ġvar Ä±ÅŁ
Ġal Ä±c
es an
ĠkarÅŁÄ±laÅŁ ma
Ãĩ ay
ĠdolandÄ±r Ä±cÄ±lÄ±k
ĠSan Ä±rÄ±m
Ġel imizde
1 20
ĠBlu etooth
id di
Ġtemiz len
Ġham am
ĠÃ§iÃ§ eÄŁi
Ġrast lan
ĠkaÃ§ tÄ±
ĠÃ¼rÃ¼n lerde
ĠKaz a
Ġfa izi
ĠOf fice
ec tion
ĠÅŁikayet ler
eh ra
Ġbit iÅŁ
ĠEk mek
ĠdoÄŁ muÅŁ
cÄ±lÄ±ÄŁ Ä±n
Ġcenaz esi
elen miÅŁ
bo ard
Â ©
Ġbuzdol ab
DeÄŁ erli
ĠbaÄŁ Ä
B ET
ĠbaÄŁÄ ±
ĠÃĩan ta
Ġdeh ÅŁet
Ġgec ede
Ġdo main
ĠR ezerv
ĠyÃ¼z leÅŁ
dur ma
d Ã¼nÃ¼z
N ev
Ġel diven
ad Ä±nÄ±z
ĠGiz li
Ġc anÄ±
ĠgeliÅŁmeler e
Ġsokak larda
yon u
ĠÄ° ler
ĠP rom
LAR AK
Ġyaz Ä±mda
ĠbÃ¼yÃ¼m eye
Ġef ekt
Ġh ort
ĠÄ°nsan Ä±n
ĠHab eri
luÄŁ undan
ĠyayÄ±mlan mayacak
Ġp al
ĠÃ¼r etir
Ġdal Ä±nda
ĠTol ga
j pg
ĠdeÄŁer ine
Ġbas arak
ĠkÄ±v r
Ġfot ok
b Ã¶l
ĠÃ§eÅŁit lilik
Ġsaat ten
ĠÃľzer inde
Ġas lan
Ġgelir ler
Ġreh beri
ĠTop luluÄŁu
BalÄ±k esir
ĠVen edik
ok al
fi eld
Ġdosy alar
eb ap
Ġ9 1
Ùİ Ùĳ
b Ã¼yÃ¼k
Ġoyn ayarak
B eÅŁ
ag anda
Ġpro fesÃ¶r
GÃľN DEM
Ġh Ã¼rriyet
Ġmutab akat
Ġnas il
Ġoy u
Ġtab los
ĠMal ta
ven in
Ġyer lerin
Ġr ay
Ġtop lar
Ãĩ Ä°
ĠÃ§ Ã¶l
ĠB ec
ĠÃ§oÄŁ unu
Ġbil diÄŁim
ĠDub ai
Frans Ä±z
Ġbildir en
ĠEdebiyat Ä
ĠEdebiyatÄ ±
Ġopt imize
T abi
200 1
ĠX iaomi
ĠgÃ¼ veni
aÄŁ Ä±mÄ±z
ĠanlaÅŁ Ä±lan
ĠyatÄ±rÄ±mcÄ± larÄ±
ĠMal tepe
Ä°B Ä°
M Ä±sÄ±r
ĠUR L
ĠdeÄŁiÅŁ mektedir
Ġteknoloj iyi
âĢĭ âĢĭ
Ġterc Ã¼m
ĠÃľst Ã¼n
ĠBat Ä±lÄ±
Ġhast aya
ĠterÃ¶r le
ĠF ree
Ġdev ri
' .
Ġoyun larÄ±na
ĠhÃ¼kÃ¼m dar
Ġp h
ĠgÃ¶rev inden
ĠAl ma
Ġsak lama
ĠtaÅŁÄ±n abilir
Â ±
ĠgÃ¶ster in
Ġses ler
elen en
Ġamac Ä±mÄ±z
k iye
Ġsim gesi
Tar af
ĠilaÃ§ larÄ±
ĠBÃ¼t Ã§e
Ġkullan Ä±cÄ±sÄ±
tiÄŁ in
ĠYÃ¶net icisi
Ġdar p
lÄ± larÄ±n
ĠkÄ±s Ä±r
ĠH uzur
ĠF r
Ġmiktar Ä±nÄ±n
ĠÃĩ im
Ġd r
Ãĩ oÄŁu
ĠKÃ¶ se
ĠBilim sel
er y
ĠIn n
ĠSor unu
Ġyer inin
ĠAn laÅŁmasÄ±
Ġyarar Ä±na
Ġyenil g
Ġeylem leri
Ġmik rop
g it
Ġal mayan
ĠparÃ§ al
Ġbedel ini
ĠK ayÄ±p
Ġsonuc unu
ĠS Ä°ST
Ġd alÄ±
Ġar at
ĠL at
Ġtah rik
tiÄŁ ine
Ġil le
amam Ä±ÅŁtÄ±r
ĠgÃ¶ster diÄŁini
ĠBÃ¼r osu
s pan
ĠMus k
Ġib ad
ĠF rag
Ä±m daki
Ġy aya
Ã¢r Ã®
Yak Ä±n
ĠBakÄ±r kÃ¶y
ĠKim ya
ĠTah ir
G ez
ĠOrgan izasyon
Ġs Ã¼
ĠdanÄ±ÅŁman lÄ±ÄŁÄ±
ĠherÅŁ eyi
Ù ĥ
ĠMer haba
ĠEÅŁ ya
Ġvar mÄ±
Ġsu larÄ±
li van
azÄ± t
Z aten
K eÅŁ
ĠMan chester
Ġd um
Ġuygulam alÄ±
Ġv illa
Ġsahn ede
ĠTes ti
ilen in
Ġhaber imizde
ĠMev lana
h ret
p ing
Ġgerek lilik
lÄ±ÄŁ Ä±ndaki
ĠM oÄŁol
. ),
ĠoÄŁ lunun
ĠAÃ§Ä±k lama
Ġsanat Ã§Ä±sÄ±
Â ¸
T EN
Ġyer lerinden
ĠgÃ¶nder ilir
BAÅŀ KAN
ĠtÃ¼r b
Ġen tel
ĠKÃ¼rt ler
ĠP iÅŁ
Ġkut ladÄ±
Ġetkil edi
Ġbel de
an der
Ġeser in
ĠSAÄŀ LIK
Ġgit me
ĠTrip Advisor
lat an
ĠÅŁark Ä±sÄ±
Ġmuv af
Ġy ed
ĠÃ¼stlen diÄŁi
Ġsistem atik
Ġz ed
m iyoruz
Ġart acak
Ġlik id
ĠsaÄŁ anak
ĠbaÅŁ lanan
K esin
ĠÃ§ocuk larÄ±mÄ±zÄ±n
ĠkapÄ± larÄ±
Ġsor gu
doÄŁ du
ĠdeÄŁiÅŁken lik
ĠÃ§eyr eÄŁinde
Ġtarif leri
Ġhav alimanÄ±
el eÅŁtir
ĠKah ve
ĠgÃ¶rÃ¼n Ã¼me
ĠtasarÄ±m lar
Ġistek leri
ĠyÃ¼z Ã¼k
Ġmodel inin
ar Ä±n
Ġar Ä±tma
Ġak aryakÄ±t
ĠBazÄ± larÄ±
v iÅŁ
ĠdeÄŁiÅŁtir di
ev her
T rans
ĠgerÃ§ekleÅŁ tiÄŁi
ĠAÃ§ Ä±lÄ±ÅŁ
ĠÃ§or ap
Ġg eb
ĠaraÅŁtÄ±r mada
ĠLe on
Ġzor laÅŁ
Ġdol an
ab at
Ġgerek ecektir
Ad res
Ġsuik ast
ĠGeÃ§ ir
ĠEn ter
C asino
Ġbak teri
ĠMuham met
ark adaÅŁ
ĠÃĸÄŀ REN
Ġat let
eyz aj
ĠAn ket
ĠyaÅŁ a
Ġkes ildi
ĠGÃ¶rÃ¼nt Ã¼leme
ĠBus iness
ĠetmiÅŁ lerdir
acaÄŁ Ä±n
Ġyum ruk
ĠGER EK
ĠkatÄ±lÄ±mcÄ± larÄ±n
Ġokul larÄ±
ĠkÄ±z gÄ±n
ĠeÄŁitim ine
F Ä±r
S iyah
Ġetkiley ecek
ĠyaÅŁ Ä±yorum
Ġduy muÅŁ
ĠilÃ§ esindeki
eler inizi
Ġbin alarÄ±n
ĠSar Ä±yer
Ġin ovasyon
Ġkelim esinin
ĠaÃ§Ä±k lÄ±k
m ese
Ġal abilecek
Ġder e
Ġboyut larÄ±
liÄŁ imizi
Ġc ansÄ±z
ĠiÅŁ bu
Ġy Ä±ÄŁ
ĠF OR
ĠBir incisi
ĠÅŁehir lerde
ĠdeÄŁerlendir meye
B oÅŁ
Ġolm alarÄ±nÄ±
K emal
ĠÅŁans Ä±nÄ±z
Ġuy mayan
K ON
ĠBu da
ĠKut lu
ap Ä
ad il
id im
ĠY ET
Ġhareket inin
DoÄŁ um
ĠimkÃ¢n sÄ±z
al in
ĠÃĩin li
ĠdaÄŁ Ä±lÄ±mÄ±
Ġdah ili
ĠT ER
ĠÃ¶dÃ¼l Ã¼nÃ¼
ĠyansÄ± dÄ±
ĠKullan Ä±lan
dÃ¼k leri
Ġgel se
Ġma x
DÃ¼z en
ĠS Ã¶n
Ġp azartesi
ĠaltÄ±nda dÄ±r
ĠbuluÅŁ ma
ĠkÃ¶p Ã¼k
H D
Ã¼n eyt
Ġsayf anÄ±n
ĠiÅŁ lerine
Ġduv ara
Ġhal lerde
ĠW in
Ġc el
Ġberaber e
Ġizin siz
meler inin
Ġan onim
ĠTes pit
Ġsev gisi
ĠilaÃ§ larÄ±n
Ġdost um
ers em
ĠedeceÄŁ iniz
Ġlog o
Ġal fab
p il
ediÄŁ in
Ġverir ler
Ġdil iyoruz
Ġkural larÄ±nÄ±
Ġokuy arak
Ġgal er
ĠÄ±s lah
ĠÃ¶lÃ¼m cÃ¼l
ĠyÃ¼rÃ¼y en
ĠbaÅŁar Ä±sÄ±nÄ±
Ġtraf iÄŁi
evi ew
Ġdav asÄ±nda
Ã§ Ä±lÄ±ÄŁÄ±
Ġtab ur
EST EK
s Ä±k
ĠdÃ¼ÅŁÃ¼nm Ã¼yorum
ĠyaÅŁan acak
ĠyapÄ±yor sunuz
Ġail eye
K AL
Ġbek lerken
Ġpsik oloj
ij er
ĠÃĩ ant
ĠnÃ¼f usunun
ĠD S
ic le
Ġon da
St ation
ĠboÅŁ al
Ġilk eleri
ĠM aliyet
ĠÃ¶ldÃ¼r Ã¼len
ĠV oleybol
malar dan
z em
Ġolan Ä±n
ab ir
ĠKom bi
ĠyÃ¼r Ã¼me
ark i
ĠBe ach
Ġpiyas asÄ±na
Ġpaket leme
Ġteknoloj iler
ĠeÅŁy alarÄ±n
ab e
Ġsebep leri
ĠdeÄŁiÅŁ mesi
D igiturk
ad or
Ġyap malÄ±sÄ±nÄ±z
Ġm Ä±sÄ±n
ĠUy sal
Ġtur izmi
Ġiktis adi
Ġak Ä
ecek leri
apÄ ±
Ġl istem
Ġkurum larÄ±nÄ±n
ĠAy ar
ĠsÄ±r alar
Ġweb site
ĠÃ§alÄ±ÅŁmalar la
N AK
Ġart mÄ±ÅŁ
ĠÅŁah siyet
Ġdekor atif
ĠJ ava
ĠmutluluÄŁ unu
Ġol am
Ġisim lerden
ĠfÃ¼z e
Ġmed res
ĠÃ§ek mektedir
ĠV ize
ĠoluÅŁtur abilir
ĠY un
ĠkulÃ¼b Ã¼n
Ġsaniye de
ĠGÃ¼zel lik
Ġyap abiliyor
Ġalak asÄ±
eb ildiÄŁi
Ġoyunc uluk
ĠsÃ¶yley eyim
ĠBaÅŁ kent
Ġkil ise
ĠakÄ ±
ĠAT M
ĠÃĩift Ã§i
ĠgenÃ§ leri
ĠSan cak
Ġyoksul luk
Ġbak Ä±nÄ±z
Ġal Ã§
ĠG Ã¶n
Ġol abilmesi
Ġs eh
Ãĸr nek
Ġpah al
Ġne w
Ġgol le
Ġkazan Ä±lan
t l
Ġdestek lenen
Ġbirik imi
U Ã§ak
Ġ3 000
Ġsiteniz in
ĠEb ru
ĠÃ¼z Ã¼cÃ¼
ĠarkadaÅŁ larÄ±nÄ±n
M el
ĠLim anÄ±
sÃ¼z lÃ¼k
Ġetm emek
ĠarkadaÅŁ Ä±mÄ±z
Ġbirim lerinin
il y
Ġtab el
ĠÃ¼retim ine
ĠbaÄŁlantÄ± larÄ±
Ġb edeni
ust ik
ĠProt okol
Ã¼yor lar
Ġfin ale
ĠK azÄ±m
Ġk lip
Ġbay aÄŁÄ±
Ġhayat Ä±mÄ±za
Sar ay
d asÄ±nÄ±z
Ġmaks ad
Ġman yetik
ĠN Ã¶
Ġdom uz
Ġyap mÄ±yor
ĠD Ã¶k
OS GEB
ĠtÃ¼ket iciler
ĠR af
Ġolmas aydÄ±
Ġveriyor lar
Ġprogram lama
Ġd or
med iler
f uk
ĠyarÄ±ÅŁ masÄ±
Ġmet n
Ġhedef lerine
ĠkardeÅŁ lik
Ġtazmin atÄ±
ĠbÃ¶lg eden
eceÄŁ inin
Ġh adi
ĠEngel li
ĠÃ¼rÃ¼n lerden
T un
Ar ap
tal i
ediÄŁ ine
SaÄŁ lÄ±klÄ±
Ġtep e
Ã»l ullah
Ġders in
ĠK oy
Ġrom anÄ±
ay abilir
ĠHal uk
Mer habalar
ĠEr gÃ¼n
ĠÄ°n eg
ĠBah Ã§e
Ġtamam lamÄ±ÅŁ
B azen
) ""
Ġnokt ayÄ±
ĠmaÃ§ Ä±na
at Ä±nÄ±n
ĠhiÃ§bir i
Ġtamam lay
ĠvirÃ¼s Ã¼n
Ġar g
Ġkontrol Ã¼nÃ¼
kap Ä
ĠYet kili
kapÄ ±
ĠNil Ã¼fer
ĠI lÄ±
il an
ĠAlt yapÄ±
ĠAn talyaspor
ĠbÄ±rak Ä±yor
L O
Ġyapabilir iz
fet tiÅŁ
ĠAr ke
Ġar ar
ĠkÄ± lar
ĠSem ih
ĠMa alesef
Ġli gi
MÃ¼ÅŁter i
lan Ä±rken
ĠoluÅŁtur un
ladim ir
Ġkayn at
Res im
Ġs Ã¼l
acaÄŁ Ä±nÄ±za
Ä±l acaÄŁÄ±nÄ±
Ġkur alÄ±
ĠD osya
ĠÃ§ ip
ĠAt lan
ĠG iy
ĠYak up
Ġbit tikten
ĠfarkÄ±n dal
ĠsÄ± c
ĠSur vivor
Ġs ine
ĠbÃ¶lÃ¼m ler
ĠS ilivri
Ġseviy esinden
Ġlok al
ĠEs ra
ĠEnd Ã¼stri
ĠZ AMAN
ĠBil al
sub ay
ĠÄ°neg Ã¶l
ĠÃ¶n Ã¼
G az
Ġinsan lÄ±ÄŁa
ĠÅŁarkÄ± larÄ±
ĠHava alanÄ±
Ġgelen e
ĠKol tuk
ic es
ĠÃĩ eÅŁme
esi fik
Ġtutul ur
Ġend Ã¼stri
ĠhÃ¢l inde
Ġbank aya
Ġyap acaÄŁÄ±mÄ±z
ĠiÅŁ inizi
Ġviz esi
L AY
ĠyayÄ±n lar
Ġbul abileceÄŁiniz
Ġekip lerince
ĠgÃ¼ ver
ĠÃ¶r tÃ¼
Ġtest ler
ĠparÃ§ acÄ±k
Ġmuh aseb
Ġtah lil
ĠaÄŁ abey
lem eyi
Ġuygul ayan
C C
ĠdÃ¼ÅŁ ecek
Ġkaz asÄ±nda
ĠanlaÅŁ Ä±lmasÄ±
ĠBan yo
liliÄŁ ine
ÅŁ Ã¼r
! '
ĠEl de
Ġpozisyon da
ĠRes ort
ĠKaynak lar
Ġb is
B asÄ±n
ĠP ot
Ġsonsuz a
Ġay arlar
ĠUygulam alarÄ±
ĠdoÄŁr ulan
ĠK ub
ĠÃĩev ir
k um
Ġihtiyac Ä±m
Ġgetir mesi
ĠkardeÅŁ ler
lan dÄ±ÄŁÄ±nda
ĠtanÄ±k lÄ±k
Â Ķ
Ġiy iydi
Ġev cil
ĠÃ§ikol at
ĠÅŁah sÄ±n
ĠÃ§aÄŁr Ä±sÄ±nda
ĠHotel s
Ä±ÄŁ Ä±m
ĠyÃ¼rÃ¼ dÃ¼
Ġiddi anam
ĠÃ§erez ler
ib ar
lem eleri
ĠgeÃ§ir me
dik Ã§e
ĠC M
Ġs up
ad in
ĠdeÄŁiÅŁtir en
ez e
Ġingil izce
K it
ĠÃĸzgÃ¼r lÃ¼k
ĠgÃ¶rÃ¼n mÃ¼yor
ĠhoÅŁ uma
uÃ§ uk
Ġoyun larÄ±nÄ±n
Ġincelen diÄŁinde
eyt ing
Ġres ep
at r
Ġtoprak larda
han esi
Ġhesap lanÄ±r
ĠBel irli
ĠGre en
ĠkazandÄ±r mak
madÄ±ÄŁ Ä±nÄ±z
Ġfikr ini
ĠR ock
Ġtav iz
len t
ĠtÃ¼r ev
b Ã¼tÃ¼n
ĠÃľy eleri
ĠH ong
ĠS eti
om uz
ĠK HK
ĠaÄŁz Ä
ĠaÄŁzÄ ±
D B
ĠmÃ¼cadel esini
ĠfÄ±rsat ta
Ġgetir ilmiÅŁtir
ĠMar aÅŁ
Ġdep osu
Ġdir ektÃ¶rÃ¼
Ġisten di
sel en
D el
Ġsistem iyle
Ã» met
ĠÃĸz al
le ft
ĠyaÅŁan mÄ±ÅŁ
ĠsÄ±r rÄ±
C OM
ĠhazÄ±r da
em edik
ĠgÃ¶rkem li
ost Ã¼m
ĠLin ux
amil y
ĠSab it
Ġsit elerini
Ġfin an
SÄ ±cak
Ġhav adan
ĠtÃ¼ketic ilerin
Ġimz alÄ±
Ġyarg Ä±lama
ĠdeÄŁerlendirmeler de
diy se
Ġsen de
y Ã¶n
Ġkazan Ä±lÄ±r
Ġyenilen ebilir
Ġdakik alar
mey ecektir
Ġg am
ru Ã§
Å ¸
ĠMuhas ebe
Ġt weet
Ġcin si
Ġ2 20
Ġkup a
Kurum sal
Ġgazetec ilerin
ĠgÃ¼ ce
ĠBul varÄ±
N B
is iyat
ĠkonuÅŁtu ÄŁ
ĠMet a
Ġedilm eye
ĠyapÄ±l abilmektedir
ĠayÄ±r mak
n ova
ĠPh ilip
ĠpiÅŁir in
Ġken te
Ġem ret
Ġizley erek
Ġl ob
oc u
ĠkeÅŁfet mek
Ġtopr aÄŁÄ±
Ġbirim inin
ĠÃ§ift Ã§i
ĠÃ¶ldÃ¼r en
Ãĩocuk lar
Ġil ahi
ĠSivas spor
ĠkonuÅŁ macÄ±
Ġbek leyin
Ġnak li
Ġas istan
ĠTÃ¼rk istan
Ġnes ne
ti han
Ġbat arya
am alarÄ±
Ġhareket lerini
Ġkuzey inde
R AF
ĠBl ok
Ġn ey
Ġer dem
Ġp es
iy al
ak il
Kar ab
ĠB ang
ĠSÃ¼r esi
Ġt Ã¢
Ġdur up
ĠbasÄ±n cÄ±
Ġgelir leri
ĠÃ¼niversit eler
Ġciv arÄ±
ĠSur iyel
str Ã¼k
ÅŁ in
Ġil lerde
ĠM edia
ĠT Ã¼k
ĠÃ¶n leyici
Ġizley ici
ĠAs ayiÅŁ
ar c
ĠÃ¶lÃ§ Ã¼t
Ġal Ä±rsÄ±nÄ±z
ĠdeÄŁer lerin
ĠkonuÅŁ ur
ĠÃ¶l mÃ¼ÅŁ
Ġgergin lik
Ġtamam lanmÄ±ÅŁ
Ġetkin liÄŁe
ĠAn abilim
ĠChar les
ĠUy ar
ĠBab acan
Ġre al
Ġasker leri
Ì Ĩ
Ġcan Ä±nÄ±
ay nÄ±
b us
ceÄŁ im
ĠeriÅŁ ilebilir
S ektÃ¶r
H amil
ĠCumhurbaÅŁkan Ä±mÄ±z
ĠAngel es
bey li
ol sun
ĠmÃ¼ ess
Ġgiy dir
Ġd ist
ĠKul ak
Ġhav acÄ±lÄ±k
Ġsayg Ä±lÄ±
alt h
Ġdoktor lar
ĠC H
B oz
Ġay na
ĠK alan
Ġkullan madan
Ġistem iyoruz
ĠparÃ§asÄ± dÄ±r
ĠÃ¶l dÃ¼ÄŁÃ¼
L ink
D ers
Ã¼n cÃ¼sÃ¼
ĠS Ä±fÄ±r
il eÅŁtir
Ġsosyal ist
ah Ã¼r
Ġaz ar
ĠKol ye
ĠAb bas
ĠKil o
p ark
ĠdÃ¼zen e
ĠAn tren
ide m
ĠHaf if
ĠkÄ±v am
Ġiy im
ĠÃ§Ã¶k Ã¼ÅŁ
ĠY EN
asÄ± ya
Ġyan ma
EM E
ĠHal kÄ±n
ĠGÃ¼n leri
Ã¼m cek
ĠZor lu
ti ci
ĠbÃ¼yÃ¼k el
Ġpan eli
Ġedecek siniz
ĠNak liye
ĠsÃ¼r erken
Ġder b
ĠeÄŁ r
ĠP YD
Ã İ
Ġsun uyorum
Ġsiyas eti
Ġtab iri
ĠBoz kurt
ĠTab let
ĠD ans
iet nam
ĠDanÄ±ÅŁ tay
Ġkorun mak
Ġkavram larÄ±
Ġediyor sanÄ±z
Ġdilek Ã§e
Ġ5 000
ĠÅŁah sen
ni a
Ġdin am
Ä±laÅŁ ma
ĠÃ§or b
ĠL os
ĠT AM
ĠKut sal
Ġdeng esiz
ur ada
ĠalÄ±ÅŁveriÅŁ i
ĠStratej ik
ĠL ar
Ġgir dim
Ġkaynak larÄ±nÄ±
Ġyan larÄ±nda
Ġkir liliÄŁi
ĠfotoÄŁraf Ä±nÄ±
Ġmens ubu
ceÄŁ ini
b es
ĠNet work
Ġw ill
ĠH Ã¼c
Ġist asyonu
ĠdÃ¼ÄŁ Ã¼m
Ġrapor larÄ±
ĠkarÅŁÄ±laÅŁ tÄ±ÄŁÄ±
Ġduy duklarÄ±
R apor
Ġuygulam alarÄ±nÄ±
Ġayr Ä±ÅŁtÄ±r
Ġuzun luÄŁunda
ĠG AL
Ġard Ä±na
ĠAy asofya
ĠyaÅŁ Ä±n
Ġk uyu
Bar Ä±ÅŁ
ĠUz aktan
Ġpsik olog
Ġhikay esini
Ġayak larÄ±
ĠgÃ¶z Ã¼nÃ¼
ĠSov yetler
ĠedildiÄŁ inde
Ġelekt ron
Ġdok unun
ĠÅŀ ek
R AK
ĠpeÅŁ ine
Ġist emek
di p
ĠT ED
lÃ¼ ler
Ġkon us
Ġbozukluk larÄ±
ĠÃĸÄŁretmen ler
Ġan layan
Ġev lerin
ĠbÃ¶ lÃ¼
alat a
ĠÃĩ EK
ĠuÄŁr adÄ±
Ġuygul ayÄ±n
Ġolun masÄ±
ĠakÄ±ÅŁ Ä±nÄ±
Ġs Ã¼tÃ¼n
Ġproj esini
Ġzorluk lar
mÄ±ÅŁ lardÄ±r
Ġarac Ä±lÄ±k
E UR
Ġdeng esini
ĠpoÅŁ et
at la
Ġyapacak larÄ±
c insel
Ġyar Ä±ya
mez ler
Ġyarat ma
ĠfÄ±s Ä±l
ĠyayÄ±m ladÄ±
Ġay arÄ±
Ġsendrom u
Ġdoldur an
iy seniz
ĠHarit asÄ±
ĠHam di
Ġatan dÄ±
ĠM elik
ĠaÅŁam asÄ±na
ĠTelefon u
Ġek lenir
Ġal Ä±k
D est
Ġkaynak lanÄ±yor
Ġdiz ide
Ã¼ leri
Ġpi ece
op ik
N S
tay Ä±m
em emesi
ĠYar ar
Ġazal dÄ±
ĠAr Ä
Ġplan lar
Ġh Ã¼s
Ġtar ikat
ri x
ĠgÃ¶nder erek
Ġbab anÄ±n
: "
ĠBoy ut
Ġtop la
ĠistediÄŁ inizde
AL AN
Ġmasraf larÄ±
Ġist eÄŁe
Ġyol lara
ĠmÃ¼ fred
mekt eydi
c ed
Ġtab anÄ±
ĠhazÄ±r ladÄ±k
ĠY anÄ±t
Ġb Ã¼f
ĠD ahil
ĠW atch
Ġf ert
lam alÄ±
ĠalÄ±n maktadÄ±r
Ġ \
ĠSiz de
ĠyÃ¼ksel mesi
ĠFar s
Ġsorgul an
Ġbul masÄ±
ĠateÅŁ i
hal ef
Ġop tik
ĠvarlÄ±k larÄ±n
Ġc omp
Ġver eceÄŁim
ĠiÅŁ lerinde
Pop Ã¼ler
ĠhemÅŁ ehr
ĠL as
iliyor du
Gel ecek
Ä°T ESÄ°
ĠÃ¶t esi
may acaÄŁÄ±m
ĠBÃ¼r o
ĠÃĸ k
Ġal mam
Ġpara graf
ĠgÃ¼Ã§lendir mek
ĠÅŁarkÄ± lar
Ġgetir ilmiÅŁ
siz ce
ut nik
M Ä°Åŀ
ĠYÃ¶n elik
ĠB lo
R enk
l ock
Ġengel leyen
Ġj el
ĠKur ucu
Ġbel ediyesi
Ã¼l te
Ġc isim
ĠyÃ¶nlendir me
ĠYÃ¼r Ã¼t
ĠKar am
ĠYaÅŁ anan
Ġyan an
ĠDanÄ±ÅŁ manÄ±
ĠsonuÃ§ landÄ±r
S eni
Ñ į
al s
Ġbin asÄ±nda
ab Ä±n
Ġsep et
Ġmekt ub
ĠS AL
Ġoyun larÄ±ndan
se p
Ġtrak tÃ¶r
L AK
Ġvur ul
Ã¶z Ã¼
D iz
ĠP aÅŁ
ĠC es
tÃ¼ÄŁ Ã¼nÃ¼
Ġin kÃ¢r
G Ä°LÄ°
ĠsÄ±kÄ±ntÄ± larÄ±
ĠMAD DE
Ã§ iye
Ġhal indeki
r un
Ġhesap larÄ±na
Ġintik al
Ġp c
Ġol im
ĠdeÄŁil seniz
ĠMÃ¼n ih
T ay
ĠtaÅŁ eron
ĠdÃ¼zenlem eleri
ol ak
ĠbeÄŁ endim
Ġkaps ar
ĠP aketi
st on
ĠistediÄŁ in
Ġdo wn
n em
ĠSÄ±r bistan
Ġkrit erler
M ez
ĠL ou
Ä°N CÄ°
Ġsaat inde
Ä°V ERS
eri de
Ġkim ya
Ġsit elerden
ĠAr ena
ĠYar alÄ±
ĠB az
AÅŁaÄŁÄ± daki
ĠyaÅŁan dÄ±ÄŁÄ±nÄ±
ĠYÃ¶n etmen
ĠrahatsÄ±z lÄ±ÄŁÄ±
hay Ä±r
Ġel ime
Ġden iyor
Ä°N DEN
ĠP azarÄ±
Ġar adÄ±m
Ġrapor unda
id th
Kategor i
ĠAlt Ä±nda
Ġiv me
at ar
Ġkalk ar
ĠiÅŁaretlenmiÅŁ lerdir
Ġiddi alar
z in
Ġs alÄ±
st Ä±r
? ,
ĠbÃ¶lÃ¼m e
Ġn ev
Ã§ Ä±l
Ġkap Ä±nÄ±n
Ġkur siy
Ġc ik
v az
Ġziyaret te
ĠÃ¼cret in
il ar
ĠS mart
Ġneden ini
Ġ> >
Ġkan unu
ĠyakÄ±ÅŁ Ä±r
Ġar adÄ±
ĠateÅŁ e
ĠI t
Ul usal
ĠY AN
erk es
Ġg asp
Ġsistem lerinde
K ovid
Ãĸn emli
y Ã¼r
land alÄ±
ĠL ife
ĠgiriÅŁ inde
Ġazalt Ä±lmasÄ±
ĠÃ¶l Ã¼r
ĠboÅŁ una
Ġders eniz
ĠyaÄŁ lar
ĠEd iyor
Ġkam usal
ĠÃĸ L
ĠbaÅŁ Ä±ma
poz yum
Ġhalk Ä±mÄ±zÄ±n
k ele
f ed
ĠM ore
ĠbÃ¶lÃ¼m den
ĠV eysel
ĠdeÄŁil ler
Ġmak sat
ĠkÃ¼t Ã¼phane
Ġelem anlarÄ±
ĠS abancÄ±
Ġyar amaz
ĠulaÅŁ ma
Ġv d
ĠÃ¶lÃ¼m Ã¼nden
ĠT ik
Ġbaz da
if a
ĠbazÄ± larÄ±nÄ±n
ĠT Ä±bbi
Ġkar antina
Ġson larÄ±nda
ĠK ok
Ġkilometr elik
Ġkar ayolu
dak iler
Ġhaber lere
Ġopt imiz
ĠT Ä°C
Ġtoplan dÄ±
ĠO LARAK
E ge
ĠG ider
Ġev inizde
Ġkeyif le
Ġkriter leri
Ġteknoloj iye
H ukuk
ĠDeÄŁ erli
V ol
Ġmakal eler
ĠaÃ§ maya
ĠTar sus
Ġkas Ä±m
Ġh old
ĠgÃ¶ster ilir
Ġsebep lerden
iler imize
ĠÅŁi iri
Ġkapat Ä±lmasÄ±
duÄŁunuz da
âĸ º
Ġbah si
ĠÃ§Ä±kar arak
ĠAil esi
Ġs ulan
ĠsaÄŁ landÄ±
ĠR efer
ĠBÃ¼yÃ¼kel Ã§isi
Ġas il
Ġbeb eÄŁi
ĠÃĸ dem
Ġgazetec ilere
ĠÃ§Ä±kar sa
me ga
Ġstandart larÄ±
ĠAt ina
ĠAs s
Ġokuy uc
UN A
ĠT IK
Ġtamam ladÄ±ktan
Ġhav lu
Ġhastal Ä±ÄŁÄ±nÄ±n
Ġgetir in
ĠgeÃ§ir iyor
ĠL ojistik
Ġel imden
S em
Ġrestor asyon
ĠbaÅŁk asÄ±nÄ±n
ĠS aint
Ġk uv
Ġneden se
Ġkon v
Ġger isinde
uy un
Ġbil emiyorum
ĠBr Ã¼ksel
Ġkazan cÄ±
ĠkonuÅŁ urken
Ġproj esinde
Ãĩ Ä±k
ĠÄ°z zet
ĠtaÅŁÄ±y Ä±cÄ±
Ġtahamm Ã¼l
ĠrÃ¼ÅŁ vet
Ġsorun lu
KÄ±z Ä±l
Ġyal Ä±n
ĠÃ¼ret meye
lar Ä±ma
ĠbaÅŁlat an
Ã¼st en
w agen
Bir inci
ler inizde
Ġol sam
et ti
Ġdis ip
ema il
ĠulaÅŁ Ä±r
ĠZel anda
Ġas l
ĠgÃ¶rdÃ¼k leri
ĠSÃ¶z leri
ĠCeza evi
Ġfrag manÄ±
ĠD O
Ġl ah
ĠKoordin atÃ¶rÃ¼
Ġmutl uyum
ĠbaÅŁk alarÄ±
ĠaraÃ§ lara
ĠdeÄŁiÅŁim e
ĠT Ã¼n
ĠgeÃ§ iÅŁi
Ġt Ã¼z
Ġtanesi dir
E d
ĠT on
Ġmal ik
Ġolm ayÄ±p
Ġkar am
ĠKap tan
Ġdevr al
t witter
san sÃ¶r
Ġbilinc inde
t t
ev it
yon un
is as
Ġbay i
ĠE lec
H UR
Ġac ilen
Ġsp ot
Ġproj elere
ĠbaÅŁ lama
Ġkar ikatÃ¼r
Ġiz lenen
ĠsÃ¼r Ã¼ldÃ¼
ĠR et
len diÄŁini
Ġdavran Ä±ÅŁÄ±
ĠadÄ±m da
Ġsunul ur
ci de
Ġreklam larÄ±
ĠKay serispor
ĠY edek
Ġyaz Ä±m
ĠAtaÅŁ ehir
C RET
Gel iÅŁ
ĠDÃ¼n dar
e ed
Ġkategor i
ĠS tep
Ġyaz Ä±ÅŁ
ĠiÅŁlem lerine
Ã ±
ekk Ã¼l
Ġdik tatÃ¶r
ĠÅŁiir leri
ĠbaÅŁk asÄ±na
Ġtad Ä±na
Ġfrag man
art manÄ±
Siyas et
Ġdiz el
ĠTop al
Ġtavsiy eler
Ã¼rk an
Ã¼z dan
Ġadap te
gul ama
Ġ7 20
Ġberek et
ĠVÃ¼c ud
Ġortak laÅŁ
Ġsab aha
Ġgay ri
Ġdin dar
: :
Tag s
Ġsoy kÄ±rÄ±m
Ġy Ä±r
Ġotel in
ĠdeÄŁiÅŁik liÄŁe
Ġsistem lerini
ĠÃ¶nc esinden
ĠhazÄ±r lamÄ±ÅŁ
Ġyas adÄ±ÅŁÄ±
ĠÅŁ irin
ĠhazÄ±r Ä±z
z eme
ĠOl sun
ĠÃ¶mr Ã¼nÃ¼
Ġsat Ä±lÄ±yor
at om
Ġyan da
AR A
Ġneden ler
bir e
ĠElb ise
Ġs y
Ġyans Ä±yan
ru ÄŁ
Ġkontrol Ã¼nde
ĠAydÄ±n latma
Ġkr emi
On lar
ĠStr eet
Ġtrib Ã¼n
ĠyÄ±l Ä±ndaki
H Ã¼s
Ġver eceÄŁini
ĠÃ¶ÄŁ leden
AN KARA
ĠÄ ł
ant um
Ãľ ye
ĠÄ°N SAN
Ä±l mamasÄ±
t ap
Ġtez ahÃ¼r
Ġgecik tir
ĠgÃ¶rÃ¼n se
Ġtahmin leri
ĠkÄ±rÄ±k lÄ±ÄŁÄ±
ĠÅŁub esi
ĠPar Ã§
Ġistin aden
m iye
K urt
Ġark adan
Ġrahat lÄ±ÄŁÄ±
ĠEs erleri
Ġter api
Ä±l abilecek
ĠMer ve
ĠhazÄ±rlÄ±k larÄ±nÄ±
ĠM ED
ĠD Ä°K
Ġimkan lar
Ġkum anda
ĠP osta
ĠT ac
Ä±ÅŁ Ä±n
ĠyaÅŁan abilir
Ġedecek lerini
Ġrekabet Ã§i
ĠdÃ¼zenlen miÅŁtir
Ä±rs ever
oy ol
alan masÄ±
Ġ q
Ġdin Ã®
gr ad
Ġtut uÅŁ
ĠBar osu
ey ken
ĠÃ¶yk Ã¼sÃ¼
Ġbron z
Ġplan lanÄ±yor
ĠgeliÅŁ mesine
doÄŁ ru
y eÅŁil
ĠuÄŁraÅŁ an
ĠCh rome
Ġkadros unda
Ġmilyon u
ĠP in
ĠgeÃ§ mesine
Ġkarar la
Ġder giler
Ä±l mamÄ±ÅŁ
ĠarayÃ¼z Ã¼
ĠKr edisi
bet Ã§i
ĠÄ°kin cisi
Ġbeklent ilerini
Ġtut tuÄŁu
ĠdÃ¼ÄŁ mesine
ĠTech n
Ġsitesi dir
ĠN azÄ±m
Ġkutl uyorum
Ġaktar mak
Ġtav siyesi
ĠÃ§ek ecek
Ġber aat
ĠHÄ±r vat
Ġbulun abilirsiniz
Ġyapar Ä±m
Ġsporcu lar
ĠArÄ ±
ne ws
Ġdem eden
ĠN eb
s osyal
ĠHazÄ±r lÄ±k
Ġtemiz lemek
inde x
T rum
ĠH ouse
ĠyÄ±l an
ĠÃ§alÄ±ÅŁmalar Ä±mÄ±zÄ±
Ġekib ine
ĠF A
ĠBay kal
ĠC O
Ġplatform lar
Ġsinyal i
ĠE den
Ar ama
Ġel leri
Ġinsan larda
ĠTÃ¼rk leri
ĠsÃ¶z lerle
ir di
tar ih
Ġkap Ä±da
Ġderin lemesine
ĠJo e
Mev cut
yaz Ä±lÄ±
YOR UM
ĠSÃ¶z ler
ĠÃĩalÄ±ÅŁ malarÄ±
Ġkapan dÄ±
Ġs usuz
Ġhapis han
ĠJ an
Ġalt Ä±nÄ±n
ĠÃ¼niversit eye
ust in
Ġt ram
Ġgide bilir
ĠiliÅŁk iye
ĠdeÄŁil siniz
Ġin en
ĠEvren sel
ĠSiz lere
Ġek imi
ĠE ce
Ġz alim
R T
Ġduyur usunda
Ġbelediy enin
ab o
Ġarz ul
b eÅŁ
ster dam
ĠsaÃ§ larÄ±
S AM
de me
Ġamac a
bir lik
ĠS emin
E tiket
Ġkar Ä±sÄ±
ĠD AK
ĠD Ä±ÅŁÄ±
ĠKap Ä±sÄ±
ĠdeÄŁiÅŁim ler
Ġistey ebilirsiniz
A il
Ġiyim ser
UR U
ĠF ev
ĠMÃ¼cad el
Ġo tu
ak tadÄ±r
ĠS oÄŁ
ĠsÃ¼r enin
am ada
l aya
Ġhaber leÅŁme
Ġor da
Ġkim liÄŁini
I F
Ġbak acak
ĠgÃ¶rÃ¼nÃ¼yor du
C K
ap s
Edin ilen
ĠKuÅŁ adasÄ±
ĠkÃ¶ le
ĠoluÅŁ tuÄŁu
Ã £
EM LÄ°
Ġsan iy
ĠarttÄ±r Ä±r
Ġbecer ilerini
Ġyeter lilik
ĠHar un
ĠfÄ±rsat Ä±nÄ±
ĠTuz la
AT A
am dan
ĠLef koÅŁa
Ġaf fet
ĠyÃ¼kselt mek
ĠvatandaÅŁ larÄ±mÄ±za
Ġduy duÄŁunu
ĠyerleÅŁtir me
Ġimzal adÄ±
Ġfiyat larÄ±na
ĠkolaylaÅŁtÄ±r mak
ĠgeÃ§ir erek
ri an
Ġgen cin
ĠK linik
Ġkur ye
Ġs ilikon
Ġmeb l
Ġmar if
Ġayr Ä±mÄ±
Ġf ree
ĠeÅŁ im
Ġ unu
ab olik
ĠÃ¶n ler
Ġarac Ä±nÄ±n
Ġedebilir ler
âĢĶ âĢĶ
ad ay
Ġolay dan
Ġhaber in
ĠaÄŁz Ä±ndan
ĠgeÃ§ meye
ĠFI FA
Ġden gesi
Ġust alÄ±k
Ġmetr elik
ĠGAZ ET
ĠyaptÄ±ÄŁ Ä±nÄ±zda
ĠgÃ¼n lerin
ĠN Ã¼fus
st ar
ĠkoÅŁ tur
ĠCh rist
ĠKÄ±r gÄ±z
ĠÃ§ in
may Ä±z
Ġil inde
ĠAbdur rahman
Top lantÄ±
ĠbÃ¼y Ã¼yor
ĠkanÄ± tÄ±
ĠGeÃ§ ici
W hatsApp
ĠN ic
Ġoyun dan
ĠÅŁart lara
c Ä±sÄ±nÄ±n
Ġkav ray
Ġtut kun
Ġgen eral
n ar
Ġdur uyordu
ĠD ESTEK
Kar deÅŁ
Ġark asÄ±
Ġpas lanmaz
is ter
it t
Ġbel gelen
Ġgir me
Ġoluyor lar
ĠkarÅŁÄ±laÅŁ Ä±lan
malar la
ĠÄ°k tidar
ET Ä°K
Ġam iral
Ġan ormal
B Ä°L
ĠOkul larÄ±
ĠkatÄ±lÄ±m cÄ±lar
af ra
ĠinÅŁaat Ä
ĠinÅŁaatÄ ±
Ġb ac
Ġ198 7
Y um
Ġisten iyor
ĠTun us
Ġhareket lilik
ĠT o
ĠMaked onya
ver di
Ġyaz Ä±mÄ±z
Ġy Ã¼c
ĠgÃ¶rÃ¼ÅŁ ler
n ut
ĠYÄ±k ama
ĠC a
ĠAn Ä±t
Ġvit es
ĠbaÅŁ Ã¶rt
Ä° mam
ĠM AK
ram anÄ±
ĠGÃ¶ ÄŁ
Ãĸz gÃ¼r
t ab
S AÄŀ
as yum
ĠhemÅŁ er
YÄ±l dÄ±z
Ġmekaniz masÄ±
ĠMan ÅŁet
ĠC ry
ĠÃ§ift lik
ey ip
ĠsoÄŁ um
Ġdayan maktadÄ±r
ĠÄ°r fan
ĠBaÅŁbakan lÄ±k
di e
Ġbulundur an
Ġzarar larÄ±
ĠI D
00 00
Ġvizyon a
Ġyar arÄ±
P en
es iydi
Ġmas asÄ±
T D
ut er
gresi f
r Ä±n
ĠÃ§ab alarÄ±
ĠsÃ¼rdÃ¼r mek
Y al
ĠBur Ã§
ĠbirÃ§ oÄŁu
ĠPro blem
Ġtas fiye
y sa
Ġmerkez lerinde
ks wagen
ĠkÄ±ÅŁ kÄ±r
Ġyasak tÄ±r
ĠP eÅŁ
Åŀeh it
ĠsoruÅŁtur masÄ±
ĠdÃ¼ny asÄ±nÄ±
ĠBur s
Ġmensup larÄ±nÄ±n
Ġpar alarÄ±n
Ġb Ä±r
ĠÃĩ ub
Ġhukuk un
id ye
ĠÃ¼stÃ¼n lÃ¼ÄŁÃ¼
ĠG or
ĠborÃ§ lanma
Ġbebek ler
ĠBu d
Ġelem anÄ±
l inde
ĠhazÄ±r ladÄ±
Ġmedy adan
ĠkarÅŁ Ä±y
ĠanlayÄ±ÅŁ Ä±nÄ±
b kz
unuz la
ĠdÃ¶n erek
ĠAL IN
Ġh ekt
ov o
Ġd eki
Ġtaleb ini
ĠyÃ¼rÃ¼t me
tal ay
ĠÅŁub at
Ġbeklen ti
as y
ĠÃ¼lkemiz deki
Ġdil imi
ĠBank alar
l Ã¼yor
Ġtarz Ä±nda
ĠÃ§ant asÄ±
Ġ10 5
ĠbuluÅŁ an
ĠKav ram
ĠGeÃ§ iÅŁ
ir o
Ġp ut
ĠdeÄŁer lere
ĠartÄ±r arak
ĠÃ¶z ver
ĠdoÄŁ asÄ±
Ġisim lerini
Ġal masÄ±na
ĠCevap la
tak ya
andÄ±r ma
c Ä±n
Ġed ince
ĠsÄ±y r
Ġmodel in
ĠSorum lusu
van ter
ĠÃ§iÃ§ek ler
Ġmuhabir ine
chan ge
ti g
Ġhast alara
Ġtek el
Un ut
ĠyapÄ±l dÄ±ktan
Ġlim iti
Ġkes ilen
AC AÄŀ
Trum p
ĠN amaz
f az
ĠY aman
ĠkÃ¼Ã§ Ã¼m
ĠZ ayÄ±f
S tar
Ġuc unda
Ã¼nÃ¼z Ã¼n
ĠHerk ese
ĠkatÄ±lÄ±mcÄ± lara
Ġiz leri
Kahraman maraÅŁ
Ġbilg ili
ĠAN KARA
ra w
ĠiÅŁlem lere
ĠOrt aya
Ġok unan
ĠRes taurant
g Ã¶
ĠMek an
ĠKAD AR
ĠseÃ§en eÄŁine
LER E
Ġot ele
ĠnÃ¼f uz
ĠtanÄ±t tÄ±
un ay
ĠDÃ¼zen li
Ġbah ane
ĠiÅŁlem ine
ĠdÃ¼ÅŁÃ¼n Ã¼p
Ġtop luluÄŁu
Ġbulunuyor du
Ġism iyle
Ġstandar d
B I
ĠÃ¶ÄŁretmen leri
Ġyap masÄ±na
Ġc ons
ĠS aman
Ġindir in
ĠH ot
Ġhas at
ĠYet iÅŁtir
ĠH ip
Ġtes ir
ĠKÄ±y met
ĠEng lish
ĠvasÄ± f
ĠTok yo
Ġdin leyen
tin a
ĠAn ton
ĠTan er
Ġsunul muÅŁtur
H ey
Ġan lÄ±yor
h op
ĠPen dik
Ġkuvvet leri
Ġfin can
S atÄ±ÅŁ
Ġn iz
x x
Ġal etleri
emiÅŁ ti
Ġ ]
ĠPlan lama
ĠAL LAH
Ġtut muÅŁ
Ġekran larÄ±nda
Ġr ant
or f
ĠgÃ¶ster ilmiÅŁtir
uc k
ĠgÃ¼b re
Ġhizmet lere
ĠBer at
el em
Ġbat ary
ĠÃ§iz gisi
Ġd ediÄŁini
ay abilirsiniz
ĠgeliÅŁtir erek
ĠgÃ¼c Ã¼n
Ġsiz lerde
ĠyÃ¼k lemek
IN G
ĠÃ¶t esine
t Ä±lÄ±
ĠdeÄŁiÅŁ mez
ĠB ern
Ġb inin
de al
ĠÃ§alÄ±ÅŁ Ä±yordu
ĠÅŀ ans
Ġkat arak
ul i
È Ļ
af f
AB Ä°LÄ°R
Ġkullan maktadÄ±r
Ġhaf tadÄ±r
ob ili
Ġik isini
ĠGÃ¶k Ã§e
ĠiliÅŁk ilerinin
Ä±ÅŁÄ±k lÄ±
Ġinan cÄ±
Ġkir eÃ§
Ġolacak lar
row n
Ġsal ladÄ±
Ġsever im
sa at
ĠKum aÅŁ
Ä±nÄ± fa
Ġisim lendir
ĠKoordin asyon
Ġyetenek leri
Ġeser lerin
Ġpeyn iri
Ġkol ye
Ġyaz Ä±lÄ±r
ĠEr bakan
ĠtaÅŁ larÄ±
Ġhesab Ä±nda
ĠdeÄŁiÅŁtir erek
Ġs ac
ĠtanÄ±t mak
ĠgÃ¶tÃ¼r Ã¼ldÃ¼
Ġuy umu
ĠraÄŁ bet
ĠSÃ¼n net
Ġyaz arken
Ġbulun maz
ĠP omp
ĠH un
ĠPan el
ĠSar aÃ§
laÅŁtÄ±r Ä±lmÄ±ÅŁ
Ġsal t
Ġoku duÄŁum
ĠP oli
ĠÃ§Ä±k Ä±nca
Res mi
Ġyap mayÄ±n
ĠdÃ¶nem ini
Ġrol Ã¼nÃ¼
z ani
Ãĸ lÃ¼m
ĠÂ ĵ
ĠgÃ¶rÃ¼ÅŁ mesi
ĠEk sik
Ġil av
Ġ198 8
R C
oh um
iyet ine
ĠkiÅŁ ide
ĠanlaÅŁ Ä±lmaktadÄ±r
Ġprotokol Ã¼
Ġoynan Ä±r
Ãĩ Ã¶z
ĠseÃ§ tiÄŁiniz
ĠBaÅŁkan lÄ±ÄŁÄ±na
K ut
Åŀ EHÄ°R
ĠdÃ¶nÃ¼ÅŁ Ã¼mÃ¼
f ilm
alÄ± cÄ±
ĠMÃ¼ hendisi
ĠbaÅŁlay Ä±nca
lat Ä±n
T EM
Ġsor an
Ġn da
AZ I
Ġerkek lerde
Ġyer dir
el op
ĠyÄ±ldÃ¶n Ã¼mÃ¼
ele gram
ĠilÃ§ enin
Ġplatform unda
Ġyapabilir im
Ã§ alÄ±ÅŁ
ĠiyileÅŁtir me
ĠDest eÄŁi
ĠEmek lilik
ĠBab asÄ±
ĠEl mas
ĠE tik
K EN
ĠyÃ¶ntem dir
ĠkÄ±z art
Ġkavram lar
Ġbak Ä±lÄ±rsa
u stos
ÃľN Y
en te
ĠreÃ§ et
ĠoluÅŁ masÄ±na
ĠÃ§alÄ±ÅŁan lara
Ġuyg ular
ĠKar adaÄŁ
an oz
Ġber taraf
Ġyak alama
Ġyaz Ä±yorum
Ġdiyor sanÄ±z
B on
l Ã½
ĠanlaÅŁ Ä±lÄ±yor
F ar
u gu
ekk ep
ĠK IR
ron e
ĠdÃ¼ÅŁtÃ¼ÄŁ Ã¼nÃ¼
Ġfonksiyon el
Ġtutar Ä±nda
Ġgel me
ĠK Ãĸ
c he
li gi
Ġal mÄ±yor
M ESÄ°
ĠyÄ±l ki
Ġoyun lara
Ġtak Ä±n
ĠOl uÅŁ
H ac
Ġtur larÄ±
Ġziyaret inde
S at
ĠbÄ±rak mÄ±ÅŁ
ĠgÃ¶l ge
ĠkÄ±p Ä±r
, Â»
Ġvar lÄ±klarÄ±
Ġolmay acaÄŁÄ±
ĠÃĩar p
C or
Tarih i
T ut
ĠL astik
Ġal Ä±ÅŁtÄ±r
ĠKa an
ĠEr han
e o
ut y
Ġtes ettÃ¼r
Ġyap abileceÄŁi
ĠiÅŁken c
Ġhik Ã¢ye
Ġentegr asyon
Ġemperyal ist
ĠseÃ§ ip
is te
ĠÃ§evr esine
KÄ±lÄ±Ã§ daroÄŁlu
Ġbilm eden
L im
Ġl Ã¼t
ĠkayÄ±p larÄ±
Ġhab ersiz
Ġ198 2
ĠuÃ§ ur
Ġasker lerin
Ġgel mesiyle
lam az
Ġuygulam asÄ±nda
Ġpazar lÄ±k
Ġuygulan maktadÄ±r
C ilt
si a
atur e
Ġkay makam
Ġbak iy
Ġort asÄ±na
ĠÅŁab lon
Ġetm ediÄŁi
Ġl ed
ĠTes la
Ġotur duÄŁu
Ġvarsay Ä±lan
Ġkayb eder
os na
Ġyaz Ä±ya
ĠMalat yaspor
Ġem sal
Ġdok Ã¼man
ĠbaÅŁvur an
Ġyenilik ler
Ġdil in
Ġyas asÄ±
ĠGel di
Ġhizmet lerden
saÄŁ lÄ±ÄŁÄ±
ĠRic hard
ĠÃ§if te
ĠmÃ¼cadel esinde
ĠÃ§ eki
Ġkad rom
ĠiÄŁ n
ĠSing apur
k g
ĠdÃ¶n gÃ¼
at ing
ĠAÄŁ acÄ±
Ġsan mÄ±yorum
ĠgeÃ§ir dik
w o
ĠFabrik asÄ±
ĠkÄ±r p
ĠJohn son
ev en
Ġsay Ä±labilir
ĠistediÄŁ inizi
ĠSig ara
ĠyÃ¶net ilen
ĠO lum
mesi dir
ĠKasÄ±m paÅŁa
Ġdondur ma
Ġlist eye
mam asÄ±nÄ±
Ġsen ed
Ġtah akk
Ġkes ti
ĠbaÅŁ lÄ±yoruz
ĠÃ¶ÄŁren en
Ġeng eli
Ġf are
ĠGÃľN DEM
iz ma
Sel am
ĠNef es
ĠdÃ¶nem inden
ĠaraÃ§ ta
ec oin
ĠY o
imiz dir
ĠB EK
ĠS AR
k Ä±s
AL Ä°
rem it
ĠgeniÅŁ liÄŁi
ĠayrÄ±l mak
Ġ198 4
DOÄŀ AN
am med
ĠÃ¶den ecek
Ä°l Ã§
ĠÃ§ek meyi
ĠyÃ¶ntem ini
Ġf iber
Â ¬
AS A
ĠCerrah i
AS T
ĠÃľ R
Ġyiy en
Ġtuz lu
BeÄŁen me
Ġsay Ä±m
ĠÃ§Ã¶z me
Ġdokun matik
Ġbak Ä±yorum
Ġdiy al
ĠyÃ¶netim e
n ca
b is
Ġmanz arasÄ±
lem ektedir
t c
ĠDevr imi
Ġetm eliyiz
ĠaÃ§Ä±klan acak
ĠbaÅŁlan mÄ±ÅŁtÄ±r
ĠgerÃ§ek tir
Ã¢ ne
T FF
Ġsabah Ä
ĠsabahÄ ±
san e
Ġcezaev ine
meler de
Ġkavram Ä±nÄ±
aÄŁ Ä±m
s Ä±r
ilm iyor
YÃ¶n etim
ras ya
Ġbahsed ilen
H otel
Ġhal let
ĠSorum luluk
Ġaksesuar larÄ±
ĠkayÄ±t sÄ±z
ĠDÄ±ÅŁ arÄ±
ĠÃ§ek miÅŁ
Ġdemokras inin
ĠÃ§ab ucak
ib u
Ġpsik iyat
ĠbaÅŁ Ä±ndaki
ĠT u
Ġifade yle
Ġgerektir diÄŁi
ĠAk Ä±l
ĠAy kut
T h
Ä°YAS ET
Ġgit meden
Ġmac era
H enÃ¼z
ing le
ĠÅŁamp uan
Ġyol daÅŁ
Ġkay Ä±n
Ġgazetec iler
Ġettir mek
Ġbuzdol abÄ±
Ġt ime
is ar
ĠgÃ¶rÃ¼ÅŁ Ã¼nÃ¼
ĠbaÄŁ lama
ĠG Ã¼cÃ¼
Ġenj eksiyon
Ġser gisi
ĠÃĩ erkez
Ġprop aganda
lam enter
ĠBak Ä±n
ĠdiÄŁer ine
emiz den
ĠÃ¶ldÃ¼r mek
ĠHar p
Ä° brahim
Ġr ahim
ĠOl acak
ĠV iz
ĠyavaÅŁ Ã§a
Ġduyur uldu
ĠSan d
Ġgerekir ken
ih at
kÄ±r mÄ±zÄ±
ĠDeÄŁiÅŁik lik
ĠÃ§ocuk larla
ĠsonuÃ§ larÄ±n
Ġdikkatli ce
ĠM Ã¼mkÃ¼n
Ġvide osu
ĠM uk
Ġfaaliyet lerin
ir lik
ĠdanÄ±ÅŁ manÄ±
P C
ĠhazÄ±r lÄ±klarÄ±
ĠkÄ±s mi
ĠB EY
Ġtamam Ä±na
he imer
Ġbun ca
ĠÃ¼Ã§ gen
Ġkar antin
se a
ĠÃĸ R
iy ade
ĠL av
Ġpolis ler
Ġdok usu
Ġman ada
Ġeh li
Ġkes iÅŁ
ĠHar ita
ĠAr ch
Ġtakip Ã§isi
Ġik iz
ĠsÃ¼t un
ru h
Ġincelem eye
Pan demi
y alar
ĠsÃ¶y lendi
Ġtoplam Ä
ĠtoplamÄ ±
ĠAr as
ĠÃĩalÄ±ÅŁ malar
ĠeÄŁitim li
ĠkatkÄ± larÄ±
Ġkadro ya
Ġsever lere
ĠÃĩÄ±k Ä±ÅŁ
Ġsaat lerce
Ġyap sÄ±n
ĠQ R
B OL
ĠÃ¶zgÃ¼r ce
Ä°YOR UZ
ĠS pr
Ġal acaÄŁÄ±nÄ±
UN DA
ĠseÃ§ ilir
Ġtaraf tarÄ±
ĠMahall esinde
Ġyapar Ä±z
ĠsaÄŁlam ayÄ±
ĠMERKEZ Ä°
Ġmaz lum
Ġokum ayÄ±
ĠgÃ¶stergesi dir
Ġod un
ĠiliÅŁk iyi
Ġpik nik
Ġtarih lerde
Ġprot ected
Ġadliy eye
ĠP ress
Ġo danÄ±n
ĠM ih
de ÄŁi
Z eytin
Ġdemir yolu
G u
inin g
Ġenstr Ã¼m
G RAM
Ġyan aÅŁ
ĠBil l
ĠB uy
Ġbak Ä±nca
unuz dan
Ġuy ul
ĠyaÅŁ adÄ±m
Ġikram iye
Ġhusu sta
Ġgir dik
Ġifad elere
ĠEx p
Ġtercih leri
ĠY arÄ±
ĠD Ã¼ÄŁ
b atÄ±
ledik Ã§e
Ġmahall esi
Ġhaber ini
ĠuÄŁr amÄ±ÅŁ
ĠB ook
ĠL et
ĠÅŀikayet var
ros k
Ġsertifik asÄ±
ĠÙ ħ
Ġzan net
c us
ĠÃ§aÄŁÄ±r dÄ±
ĠGer Ã§i
Ġtoplant Ä±sÄ±na
Ġoluyor sunuz
DAK Ä°
Ġmez h
ĠgÃ¶z Ã¼yle
Ġduy duÄŁumuz
ayan lar
D Ä°N
ĠS uyu
Ġpet ek
K I
Ġtar la
ĠE yal
Ġb ilmesi
Ġmu dur
Ġec zan
ĠAraÃ§ larÄ±
Ġsor una
it enin
C uma
R ec
ĠÃ¼st Ã¼ndeki
ĠbaÄŁ daÅŁ
ÃľZ EL
ĠGÃ¶k Ã§
Ġayr Ä±lmasÄ±
ĠgÃ¼c Ã¼yle
ek ir
ĠK Ä°T
lan mÄ±ÅŁtÄ±
ĠÃ¼niversit ede
eg o
at larÄ±n
Ġasker Ã®
Ä°nsan larÄ±n
ĠE leÅŁtir
ĠyÃ¼rÃ¼t mek
ĠA MA
:) )
Ġtem yiz
Ġyap abilm
Ġtaleb in
É ĳ
Ġaktar ma
Ġgez gin
Ġokuy abilirsiniz
Ġservis e
ĠhazÄ±r lay
ĠmaÃ§ larda
ĠZ er
Ġsit enizi
ĠyÃ¶r Ã¼n
21 6
ĠSez er
ĠH us
Ġgerek Ã§esi
es ki
Ġfaydalan abilirsiniz
ĠsektÃ¶r Ã¼ndeki
Ġinc eler
Ġzevk li
ĠB ot
ab ildiÄŁini
Ġsun duÄŁumuz
op ark
K af
ĠR T
iti es
ĠFin landiya
ĠanlaÅŁ malÄ±
ĠÃ¶dÃ¼l leri
Ġayr Ä±nt
An ahtar
ĠD edi
Ġbiz lerin
ĠÃĸnc esi
Ġtaban c
ĠgÃ¶tÃ¼r Ã¼r
ĠDaÄŁÄ± tÄ±m
ĠD og
eÄŁ inize
ĠilÃ§ elerinde
Ġbilgisay ara
Ġbir isinin
Ãľniversit e
eh livan
ĠkÃ¶y Ã¼n
Ġintik am
Ġgetir ebilir
Ar dÄ±ndan
ĠRiz espor
Ġaj ansÄ±
ĠD ani
ĠD ÃľNYA
ĠfaktÃ¶r Ã¼
Ġel bet
Ġal Ä±yorlar
Ġspor u
ĠÃ§Ä±k madÄ±
Tab lo
Ġp ud
Ġbilet ini
ez ir
tÄ±r ma
± ht
ĠKam il
Ä ±ht
Bor sa
ĠsÃ¶yley ecek
l ediÄŁim
Ġsevk iyat
Ġmal Ä±n
Ñ ĸ
ĠBah Ã§esi
ĠdolaÅŁ Ä±mÄ±
ĠgeÃ§ir meye
Ġihtiyac Ä±nÄ±n
Ġkomb ine
ĠÃ¼niversit esi
ĠV as
Ġform da
Ġfazl aca
Ä±z lÄ±k
Ġdiz in
ĠkarÅŁÄ±lan masÄ±
if re
Ġsayf asÄ±nÄ±
D iy
Ġvarol uÅŁ
ĠL CD
ĠkaldÄ±r Ä±p
T emiz
Ġsu dan
Ġkend ilerinden
Ġsit emizi
Ã¼st Ã¼n
Ġat Ä±lmasÄ±
ĠgeÃ§ me
Ġzirv eye
O b
Ġincelem eler
Ġdeney ebilirsiniz
Ġkar ayol
Ġay larÄ±
LEN DÄ°R
ar aya
Ġist ediler
Ġtem alÄ±
Ġyap am
TeÅŁ ekkÃ¼rler
ĠyÃ¼ksel iyor
ĠH Ã¼r
Ã¼r et
Ã¶ portaj
ĠsÃ¶zcÃ¼ ÄŁ
ĠN iÅŁ
TAL YA
dÄ±r ma
Ġbilm iyoruz
ĠkullanÄ±l mayan
ĠsÄ±nÄ±f Ä±nÄ±n
ĠKab lo
ĠaÃ§Ä±k lar
ĠsaÄŁlan mÄ±ÅŁ
anz Ä±m
ĠRad ikal
Ġhizmet lerinde
Ak deniz
bet i
ĠV Ä°OP
ĠsaÄŁlan Ä±yor
Ġtr ading
ĠaraÅŁtÄ±r malarÄ±
Ġdoldur ul
gen el
ĠDiler seniz
Ġpr at
ĠÄ°ndir im
ĠY asa
iz le
ĠÅŁah ane
dan oz
op yr
ĠÃ¶n yar
ĠÅŁ unlar
Ġd alÄ±ÅŁ
ĠUy arÄ±
len ip
Ġkullan Ä±p
ĠS adÄ±k
ĠTe or
mey eceÄŁi
ĠkolaylaÅŁtÄ±r Ä±r
Ġkend imiz
ĠtÃ¼m Ã¼nÃ¼
Ġbilgisayar lar
l Ä±m
Ġmezun iyet
Ġres mÃ®
Ġsiyas etin
N IN
ĠiÃ§er isinden
ĠAraÅŁtÄ±r malarÄ±
Ġdurum la
Ġtat ile
ĠÃ§ocuk larÄ±mÄ±z
Yorum lar
ĠAn ma
Ġderec elendir
ĠnÃ¼s h
back ground
kul lan
Ġsan Ä±ÄŁÄ±n
ez zet
ĠÃ§ub uÄŁ
ĠÄ°Åŀ KUR
p uz
ĠgÃ¶rÃ¼ÅŁ mede
iver pool
Z onguldak
Ġyazar larÄ±
Ä°H M
Ġkurs larÄ±
ĠoluÅŁtur ulur
Yar gÄ±
Ġsev dim
Mag azin
Ġkaf asÄ±nÄ±
B ER
ĠK ob
Ġarac Ä±nÄ±
end s
ĠÃ¶ÄŁ eleri
ĠhazÄ±r lanÄ±r
Ġolan lardan
ĠÃĩÄ±k tÄ±
Ġpsik oloji
Ġbayram Ä
Ġyararlan ma
ĠO HAL
ĠbayramÄ ±
ĠolasÄ±lÄ±k la
Ġtoplan masÄ±
Ġdurum lara
ĠfotoÄŁraf larÄ±nÄ±
ĠC afe
ĠkullanÄ±l dÄ±ÄŁÄ±nÄ±
Ġar adÄ±ÄŁ
leÅŁ meye
Ġnet work
ĠyÃ¼rÃ¼t Ã¼lmesi
ĠE li
Ġfel Ã§
Ġkaybol an
lÄ± can
Ġklav ye
ĠErg enekon
ĠÅŁ Ã¶yl
g eler
± Ä
t un
Ġsitemiz den
Ä°ÅŁ lem
ĠÃ¶ÄŁren miÅŁ
Ġsan tr
Ġ24 0
mayÄ± p
ĠdÃ¼ÅŁÃ¼n mÃ¼ÅŁ
Ek onomik
ĠbasÄ±l Ä
Ġfikir lerini
} }
ĠsÄ±nav Ä±na
Ġizl edim
Ġevlen mek
ĠbasÄ±lÄ ±
Ġgev ÅŁ
ĠMel ih
ĠYÄ±l lar
W ord
Ġkullan dÄ±ÄŁÄ±m
Ã§ Ä±lÄ±ÄŁ
ĠT UT
Ġ3 65
ĠbÃ¼yÃ¼ dÃ¼
R ad
Ġbulundur ul
l m
19 99
r Ã®
ĠM Ã¼c
madÄ±ÄŁ Ä±ndan
Ġkes mek
Ġs n
ĠT our
] [
san Ä±n
Ġdestek leri
! ...
ĠIM F
itab anÄ±
Ġesir g
if li
Ġim tihan
Ġotur muÅŁ
á ĥ
Ġ azÄ±
Ġr amazan
ĠyaÅŁ adÄ±ÄŁ
ab uk
ĠyÃ¶net meni
[...]
