{"<|endoftext|>":0,"!":1,"\"":2,"#":3,"$":4,"%":5,"&":6,"'":7,"(":8,")":9,"*":10,"+":11,",":12,"-":13,".":14,"/":15,"0":16,"1":17,"2":18,"3":19,"4":20,"5":21,"6":22,"7":23,"8":24,"9":25,":":26,";":27,"<":28,"=":29,">":30,"?":31,"@":32,"A":33,"B":34,"C":35,"D":36,"E":37,"F":38,"G":39,"H":40,"I":41,"J":42,"K":43,"L":44,"M":45,"N":46,"O":47,"P":48,"Q":49,"R":50,"S":51,"T":52,"U":53,"V":54,"W":55,"X":56,"Y":57,"Z":58,"[":59,"\\":60,"]":61,"^":62,"_":63,"`":64,"a":65,"b":66,"c":67,"d":68,"e":69,"f":70,"g":71,"h":72,"i":73,"j":74,"k":75,"l":76,"m":77,"n":78,"o":79,"p":80,"q":81,"r":82,"s":83,"t":84,"u":85,"v":86,"w":87,"x":88,"y":89,"z":90,"{":91,"|":92,"}":93,"~":94,"¡":95,"¢":96,"£":97,"¤":98,"¥":99,"¦":100,"§":101,"¨":102,"©":103,"ª":104,"«":105,"¬":106,"®":107,"¯":108,"°":109,"±":110,"²":111,"³":112,"´":113,"µ":114,"¶":115,"·":116,"¸":117,"¹":118,"º":119,"»":120,"¼":121,"½":122,"¾":123,"¿":124,"À":125,"Á":126,"Â":127,"Ã":128,"Ä":129,"Å":130,"Æ":131,"Ç":132,"È":133,"É":134,"Ê":135,"Ë":136,"Ì":137,"Í":138,"Î":139,"Ï":140,"Ð":141,"Ñ":142,"Ò":143,"Ó":144,"Ô":145,"Õ":146,"Ö":147,"×":148,"Ø":149,"Ù":150,"Ú":151,"Û":152,"Ü":153,"Ý":154,"Þ":155,"ß":156,"à":157,"á":158,"â":159,"ã":160,"ä":161,"å":162,"æ":163,"ç":164,"è":165,"é":166,"ê":167,"ë":168,"ì":169,"í":170,"î":171,"ï":172,"ð":173,"ñ":174,"ò":175,"ó":176,"ô":177,"õ":178,"ö":179,"÷":180,"ø":181,"ù":182,"ú":183,"û":184,"ü":185,"ý":186,"þ":187,"ÿ":188,"Ā":189,"ā":190,"Ă":191,"ă":192,"Ą":193,"ą":194,"Ć":195,"ć":196,"Ĉ":197,"ĉ":198,"Ċ":199,"ċ":200,"Č":201,"č":202,"Ď":203,"ď":204,"Đ":205,"đ":206,"Ē":207,"ē":208,"Ĕ":209,"ĕ":210,"Ė":211,"ė":212,"Ę":213,"ę":214,"Ě":215,"ě":216,"Ĝ":217,"ĝ":218,"Ğ":219,"ğ":220,"Ġ":221,"ġ":222,"Ģ":223,"ģ":224,"Ĥ":225,"ĥ":226,"Ħ":227,"ħ":228,"Ĩ":229,"ĩ":230,"Ī":231,"ī":232,"Ĭ":233,"ĭ":234,"Į":235,"į":236,"İ":237,"ı":238,"Ĳ":239,"ĳ":240,"Ĵ":241,"ĵ":242,"Ķ":243,"ķ":244,"ĸ":245,"Ĺ":246,"ĺ":247,"Ļ":248,"ļ":249,"Ľ":250,"ľ":251,"Ŀ":252,"ŀ":253,"Ł":254,"ł":255,"Ń":256,"ar":257,"er":258,"Ã¼":259,"an":260,"in":261,"ÅŁ":262,"Ġb":263,"en":264,"±n":265,"Ä±n":266,"ir":267,"il":268,"ÄŁ":269,"Ã§":270,"Ġk":271,"Ġd":272,"Ġs":273,"al":274,"Ġy":275,"ak":276,"lar":277,"Ġg":278,"el":279,"ek":280,"Ã¶":281,"Ġo":282,"Ġv":283,"et":284,"ay":285,"Ġt":286,"Ġi":287,"as":288,"am":289,"un":290,"ler":291,"de":292,"or":293,"at":294,"da":295,"es":296,"Ġh":297,"iy":298,"Ġve":299,"iz":300,"on":301,"em":302,"im":303,"±r":304,"Ä±r":305,"ik":306,"Ġbir":307,"Ġm":308,"ur":309,"Ġol":310,"aÅŁ":311,"ĠB":312,"ed":313,"ul":314,"±l":315,"Ä±l":316,"ad":317,"Ã¼n":318,"ĠÃ§":319,"±k":320,"Ä±k":321,"is":322,"ĠA":323,"Ã¼r":324,"az":325,"Ä°":326,"±m":327,"Ä±m":328,"ap":329,"le":330,"ah":331,"ab":332,"it":333,"iÅŁ":334,"ĠK":335,"±ÅŁ":336,"Ä±ÅŁ":337,"ey":338,"um":339,"ĠS":340,"Ġp":341,"ĠÃ¶":342,"±z":343,"Ä±z":344,"Ġde":345,"Ġil":346,"ĠT":347,"aÄŁ":348,"li":349,"ol":350,"ĠiÃ§":351,"ĠM":352,"Ġf":353,"ac":354,"\"\"":355,"lan":356,"larÄ±n":357,"Ġal":358,"st":359,"ok":360,"ĠgÃ¶":361,"dan":362,"±ÄŁ":363,"Ä±ÄŁ":364,"Ã¼z":365,"ini":366,"Ġn":367,"ĠÅŁ":368,"Ä±nda":369,"di":370,"ĠD":371,"du":372,"ĠiÃ§in":373,"Ġyap":374,"ev":375,"ine":376,"larÄ":377,"larÄ±":378,"asÄ":379,"asÄ±":380,"Ġar":381,"ec":382,"la":383,"ĠH":384,"Ġ1":385,"Ġ2":386,"ĠÄ°":387,"ĠE":388,"esi":389,"den":390,"Ã¼k":391,"uy":392,"ĠÃ":393,"inde":394,"±y":395,"Ä±y":396,"uz":397,"âĢ":398,"ĠG":399,"Ġbu":400,"ĠY":401,"aÃ§":402,"leri":403,"eler":404,"iler":405,"ti":406,"alar":407,"lÄ":408,"lÄ±":409,"Ã¼m":410,"Ġda":411,"iyor":412,"af":413,"Ä±nÄ":414,"Ä±nÄ±":415,"Ġz":416,"mak":417,"..":418,"Ġile":419,"ya":420,"eÄŁ":421,"Ġr":422,"Ġet":423,"ĠgÃ¶r":424,"±s":425,"Ä±s":426,"ilir":427,"Ġed":428,"ut":429,"ĠP":430,"inin":431,"ĠbaÅŁ":432,"Ã¼l":433,"uÅŁ":434,"dir":435,"Ġan":436,"ma":437,"oÄŁ":438,"lik":439,"av":440,"eÃ§":441,"eb":442,"us":443,"lam":444,"iye":445,"Ġc":446,"Ġger":447,"Ã¶n":448,"tir":449,"Ġkar":450,"Ġver":451,"iniz":452,"ĠÃ¶n":453,"Ġgel":454,"Ġson":455,"Ä±na":456,"ez":457,"dÄ±r":458,"ilm":459,"Ã¼y":460,"ĠO":461,"uk":462,"Ã¼ÅŁ":463,"larak":464,"'d":465,"Ġoldu":466,"ip":467,"len":468,"ĠiÅŁ":469,"ce":470,"eÅŁ":471,"Ġolarak":472,"Ġin":473,"Ä±ÄŁÄ":474,"Ä±ÄŁÄ±":475,"ib":476,"ĠF":477,"om":478,"Ġkon":479,"lem":480,"Ġen":481,"Ġbil":482,"tÄ±r":483,"Ġ(":484,"ĠC":485,"Ġ20":486,"ĠdeÄŁ":487,"Ġay":488,"iÄŁ":489,"Ä±yor":490,"ta":491,"ro":492,"Ġ\"\"":493,"mek":494,"Ġtar":495,"Ä±ndan":496,"te":497,"aya":498,"Åŀ":499,"acak":500,"lÄ±k":501,"Ġkul":502,"Ġolm":503,"Ġbul":504,"aha":505,"anÄ":506,"dÄ":507,"anÄ±":508,"dÄ±":509,"ĠÃ§ok":510,"Ġolan":511,"Ġyer":512,"se":513,"op":514,"Ã¼rk":515,"unu":516,"ĠBu":517,"tÄ":518,"tÄ±":519,"ayÄ":520,"ayÄ±":521,"Ġkullan":522,"ĠaÃ§":523,"Ġor":524,"man":525,"tan":526,"Ä±nÄ±n":527,"Ġkal":528,"ĠN":529,"eni":530,"lu":531,"imiz":532,"ede":533,"ih":534,"ibi":535,"Ã¶r":536,"ic":537,"Ã¶y":538,"yon":539,"Ġdaha":540,"Ġist":541,"ĠÃĩ":542,"ĠgÃ¼n":543,"Ġad":544,"ĠsÃ¼r":545,"Ġkad":546,"ĠolduÄŁ":547,"ĠyÄ±l":548,"ĠR":549,"ark":550,"aki":551,"ÄŁi":552,"alÄ±ÅŁ":553,"Ġvar":554,"Ġkur":555,"Ġher":556,"ra":557,"isi":558,"aman":559,"âĢĻ":560,"Ġuy":561,"mÄ±ÅŁ":562,"Ġbel":563,"lerin":564,"me":565,"ecek":566,"eki":567,"masÄ±":568,"cÄ":569,"cÄ±":570,"abilir":571,"ki":572,"ĠÃ§Ä±k":573,"ada":574,"ca":575,"Ġgibi":576,"ĠgeÃ§":577,"ĠÃ§alÄ±ÅŁ":578,"os":579,"ter":580,"san":581,"00":582,"eden":583,"Ġyar":584,"Ġgerek":585,"ĠÃ¼z":586,"Ä±mÄ±z":587,"ĠV":588,"ĠyaÅŁ":589,"ĠÃĸ":590,"ilen":591,"eh":592,"alÄ":593,"alÄ±":594,"Ġken":595,"ili":596,"ĠsaÄŁ":597,"ama":598,"ist":599,"ep":600,"Ä±nÄ±z":601,"ĠTÃ¼rk":602,"Ġ-":603,"leÅŁ":604,"ĠÃ¼zer":605,"asÄ±nda":606,"Ġbulun":607,"Ġel":608,"Ġ3":609,"ken":610,"laÅŁ":611,"Ġek":612,"ayan":613,"ĠyapÄ±l":614,"Ã¶z":615,"ekt":616,"Ġon":617,"met":618,"ru":619,"ans":620,"Ã¼t":621,"eye":622,"let":623,"id":624,"ĠÅŀ":625,"ÄŁr":626,"ĠÃ¶z":627,"edi":628,"iyet":629,"Ġzaman":630,"miÅŁ":631,"inden":632,"ĠyÃ¶n":633,"unda":634,"gi":635,"Ã¢":636,"eli":637,"Ġpar":638,"Ġoy":639,"ers":640,"ĠL":641,"oy":642,"ĠdÃ¼ÅŁ":643,"Ġsor":644,"iyle":645,"Ġkadar":646,"čĊ":647,"Ġ201":648,"sa":649,"tur":650,"edir":651,"ade":652,"Ġdur":653,"ot":654,"lÃ¼":655,"ĠAn":656,"Ġl":657,"ĠkarÅŁ":658,"Ã¼c":659,"ef":660,"if":661,"Ġtek":662,"Ġdev":663,"Ã¼yÃ¼k":664,"arak":665,"20":666,"lara":667,"daki":668,"est":669,"Ġyaz":670,"eri":671,"Ġtaraf":672,"larÄ±nÄ":673,"larÄ±nÄ±":674,"Ã¶l":675,"Ġak":676,"ĠU":677,"aÅŁk":678,"Ġsah":679,"Ġpro":680,"Ġhal":681,"ĠâĢ":682,"ĠdoÄŁ":683,"ĠÅŁek":684,"unun":685,"Ġuyg":686,"Ġtop":687,"cak":688,"yi":689,"acaÄŁ":690,"ĠÃ¼r":691,"iÃ§":692,"oc":693,"ĠdÃ¶n":694,"Ã¼Ã§":695,"art":696,"Ġyan":697,"Ġkat":698,"Ġkay":699,"Ġkap":700,"Ġbelir":701,"nin":702,"tad":703,"Ġsay":704,"Ġsonra":705,"...":706,"eceÄŁ":707,"aber":708,"men":709,"Ġise":710,"ley":711,"siniz":712,"malar":713,"lerini":714,"Ãľ":715,"imi":716,"uyor":717,"lat":718,"lad":719,"Ġhak":720,"Ġyeni":721,"erek":722,"Ã¼s":723,"eleri":724,"iyat":725,"arÄ":726,"arÄ±":727,"mas":728,"Ġyak":729,"Ġat":730,"tr":731,"ĠkiÅŁ":732,"ĠAr":733,"erk":734,"Ġhay":735,"Ġveya":736,"Ġalan":737,"ĠgerÃ§":738,"deki":739,"elik":740,"Ġyol":741,"lay":742,"Ġ5":743,"ildi":744,"Ġne":745,"sel":746,"Ġtak":747,"ĠÃľ":748,"ĠÃ¶zel":749,"Ġ4":750,"ĠaÃ§Ä±k":751,"Ä±sÄ":752,"Ä±sÄ±":753,"Ġgir":754,"esinde":755,"ĠbÃ¼yÃ¼k":756,"ĠyÃ¼z":757,"Ġuz":758,"Ġev":759,"dÃ¼r":760,"ster":761,"cu":762,"uÃ§":763,"tadÄ±r":764,"kin":765,"larda":766,"ĠyÃ¼k":767,"ĠÃ¶nem":768,"Ġort":769,"iv":770,"ĠAl":771,"Ġgen":772,"ĠÃ¶ÄŁr":773,"ram":774,"Ġden":775,"ĠdeÄŁil":776,"una":777,"Ġdurum":778,"ĠdÃ¼z":779,"Ġbak":780,"od":781,"Ġben":782,"orum":783,"Ġsiz":784,"atÄ±r":785,"ebilir":786,"Ġsev":787,"ĠÅŁekil":788,"lere":789,"ĠBir":790,"Ġilg":791,"Ä±lan":792,"asyon":793,"ĠTÃ¼rkiye":794,"ĠbaÄŁ":795,"iÅŁtir":796,"Ġinsan":797,"Ġkaz":798,"izmet":799,"Ġkend":800,"ediÄŁ":801,"ĠsÃ¶y":802,"ĠseÃ§":803,"ĠtarafÄ±ndan":804,"Ġhem":805,"Ġtem":806,"Ġfark":807,"aret":808,"ĠI":809,"Ġiyi":810,"ht":811,"ven":812,"Ġilk":813,"Ä±yla":814,"ĠgÃ¶ster":815,"ÄŁu":816,"ci":817,"Ġsit":818,"uÅŁtur":819,"ten":820,"aat":821,"anÄ±n":822,"dÄ±m":823,"asÄ±l":824,"oz":825,"Ġbiz":826,".\"":827,"aÄŁÄ":828,"aÄŁÄ±":829,"abil":830,"ĠgerÃ§ek":831,"ĠgÃ¶re":832,"sun":833,"ĠbÃ¶l":834,"Ġhar":835,"ĠolduÄŁu":836,"eyi":837,"ĠÅŁekilde":838,"etim":839,"maya":840,"mesi":841,"Ġok":842,"Ġneden":843,"Ä±ÄŁÄ±nÄ±":844,"ĠBaÅŁk":845,"ileri":846,"adan":847,"Ġtam":848,"ER":849,"larÄ±nÄ±n":850,"ĠeÄŁ":851,"bir":852,"Ġa":853,"ast":854,"AR":855,"Ġalt":856,"Ġ'":857,"ĠÃ§ek":858,"etir":859,"rÄ":860,"rÄ±":861,"ara":862,"enin":863,"alÄ±k":864,"Ġyok":865,"por":866,"maktadÄ±r":867,"tÄ±k":868,"ob":869,"Ã¼ven":870,"Ġhizmet":871,"Ġki":872,"dur":873,"han":874,"Ãĩ":875,"Ġuygul":876,"ĠtÃ¼m":877,"Ġes":878,"nÄ":879,"nÄ±":880,"Ä±mÄ":881,"Ä±mÄ±":882,"Ã¼st":883,"ran":884,"Ġul":885,"ayÄ±n":886,"nÄ±n":887,"re":888,"ret":889,"iÄŁer":890,"Ä±lÄ":891,"Ä±lÄ±":892,"Ġyet":893,"Ġgetir":894,"up":895,"Ġmil":896,"Ġbilg":897,"AN":898,"Ġsahip":899,"Ġder":900,"istem":901,"ĠÃ¼l":902,"cel":903,"ĠiÃ§er":904,"liÄŁi":905,"Ġiz":906,"Ġser":907,"Ġkazan":908,"der":909,"ĠgÃ¶z":910,"Ãĸ":911,"ĠZ":912,"Ġsat":913,"Ġsan":914,"ĠsÄ±r":915,"ĠAy":916,"ĠiÅŁlem":917,"Ġtarih":918,"Ġfaz":919,"siz":920,"oÅŁ":921,"ĠÅŁey":922,"alarÄ":923,"alarÄ±":924,"larÄ±na":925,"tar":926,"leÅŁtir":927,"Ġya":928,"olo":929,"Ġdevam":930,"ĠÃ¶nemli":931,"mam":932,"ĠdeÄŁer":933,"raf":934,"ĠEr":935,"ĠolduÄŁunu":936,"ĠalÄ±n":937,"esine":938,"azÄ":939,"azÄ±":940,"Ġtut":941,"Ġ19":942,"dÄ±ÄŁÄ±":943,"ĠdÃ¼ÅŁÃ¼n":944,"Ġas":945,"usu":946,"ĠdÃ¼n":947,"ĠsÃ¶z":948,"Ġetti":949,"Ġ6":950,"Ġilgili":951,"iyas":952,"dÃ¼":953,"lÄ±ÄŁÄ±":954,"Ġoyun":955,"bet":956,"ĠÃ¶ÄŁren":957,"Ġaz":958,"Ġdol":959,"lerde":960,"ĠÃ¶nce":961,"eniz":962,"Ġsun":963,"itim":964,"Ġduy":965,"Ġede":966,"sek":967,"Ġter":968,"Ġam":969,"mekt":970,"ĠaÅŁ":971,"Ġ0":972,"ĠÃ¼lk":973,"lerinin":974,"ub":975,"±cÄ±":976,"Ä±cÄ±":977,"ĠÄ°n":978,"liÄŁ":979,"Ġbin":980,"Ġkol":981,"iÅŁim":982,"ig":983,"ocuk":984,"lendir":985,"Ġama":986,"Bu":987,"esini":988,"iyon":989,"ka":990,"ĠaÄŁ":991,"Ã¼nde":992,"emek":993,"ilik":994,"tÃ¼r":995,"ĠkÄ±s":996,"Ã¶yle":997,"Ġbah":998,"oloj":999,"orm":1000,"lerine":1001,"likle":1002,"âĢ¦":1003,"ika":1004,"Ġetk":1005,"ĠarasÄ±nda":1006,"sÄ±z":1007,"tu":1008,"erkez":1009,"Ġzor":1010,"alan":1011,"ĠBel":1012,"±p":1013,"Ä±p":1014,"Ġmu":1015,"Ġ10":1016,"Ġbirlik":1017,"Ä±ndaki":1018,"ĠKur":1019,"emiz":1020,"'t":1021,"ket":1022,"Ġ7":1023,"ĠdÃ¼zen":1024,"mektedir":1025,"Ġsistem":1026,"Ã§a":1027,"Ġtan":1028,"Ã§e":1029,"bul":1030,"larÄ±nda":1031,"Ġhakk":1032,"Ġis":1033,"Ã¼yor":1034,"Ã¼nÃ¼":1035,"Ġiki":1036,"azÄ±r":1037,"ĠgÃ¼ven":1038,"ulu":1039,"Ã¼zel":1040,"Ġolur":1041,"Ġfazla":1042,"lardan":1043,"ĠÃ¶l":1044,"ĠiÃ§inde":1045,"lama":1046,"ide":1047,"yal":1048,"ĠtaÅŁ":1049,"Ġbek":1050,"abilirsiniz":1051,"ĠÄ°l":1052,"Ġhayat":1053,"diÄŁ":1054,"ye":1055,"esin":1056,"ehir":1057,"Ġdest":1058,"gÃ¼n":1059,"tÃ¼":1060,"Ġfiyat":1061,"ĠyatÄ±r":1062,"ĠhiÃ§":1063,"ĠÃĸz":1064,"ĠkonuÅŁ":1065,"iyorum":1066,"ĠdiÄŁer":1067,"si":1068,"ĠdÄ±ÅŁ":1069,"stan":1070,"Ġbas":1071,"og":1072,"tÄ±ÄŁÄ±":1073,"asar":1074,"diÄŁi":1075,"tik":1076,"kan":1077,"dik":1078,"eyen":1079,"Ġim":1080,"Ġkr":1081,"Ġtes":1082,"adece":1083,"maz":1084,"acÄ":1085,"acÄ±":1086,"Ġolacak":1087,"ilmesi":1088,"ne":1089,"ing":1090,".\"\"":1091,"meye":1092,"Ġbirlikte":1093,"ĠAk":1094,"rup":1095,"ĠÃ¼rÃ¼n":1096,"Ġif":1097,"ĠaynÄ±":1098,"ici":1099,"Ġgelen":1100,"ĠnasÄ±l":1101,"ilerin":1102,"Ã¼p":1103,"Ġdik":1104,"Ġmes":1105,"ĠdÃ¶nem":1106,"ĠulaÅŁ":1107,"ladÄ":1108,"ladÄ±":1109,"âĢĿ":1110,"Ġolmak":1111,"gram":1112,"ĠW":1113,"ĠhazÄ±r":1114,"Ä±lÄ±k":1115,"Ġkor":1116,"eÄŁi":1117,"Ġdiye":1118,"Ġkab":1119,"ĠÄ°ÅŁ":1120,"Ġ8":1121,"Ġark":1122,"ov":1123,"lÄ±ÄŁ":1124,"Ġsaat":1125,"ĠgÃ¶rÃ¼n":1126,"stanbul":1127,"kat":1128,"lah":1129,"Ġot":1130,"ĠKar":1131,"ĠkÃ¶":1132,"ĠGen":1133,"ĠfarklÄ±":1134,"Ġkim":1135,"ĠBak":1136,"larla":1137,"Ġboy":1138,"Ġeden":1139,"net":1140,"Ġdedi":1141,"ĠyapÄ±lan":1142,"Ġbur":1143,"ĠEn":1144,"ĠdoÄŁru":1145,"ĠJ":1146,"asÄ±na":1147,"na":1148,"eg":1149,"Ġu":1150,"Ġkonu":1151,"ĠÃ¶r":1152,"ĠÃ¼st":1153,"Ġsen":1154,"ĠâĢĵ":1155,"ĠkarÅŁÄ":1156,"ĠkarÅŁÄ±":1157,"iyoruz":1158,"yla":1159,"201":1160,"ĠtÃ¼r":1161,"Ġsal":1162,"kÃ¼":1163,"eket":1164,"tiÄŁ":1165,"Ġdil":1166,"luk":1167,"Ġpara":1168,"ĠÃ§Ä±kar":1169,"lerinde":1170,"ĠgÃ¼zel":1171,"ĠeÅŁ":1172,"Ġart":1173,"dar":1174,"....":1175,"irket":1176,"Ã¼tÃ¼n":1177,"Ġkan":1178,"Ġ:":1179,"ĠyardÄ±m":1180,"Ġtamam":1181,"Ġhaf":1182,"Ġiht":1183,"nun":1184,"larÄ±mÄ±z":1185,"Ġer":1186,"ĠsÄ±k":1187,"ĠyÃ¼ksek":1188,"Ġanlam":1189,"ĠÃ§ocuk":1190,"Ä±zÄ":1191,"Ä±zÄ±":1192,"ĠdeÄŁiÅŁ":1193,"Ġmal":1194,"leme":1195,"aÅŁtÄ±r":1196,"ĠBaÅŁkanÄ±":1197,"21":1198,"uv":1199,"ĠbÃ¶lg":1200,"Ã®":1201,"Ġhes":1202,"Ġkurul":1203,"ĠÃ¶nc":1204,"dÄ±ÄŁ":1205,"ĠkullanÄ±l":1206,"Ġkarar":1207,"ost":1208,"Ġkendi":1209,"Ġtekn":1210,"Ġban":1211,"Ġkam":1212,"ĠoluÅŁtur":1213,"siyon":1214,"Ġ|":1215,"Ġtel":1216,"eme":1217,"Ġsadece":1218,"isinde":1219,"fa":1220,"ĠiliÅŁ":1221,"inizi":1222,"ĠyatÄ±rÄ±m":1223,"ĠmÃ¼":1224,"ahat":1225,"adaÅŁ":1226,"ĠolmasÄ±":1227,"ĠgÃ¶rev":1228,"esinin":1229,"unuz":1230,"Ġdestek":1231,"Ġik":1232,"dÄ±k":1233,"EN":1234,"hur":1235,"mi":1236,"adÄ":1237,"adÄ±":1238,"Ã¼ne":1239,"Ġem":1240,"anlÄ±":1241,"asÄ±nÄ±":1242,"ĠÄ°s":1243,"Ġdikkat":1244,"end":1245,"Ġmak":1246,"Ġhav":1247,"Ġ9":1248,"he":1249,"avaÅŁ":1250,"osyal":1251,"tal":1252,"lÃ¼k":1253,"ĠâĢľ":1254,"mÄ±ÅŁtÄ±r":1255,"aylaÅŁ":1256,"lerden":1257,"Ġtab":1258,"ĠGÃ¼n":1259,"oÄŁlu":1260,"ĠÃ§ev":1261,"ĠBeled":1262,"Ġolduk":1263,"Ġw":1264,"Ġbelirt":1265,"Ġdav":1266,"ektÃ¶r":1267,"ore":1268,"Ġetm":1269,"usunda":1270,"Ä°N":1271,"Ġmod":1272,"ÄŁÃ¼":1273,"atÄ":1274,"atÄ±":1275,"ĠSon":1276,"ĠgÃ¼Ã§":1277,"anda":1278,"layan":1279,"Ġhaber":1280,"Ġeder":1281,"ĠhÄ±z":1282,"ĠAv":1283,"ĠÃ¼y":1284,"ivers":1285,"Ġuygun":1286,"ĠEk":1287,"okt":1288,"Ġbulunan":1289,"Ġgenel":1290,"onom":1291,"Ġ15":1292,"rak":1293,"Ä±rak":1294,"azar":1295,"ĠgÃ¶n":1296,"lak":1297,"ĠBil":1298,"ĠPro":1299,"iversit":1300,"ĠeÄŁitim":1301,"gel":1302,"Ġoyn":1303,"ĠCum":1304,"Ġbun":1305,"ĠOr":1306,"ĠsÃ¶yl":1307,"Ġkit":1308,"ĠkatÄ±l":1309,"rÄ±ca":1310,"ĠÄ°stanbul":1311,"sam":1312,"ge":1313,"Ġbit":1314,"nak":1315,"ĠKon":1316,"AL":1317,"19":1318,"ĠMÃ¼":1319,"Ġmut":1320,"Ġbile":1321,"com":1322,"Ġmad":1323,"ĠkarÅŁÄ±l":1324,"Ġgid":1325,"muÅŁ":1326,"Ġbiri":1327,"ece":1328,"Ġsorun":1329,"Ã§ok":1330,"Ġgit":1331,"ĠÃ¼zere":1332,"ĠgerÃ§ekleÅŁtir":1333,"hal":1334,"lanan":1335,"bol":1336,"Ġhat":1337,"sal":1338,"elerin":1339,"ĠhakkÄ±nda":1340,"AK":1341,"ĠEÄŁ":1342,"eti":1343,"Ġhareket":1344,"ĠoluÅŁ":1345,"ĠÃ§alÄ±ÅŁmalar":1346,"ant":1347,"ilecek":1348,"ent":1349,"ĠbÄ±rak":1350,"lerinden":1351,"ri":1352,"ĠbazÄ±":1353,"Äŀ":1354,"ĠHaber":1355,"IN":1356,"Ġmi":1357,"ĠÅŁirket":1358,"larÄ±ndan":1359,"ET":1360,"Ġproj":1361,"enk":1362,"ĠÃ¼zerinde":1363,"ĠÃ¼ret":1364,"Ġihtiy":1365,"res":1366,"ĠarkadaÅŁ":1367,"ĠbaÅŁar":1368,"Ġsonr":1369,"duÄŁu":1370,"lum":1371,"Ġedilm":1372,"ĠkaÃ§":1373,"Ġfir":1374,"aj":1375,"ĠyÃ¼r":1376,"10":1377,"ĠÃ§Ã¶z":1378,"ĠsÄ±n":1379,"gil":1380,"bar":1381,"ĠyaÅŁam":1382,"Ġsu":1383,"lamak":1384,"Ġ/":1385,"Ġuzun":1386,"Ġanlat":1387,"Ġ#":1388,"lerle":1389,"ĠdÃ¼ny":1390,"ĠMu":1391,"Ã¼mÃ¼z":1392,"ĠgeÃ§ir":1393,"Ġortaya":1394,"kÄ":1395,"iÄŁi":1396,"lerimiz":1397,"kÄ±":1398,"tÄ±ÄŁ":1399,"ĠÃ¼zerine":1400,"edik":1401,"Ġuygulam":1402,"Ã§i":1403,"Ġ200":1404,"An":1405,"mayÄ±":1406,"dem":1407,"efon":1408,"Ġetmek":1409,"Ġmev":1410,"may":1411,"Ġtal":1412,"Ġediyor":1413,"Ã¼nkÃ¼":1414,"ektedir":1415,"sin":1416,"ver":1417,"Ġbahis":1418,"Ġhast":1419,"amaz":1420,"rar":1421,"gan":1422,"Ġmerkez":1423,"ĠBaÅŁ":1424,"min":1425,"ĠteÅŁ":1426,"Ġseb":1427,"ucu":1428,"ĠyÃ¶net":1429,"ĠbaÅŁka":1430,"dÄ±ndan":1431,"Ġplan":1432,"eda":1433,"Ġfa":1434,"Ġifade":1435,"eÅŁit":1436,"ĠGenel":1437,"Ã¼ÅŁter":1438,"akat":1439,"elim":1440,"ĠBur":1441,"atik":1442,"Ġ12":1443,"Ġkolay":1444,"ĠgeliÅŁ":1445,"adÄ±ÄŁÄ±":1446,"EL":1447,"lenen":1448,"masÄ±nÄ±":1449,"ĠĠ":1450,"Ġprogram":1451,"Ã¼cret":1452,"umuz":1453,"Ġdem":1454,"Ġancak":1455,"mer":1456,"ĠbÃ¼tÃ¼n":1457,"ĠgÃ¶rÃ¼ÅŁ":1458,"olu":1459,"Ġpol":1460,"ĠyÄ±lÄ±nda":1461,"Ġhas":1462,"ĠÅŁu":1463,"Bir":1464,"ĠÃ¼cret":1465,"Ġtasar":1466,"aba":1467,"Ġyay":1468,"ĠpaylaÅŁ":1469,"ternet":1470,"Ġpiyas":1471,"Ġkabul":1472,"ĠMil":1473,"Ġmet":1474,"sanÄ±z":1475,"Ġkoy":1476,"urt":1477,"ĠÃ¼Ã§":1478,"gul":1479,"gÄ":1480,"Ġ,":1481,"gÄ±":1482,"suz":1483,"Ġayr":1484,"Ã¼Ã§Ã¼k":1485,"ĠkadÄ±n":1486,"anÄ±t":1487,"Ä±ya":1488,"istan":1489,"edef":1490,"ĠkiÅŁi":1491,"ĠaÃ§Ä±klam":1492,"ayÄ±s":1493,"tif":1494,"abilm":1495,"Ġop":1496,"ĠyaklaÅŁ":1497,"lim":1498,"Ġun":1499,"trol":1500,"Ġtah":1501,"det":1502,"ĠbirÃ§ok":1503,"Ġyorum":1504,"ĠTL":1505,"oh":1506,"ch":1507,"Ġyas":1508,"Ã¶k":1509,"Ġhan":1510,"ĠmaÃ§":1511,"ĠÃľn":1512,"vur":1513,"Ġbilgi":1514,"Ġterc":1515,"ĠsaÄŁlÄ±k":1516,"Ä°L":1517,"ĠbÃ¶lÃ¼m":1518,"rik":1519,"ĠsÄ":1520,"ize":1521,"ĠsÄ±":1522,"obil":1523,"Ġkom":1524,"ĠÂ":1525,"gin":1526,"Ġdin":1527,"tem":1528,"ĠgÃ¶nder":1529,"ediÄŁi":1530,"Ġdiy":1531,"Ġkes":1532,"ĠyÃ¼zde":1533,"duÄŁ":1534,"ĠTek":1535,"AT":1536,"cek":1537,"asÄ±nÄ±n":1538,"Ġhis":1539,"ĠyayÄ±n":1540,"Ä±yoruz":1541,"indeki":1542,"ĠTar":1543,"ĠAB":1544,"eceÄŁi":1545,"Ġedeb":1546,"isini":1547,"ag":1548,"ĠPar":1549,"ĠaraÃ§":1550,"Ġolabilir":1551,"),":1552,"azet":1553,"meler":1554,"Ġ%":1555,"acaÄŁÄ":1556,"acaÄŁÄ±":1557,"Ġbilin":1558,"ĠyakÄ±n":1559,"masÄ±na":1560,"ĠbÃ¶yle":1561,"ĠÃ§eÅŁit":1562,"TÃ¼rk":1563,"Ġ11":1564,"Ġedilen":1565,"edav":1566,"ĠmÄ":1567,"ĠmÄ±":1568,"ĠAncak":1569,"ĠEl":1570,"ĠuÃ§":1571,"Ġziy":1572,"mez":1573,"Ġmilyon":1574,"Ġkonusunda":1575,"Ġhep":1576,"ĠardÄ±ndan":1577,"rans":1578,"alt":1579,"enek":1580,"Ä±lÄ±r":1581,"Ġkurum":1582,"Ġ18":1583,"Ä±lmasÄ±":1584,"Ä°R":1585,"ĠiÃ§erisinde":1586,"oÄŁan":1587,"iliyor":1588,"Ġres":1589,"Ġfilm":1590,"imdi":1591,"Ã¼ltÃ¼r":1592,"ĠSan":1593,"ber":1594,"Ġyerine":1595,"kÃ¼n":1596,"Ä±ldÄ±":1597,"ĠkÄ±r":1598,"ĠBaÅŁkan":1599,"van":1600,"madan":1601,"Ġmah":1602,"orex":1603,"ĠdeÄŁerlendir":1604,"Ä±yorum":1605,"ĠHer":1606,"ile":1607,"ĠCumhur":1608,"anan":1609,"ele":1610,"Ġtercih":1611,"ĠMÃ¼dÃ¼r":1612,"Ġid":1613,"ilere":1614,"ĠAd":1615,"ank":1616,"Ġgelir":1617,"AS":1618,"Ġrahat":1619,"22":1620,"Ġtelefon":1621,"ĠvardÄ±r":1622,"Ġkav":1623,"undan":1624,"manÄ±n":1625,"Ġkapsam":1626,"Ġdo":1627,"isine":1628,"Ġdah":1629,"Ġav":1630,"oÄŁraf":1631,"ĠYap":1632,"malÄ±":1633,"ali":1634,"ĠsonuÃ§":1635,"Ġyapan":1636,"ayet":1637,"sik":1638,"Ġhedef":1639,"oÄŁu":1640,"nde":1641,"Ä±ma":1642,"Ġvat":1643,"Ä±ÅŁtÄ±r":1644,"ĠgeliÅŁtir":1645,"ĠÃ¼zerinden":1646,"acaktÄ±r":1647,"ort":1648,"icaret":1649,"leyen":1650,"ĠBen":1651,"izi":1652,"eyin":1653,"ĠÃ¶ÄŁrenc":1654,"rupa":1655,"ĠDev":1656,"ES":1657,"ĠÃ¼n":1658,"ĠAt":1659,"emm":1660,"nek":1661,"Ġkez":1662,"abÄ":1663,"abÄ±":1664,"andaÅŁ":1665,"Ġsosyal":1666,"Ġman":1667,"Ġses":1668,"ud":1669,"miÅŁtir":1670,"Ä±ÅŁÄ":1671,"Ä±ÅŁÄ±":1672,"ĠYar":1673,"Ġe":1674,"Ġdevlet":1675,"ekk":1676,"Ġ14":1677,"Ġyapmak":1678,"ĠmÃ¼ÅŁter":1679,"ĠAs":1680,"Ġkontrol":1681,"ĠmÃ¼m":1682,"Ġkalit":1683,"ĠgÃ¶rÃ¼l":1684,"oÄŁun":1685,"Ġzamanda":1686,"arasÄ±":1687,"OR":1688,"hangi":1689,"AM":1690,"uluk":1691,"Ġincel":1692,"Ä±rs":1693,"AY":1694,"erli":1695,"ĠYÄ±l":1696,"ow":1697,"Ã¼cad":1698,"Ã¼nÃ¼n":1699,"Ġ13":1700,"Ġekonom":1701,"Ġmey":1702,"gÄ±n":1703,"vet":1704,"Ġtur":1705,"ĠbugÃ¼n":1706,"EK":1707,"ĠdÃ¶nÃ¼ÅŁ":1708,"unca":1709,"ĠaraÅŁtÄ±r":1710,"sunuz":1711,"uc":1712,"ebilirsiniz":1713,"Ġmas":1714,"Ġvur":1715,"ari":1716,"ĠBakan":1717,"Ġelde":1718,"Ġkaynak":1719,"Ġdak":1720,"kara":1721,"ĠmÃ¼mkÃ¼n":1722,"isyon":1723,"Ġziyaret":1724,"Ã¼b":1725,"ĠyaptÄ±ÄŁÄ±":1726,"landÄ±r":1727,"rim":1728,"Ġ16":1729,"Ã¼kÃ¼m":1730,"ĠsektÃ¶r":1731,"ĠbaÄŁlÄ±":1732,"iyesi":1733,"Ġli":1734,"Ġmer":1735,"ĠhiÃ§bir":1736,"ĠgiriÅŁ":1737,"Ġtav":1738,"50":1739,"Ġgereken":1740,"alarÄ±n":1741,"erj":1742,"Ġod":1743,"Ġbor":1744,"ĠbÃ¼y":1745,"Ġtoplum":1746,"Ġhesap":1747,"akk":1748,"Ġbenz":1749,"±t":1750,"Ä±t":1751,"ĠkÄ±sa":1752,"ĠoldukÃ§a":1753,"Ġindir":1754,"ĠartÄ±k":1755,"ve":1756,"ĠbaÅŁvur":1757,"ilmiÅŁ":1758,"Ġgeri":1759,"gu":1760,"Ġinan":1761,"Ġzar":1762,"dÄ±ÄŁÄ±nÄ±":1763,"12":1764,"ĠKan":1765,"ĠyÃ¶ntem":1766,"ĠMah":1767,"Ġyen":1768,"ĠÃ§alÄ±ÅŁan":1769,"of":1770,"ĠYÃ¶n":1771,"ĠdÃ¼nya":1772,"lemek":1773,"ĠDÃ¼n":1774,"ĠBÃ¼yÃ¼k":1775,"amak":1776,"ate":1777,").":1778,"ĠÃľniversit":1779,"Ġber":1780,"Ġiti":1781,"Ġcev":1782,"Ġof":1783,"abilecek":1784,"aliyet":1785,"LAR":1786,"acaÄŁÄ±nÄ±":1787,"pan":1788,"Ġyarat":1789,"ĠaltÄ±nda":1790,"Ġtakip":1791,"Âł":1792,"Ġolay":1793,"ĠkÄ±z":1794,"ĠSer":1795,"Ġtoplan":1796,"oloji":1797,"ekli":1798,"ĠkaldÄ±r":1799,"kinci":1800,"itik":1801,"Ġolsun":1802,"Ġilet":1803,"Ġbunu":1804,"iyi":1805,"Ġgeldi":1806,"ĠÃĸzel":1807,"Ġsize":1808,"ren":1809,"las":1810,"ĠyÃ¼ksel":1811,"sil":1812,"ĠBiz":1813,"taj":1814,"000":1815,"ĠkÃ¼Ã§Ã¼k":1816,"Ġhemen":1817,"ĠsÄ±nÄ±r":1818,"Ġisim":1819,"ĠÃ¶zellik":1820,"ĠtakÄ±m":1821,"Ġ17":1822,"Ġmik":1823,"ĠsÃ¼re":1824,"ĠkayÄ±":1825,"Ġnedeniyle":1826,"Ġyine":1827,"ĠyaÄŁ":1828,"ĠÄ°Ã§":1829,"uh":1830,"ĠgeÃ§en":1831,"EM":1832,"Ã§Ä":1833,"Ã§Ä±":1834,"Ġper":1835,"ĠOn":1836,"tiÄŁi":1837,"umlu":1838,"ĠanlaÅŁ":1839,"mem":1840,"isinin":1841,"ĠvatandaÅŁ":1842,"Ä±lmÄ±ÅŁ":1843,"Ġpek":1844,"ĠEs":1845,"Ġbenim":1846,"ern":1847,"dim":1848,"ĠÃ¶de":1849,"UR":1850,"ĠAvrupa":1851,"ĠseÃ§im":1852,"Ġtemel":1853,"adÄ±ÄŁ":1854,"Ġherhangi":1855,"isk":1856,"Ġveren":1857,"mir":1858,"eÄŁin":1859,"uslar":1860,"Ġgerekir":1861,"tÄ±m":1862,"Ġitibar":1863,"Ġherk":1864,"elen":1865,"ĠmÃ¼cad":1866,"Ġdir":1867,"Ġmem":1868,"ĠgÃ¼nÃ¼":1869,"ĠkoÅŁ":1870,"ĠBunun":1871,"ale":1872,"Ġac":1873,"lÃ¼l":1874,"Ġadam":1875,"elerini":1876,"ĠMerkez":1877,"ĠgenÃ§":1878,"fer":1879,"aban":1880,"for":1881,"adÄ±k":1882,"ĠkullanÄ±cÄ±":1883,"umu":1884,"Ġbey":1885,"ĠABD":1886,"Ġmodel":1887,"ĠsÃ¶yledi":1888,"11":1889,"duk":1890,"ĠNe":1891,"din":1892,"doÄŁan":1893,"tin":1894,"ĠHal":1895,"uyla":1896,"ĠAma":1897,"Ġsiyas":1898,"ĠAllah":1899,"Ġnokt":1900,"Ġoran":1901,"ĠDr":1902,"Ġbar":1903,"co":1904,"ulan":1905,"Ġtat":1906,"ĠYeni":1907,"ĠÃĸn":1908,"Ã¼sÃ¼":1909,"ĠhÄ±zlÄ±":1910,"otoÄŁraf":1911,"Ġengel":1912,"Ġtedav":1913,"Ġmark":1914,"Ġ30":1915,"dum":1916,"Ġalmak":1917,"lo":1918,"pr":1919,"eceÄŁini":1920,"Ġfay":1921,"30":1922,"Ġmed":1923,"ĠdeÄŁiÅŁik":1924,"AB":1925,"elere":1926,"Ġ2020":1927,"ani":1928,"HP":1929,"mÃ¼ÅŁ":1930,"manÄ±z":1931,"Ġokul":1932,"Ġetkin":1933,"ron":1934,"ON":1935,"Ġolup":1936,"ĠKas":1937,"ĠÄ°z":1938,"Ġsab":1939,"Ġkil":1940,"cut":1941,"ĠEy":1942,"cÃ¼":1943,"ĠtÃ¼k":1944,"ĠbaÅŁladÄ±":1945,"ĠdeÄŁiÅŁtir":1946,"landÄ±":1947,"ekkÃ¼r":1948,"Ġih":1949,"ĠsavaÅŁ":1950,"all":1951,"Ġhafta":1952,"ĠOl":1953,"Ġoluyor":1954,"Ġuzak":1955,"Ġspor":1956,"Ġrek":1957,"erÃ§":1958,"ĠaÄŁÄ±r":1959,"ite":1960,"br":1961,"tim":1962,"Ġhalk":1963,"Ġedildi":1964,"ĠTop":1965,"Ġbilm":1966,"nda":1967,"Ġtekrar":1968,"dÄ±n":1969,"ĠAyrÄ±ca":1970,"ĠÃ§Ã¶zÃ¼m":1971,"Ä±sÄ±nda":1972,"baÅŁk":1973,"dana":1974,"Ġcez":1975,"ĠÃ¶lÃ§":1976,"Ġkonusu":1977,"Ġeski":1978,"Ġbunun":1979,"Ġinternet":1980,"Ä°K":1981,"ĠTur":1982,"Ġonun":1983,"Ġyeniden":1984,"ĠilÃ§":1985,"ĠKul":1986,"utbol":1987,"AD":1988,"ĠOk":1989,"Ġbildir":1990,"ĠdeÄŁildir":1991,"Ġsak":1992,"Ġait":1993,"alarda":1994,"Ġfaaliyet":1995,"ĠyÃ¶nelik":1996,"Ġbizim":1997,"ĠsÃ¼rec":1998,"Ġsin":1999,"ana":2000,"ĠiliÅŁk":2001,"Ġtemiz":2002,"imizin":2003,"Ġ2021":2004,"ilerini":2005,"malarÄ":2006,"malarÄ±":2007,"adÄ±ÄŁÄ±nÄ±":2008,"Ġner":2009,"esel":2010,"amp":2011,"Ġbiraz":2012,"yle":2013,"ĠHaz":2014,"Ġkesin":2015,"form":2016,"ĠÅŀub":2017,"ker":2018,"ĠcanlÄ±":2019,"ĠÃ¶zellikle":2020,"Ġsey":2021,"bak":2022,"nÄ±z":2023,"ekten":2024,"lÃ¼ÄŁÃ¼":2025,"ĠKal":2026,"alÄ±m":2027,"ĠEv":2028,"ĠgeniÅŁ":2029,"Ä°M":2030,"Ġkir":2031,"ĠbaÄŁlan":2032,"sman":2033,"ij":2034,"Ġsoru":2035,"Ã¼f":2036,"Ä°Y":2037,"LER":2038,"elerde":2039,"ni":2040,"ĠÃ§aÄŁ":2041,"ĠsatÄ±ÅŁ":2042,"Ar":2043,"ift":2044,"alat":2045,"tiv":2046,"Ġadet":2047,"larÄ±yla":2048,"eyim":2049,"ĠraÄŁ":2050,"Ġ.":2051,"Ġekip":2052,"Ġberaber":2053,"asÄ±ndaki":2054,"lÄ±yor":2055,"bu":2056,"imizi":2057,"inize":2058,"Ġrenk":2059,"edim":2060,"Ġistem":2061,"Al":2062,"Ġolmayan":2063,"ĠÅŁeh":2064,"alnÄ±z":2065,"Ġkitap":2066,"ĠKay":2067,"Ġ2019":2068,"ukuk":2069,"Ġkut":2070,"esinden":2071,"etmen":2072,"enc":2073,"ĠkÄ±y":2074,"ati":2075,"ĠihtiyaÃ§":2076,"Ġsav":2077,"Ã¼ler":2078,"lardÄ±r":2079,"ĠyardÄ±mcÄ±":2080,"Ä±nÄ±zÄ":2081,"Ä±nÄ±zÄ±":2082,"ĠhÃ¼kÃ¼m":2083,"TÃ¼rkiye":2084,"Ġvak":2085,"ĠBelediye":2086,"Ġsil":2087,"izm":2088,"Ġyat":2089,"afa":2090,"ĠsaldÄ±r":2091,"Ġgerekli":2092,"can":2093,"ĠSaÄŁ":2094,"Ġotur":2095,"erasyon":2096,"Ä±sÄ±ndan":2097,"ince":2098,"Ä±rken":2099,"........":2100,"15":2101,"iyeti":2102,"Ġcih":2103,"Ä±nÄ±f":2104,"ÅŁehir":2105,"ĠraÄŁmen":2106,"asin":2107,"Ġ2018":2108,"ĠOy":2109,"Ġbirbir":2110,"ĠÃ§alÄ±ÅŁma":2111,"ĠsÃ¼rdÃ¼r":2112,"ĠsayÄ±":2113,"dÃ¼l":2114,"ĠmÃ¼z":2115,"Ġonu":2116,"deÅŁ":2117,"uyu":2118,"ĠdoÄŁr":2119,"etay":2120,"Ġiddi":2121,"ĠÃľniversitesi":2122,"ĠKo":2123,"ĠÃ§eÅŁitli":2124,"Ġdiz":2125,"acaÄŁÄ±z":2126,"alet":2127,"ĠÃ§Ä±kan":2128,"ĠAnkara":2129,"lilik":2130,"Ã¼nden":2131,"ĠÅŁart":2132,"ere":2133,"uÄŁ":2134,"ĠsuÃ§":2135,"arken":2136,"AÅŀ":2137,"ilerine":2138,"ĠKad":2139,"ĠTr":2140,"dÃ¼ÄŁ":2141,"Ġmevcut":2142,"Ġyarar":2143,"Ġdair":2144,"Ġhiss":2145,"Ġortam":2146,"Ġboz":2147,"kaÃ§":2148,"Ġstr":2149,"isan":2150,"ĠÃ¶ner":2151,"ĠBÃ¶l":2152,"be":2153,"ĠtanÄ±m":2154,"ĠEÄŁitim":2155,"ĠalÄ±ÅŁ":2156,"Ġsayf":2157,"ĠyÃ¶netim":2158,"aten":2159,"Ġortak":2160,"leriyle":2161,"Ġsayesinde":2162,"ĠparÃ§":2163,"ohbet":2164,"ĠMart":2165,"meden":2166,"Ġders":2167,"bah":2168,"ĠadÄ±m":2169,"iran":2170,"meyi":2171,"imize":2172,"latform":2173,"Ġarac":2174,"asÄ±ndan":2175,"ww":2176,"Ġcan":2177,"Ġail":2178,"Ġ2017":2179,"ĠHas":2180,"Ġsar":2181,"ÅŁam":2182,"ĠÅŁekl":2183,"Ġdayan":2184,"Ġweb":2185,"larÄ±nÄ±z":2186,"ĠMar":2187,"ĠboÅŁ":2188,"Ġsanat":2189,"ĠGel":2190,"uslararasÄ±":2191,"Ġticaret":2192,"imde":2193,"ĠdolayÄ±":2194,"ĠÃ§iz":2195,"ĠUy":2196,"Ġelekt":2197,"Son":2198,"lÄ±nda":2199,"ĠHay":2200,"lis":2201,"ĠamaÃ§":2202,"vis":2203,"apor":2204,"ĠiliÅŁkin":2205,"ĠgerÃ§ekleÅŁ":2206,"Ġpazar":2207,"kil":2208,"Ġ24":2209,"ĠsÄ±ra":2210,"ĠuÄŁr":2211,"ĠsatÄ±n":2212,"isay":2213,"ĠBey":2214,"ĠForex":2215,"Ä±ntÄ±":2216,"Ġtalep":2217,"ĠÃĩÃ¼nkÃ¼":2218,"esiyle":2219,"lek":2220,"ĠErdoÄŁan":2221,"Ġzarar":2222,"ĠÃ§evr":2223,"ĠBay":2224,"Ġyani":2225,"hat":2226,"ĠGÃ¶r":2227,"ĠDaha":2228,"Ä°n":2229,"lk":2230,"ezon":2231,"line":2232,"ĠVe":2233,"Ġmillet":2234,"Ã¼cÃ¼":2235,"ĠAK":2236,"Ġisteyen":2237,"Ġteh":2238,"Ġnedenle":2239,"ĠtÄ±k":2240,"ime":2241,"Ġotom":2242,"ĠÃ¼retim":2243,"ĠyanÄ±":2244,"ĠaÃ§Ä±l":2245,"Ġdahil":2246,"tiÄŁini":2247,"amÄ±z":2248,"Ġboyunca":2249,"ĠyoÄŁun":2250,"ĠRus":2251,"Ġteknik":2252,"Ġanda":2253,"Ġerk":2254,"day":2255,"Ġfin":2256,"LI":2257,"azi":2258,"Ġoyuncu":2259,"ĠkÃ¼ltÃ¼r":2260,"ĠteÅŁekkÃ¼r":2261,"Ġedil":2262,"Ġ100":2263,"okr":2264,"Ġedin":2265,"emmuz":2266,"ba":2267,"ĠfotoÄŁraf":2268,"Ġgelecek":2269,"ĠistediÄŁ":2270,"Ã¶rt":2271,"ED":2272,"lÃ¼ÄŁ":2273,"sÄ±nÄ±z":2274,"ĠdÄ±ÅŁÄ±nda":2275,"mal":2276,"Ġistiyor":2277,"Ġiy":2278,"ayfa":2279,"ĠÃ§ar":2280,"Ġthe":2281,"isel":2282,"yar":2283,"ĠÄ°ngil":2284,"Ġolsa":2285,"Ġdok":2286,"ĠKasÄ±m":2287,"ĠkÄ±sm":2288,"anlar":2289,"Ġikinci":2290,"Ġgez":2291,"ĠinÅŁ":2292,"ĠMayÄ±s":2293,"Ġsok":2294,"ĠHar":2295,"ĠolacaktÄ±r":2296,"ons":2297,"ĠsaÄŁlay":2298,"ĠĊ":2299,"ĠiÅŁlet":2300,"taÅŁ":2301,"Ġdurumda":2302,"erson":2303,"ĠaÅŁaÄŁÄ±":2304,"atif":2305,"ĠkayÄ±t":2306,"Ġlis":2307,"ĠKr":2308,"Ġamac":2309,"ĠseÃ§enek":2310,"ĠIn":2311,"Ġhale":2312,"ĠDevlet":2313,"Ġgrup":2314,"sÄ±n":2315,"18":2316,"Ã»":2317,"Ġsizin":2318,"Ġ25":2319,"ĠDem":2320,"ĠÃ¶rg":2321,"Ġtep":2322,"Ġverdi":2323,"ĠUz":2324,"Ġkork":2325,"ital":2326,"ĠaldÄ±":2327,"Ġtoplam":2328,"Ġbana":2329,"ook":2330,"Ġbay":2331,"ĠbiÃ§":2332,"ĠÅŁehir":2333,"Ġburada":2334,"Ġip":2335,"Ġhangi":2336,"efer":2337,"Ġseviy":2338,"Ġey":2339,"Ġbeklen":2340,"ĠOt":2341,"ĠEm":2342,"ĠAh":2343,"ĠbakÄ±m":2344,"inci":2345,"Ġrak":2346,"ĠkapsamÄ±nda":2347,"Ġsahibi":2348,"iliÄŁ":2349,"Ä±ÅŁÄ±k":2350,"ĠKom":2351,"elerinin":2352,"Ġgerekiyor":2353,"ehmet":2354,"ĠBelediyesi":2355,"Ġfayd":2356,"mesini":2357,"ĠkonuÅŁtu":2358,"pit":2359,"asa":2360,"Ġimz":2361,"ĠAb":2362,"ĠartÄ±r":2363,"ĠyaklaÅŁÄ±k":2364,"ĠsaÃ§":2365,"ĠyaptÄ±":2366,"ĠOcak":2367,"isayar":2368,"etin":2369,"ĠTemmuz":2370,"alarÄ±nda":2371,"Ġst":2372,"ĠBah":2373,"Ġunut":2374,"ideo":2375,"ĠkarÅŁÄ±laÅŁ":2376,"uan":2377,"Ġkah":2378,"luÄŁ":2379,"Ġdetay":2380,"diÄŁini":2381,"ĠayrÄ±":2382,"Ġsebep":2383,"luluk":2384,"ĠyapÄ":2385,"ĠyapÄ±":2386,"Ġenerj":2387,"cÄ±sÄ±":2388,"yo":2389,"ener":2390,"ĠyaÅŁan":2391,"Ġgider":2392,"Ġ21":2393,"Ġcevap":2394,"Ġ2016":2395,"ÂŃ":2396,"Ġederek":2397,"ĠAli":2398,"ĠettiÄŁ":2399,"Ä°S":2400,"Ġmadde":2401,"ĠÄ°lk":2402,"emi":2403,"Ġanal":2404,"lif":2405,"Ġbilgiler":2406,"ĠAmer":2407,"one":2408,"Ä°Z":2409,"ĠOsman":2410,"Ġorgan":2411,"Ġdolar":2412,"ĠDÃ¼nya":2413,"Ġhey":2414,"eÅŁtir":2415,"Ġyemek":2416,"ĠgÃ¼ncel":2417,"ĠyalnÄ±z":2418,"eceÄŁiniz":2419,"Ġuygulan":2420,"ĠTekn":2421,"Ġle":2422,"Ġgeliyor":2423,"ĠÃĸr":2424,"ĠEylÃ¼l":2425,"Ġbize":2426,"Ä±lÄ±m":2427,"atej":2428,"olojik":2429,"Ġsitesi":2430,"Ġdakika":2431,"Ġ23":2432,"Ã¼le":2433,"ĠmaÄŁ":2434,"Ġ22":2435,"har":2436,"Ġnum":2437,"Ġfik":2438,"elerine":2439,"tep":2440,"Ã¼ÄŁ":2441,"Ġcihaz":2442,"Ġiler":2443,"ind":2444,"Ã¼mÃ¼":2445,"ĠParti":2446,"tay":2447,"Ã¼len":2448,"ĠNisan":2449,"Ġetkil":2450,"Ġend":2451,"Ġedecek":2452,"Ä±lÄ±ÄŁ":2453,"ĠbirkaÃ§":2454,"ĠsÃ¼reÃ§":2455,"Ġrisk":2456,"Ġmek":2457,"ĠkullanÄ±m":2458,"Ã¢n":2459,"ĠhatÄ±r":2460,"Ġhalinde":2461,"mey":2462,"ĠettiÄŁi":2463,"ira":2464,".|":2465,"Ġtarihi":2466,"Ġister":2467,"layÄ±":2468,"ĠfÄ±rs":2469,"Ġcid":2470,"menin":2471,"Ġkaybet":2472,"mesine":2473,"Ġma":2474,"emin":2475,"Ġana":2476,"ĠkuruluÅŁ":2477,"anÄ±ÅŁ":2478,"ĠaÃ§Ä±sÄ±ndan":2479,"**":2480,"Ġdavran":2481,"Ġmalz":2482,"lin":2483,"Ay":2484,"ĠHav":2485,"masÄ±nÄ±n":2486,"ĠSur":2487,"ĠÃ§Ä±ktÄ±":2488,"ĠsÄ±nÄ±f":2489,"ĠÃĸÄŁr":2490,"ĠAralÄ±k":2491,"200":2492,"IR":2493,"abancÄ±":2494,"inc":2495,"asino":2496,"ĠEkim":2497,"24":2498,"alara":2499,"ĠEt":2500,"Ġbekl":2501,"ĠHaziran":2502,"alarÄ±nÄ±":2503,"Ġmen":2504,"usal":2505,"onu":2506,"Ä±yÄ":2507,"Ä±yÄ±":2508,"ebil":2509,"Ġgazet":2510,"ĠiletiÅŁim":2511,"Ä±rÄ":2512,"Ä±rÄ±":2513,"ilerinin":2514,"ĠBun":2515,"14":2516,"ebek":2517,"etler":2518,"mayan":2519,"Ġfutbol":2520,"ĠÃ¶rnek":2521,"ĠÅŁÃ¶yle":2522,"Ġaktar":2523,"Ben":2524,"En":2525,"Ġmesaj":2526,"ormal":2527,"Ġverilen":2528,"Ġj":2529,"Ġbelg":2530,"fes":2531,"elidir":2532,"Ġdep":2533,"ham":2534,"ĠsaÄŁlan":2535,"ediye":2536,"Ġtespit":2537,"su":2538,"ĠkÃ¶y":2539,"gun":2540,"DE":2541,"ĠyanÄ±nda":2542,"rafik":2543,"ĠtÃ¼rlÃ¼":2544,"to":2545,"Ġsezon":2546,"Ġtart":2547,"Ġbelli":2548,"Ġnit":2549,"atÃ¶r":2550,"ĠdÃ¼ÅŁÃ¼k":2551,"oktor":2552,"Ġplatform":2553,"ĠbaÅŁlat":2554,"Ġuzman":2555,"16":2556,"ĠdoÄŁal":2557,"ĠadÄ±na":2558,"25":2559,"UN":2560,"ii":2561,"ĠvardÄ±":2562,"Ġkorum":2563,"ceÄŁ":2564,"lÄ±ÅŁ":2565,"ĠkÃ¶tÃ¼":2566,"uvar":2567,"Ġhava":2568,"ÃľN":2569,"amasÄ±":2570,"abet":2571,"ĠkiÅŁinin":2572,"ĠyazÄ":2573,"ĠyazÄ±":2574,"Ġaday":2575,"Ġtemsil":2576,"Ġdar":2577,"Ġizin":2578,"Ġkonuda":2579,"ĠbaÅŁlam":2580,"ĠsÃ¼rekli":2581,"ĠkullanÄ±lan":2582,"ĠyÃ¼rÃ¼t":2583,"uma":2584,"ĠiÅŁaret":2585,"Ġanlay":2586,"adaki":2587,"talya":2588,"Ä°T":2589,"Ġerkek":2590,"ildiÄŁ":2591,"ĠsÄ±cak":2592,"Ġko":2593,"ĠadÄ":2594,"ĠadÄ±":2595,"13":2596,"mÄ±ÅŁtÄ±":2597,"ĠTarih":2598,"Ġkayb":2599,"Ġkapat":2600,"ĠbaÅŁarÄ±lÄ±":2601,"'s":2602,"Ä±sÄ±nÄ±":2603,"Ġsistemi":2604,"evi":2605,"ĠÅŁimdi":2606,"Ġab":2607,"Ġbon":2608,"ĠbaÅŁkan":2609,"ĠyÄ±k":2610,"ĠtÃ¼ket":2611,"Ġnet":2612,"Ġ50":2613,"ĠsÄ±rasÄ±nda":2614,"Ġcin":2615,"meyen":2616,"Ġtarihinde":2617,"siy":2618,"vek":2619,"Ã¼lt":2620,"iliÄŁi":2621,"abiliyor":2622,"stafa":2623,"gÃ¼r":2624,"Ġedebilir":2625,"ĠMehmet":2626,"Ġmez":2627,"ĠkardeÅŁ":2628,"lÃ¼m":2629,"ĠKap":2630,"ĠsaÄŁlamak":2631,"Ġgiy":2632,"ĠÅŁeklinde":2633,"Ġlist":2634,"Ġpat":2635,"alama":2636,"aca":2637,"Ġnak":2638,"ĠAÃ§":2639,"antaj":2640,"ĠPol":2641,"ĠTak":2642,"Ä±nÄ±za":2643,"stos":2644,"elikle":2645,"Ġkas":2646,"ĠÂ»":2647,"Ġit":2648,"Ġdal":2649,"uya":2650,"bi":2651,"coin":2652,"ĠtartÄ±ÅŁ":2653,"ĠgÃ¼Ã§lÃ¼":2654,"Ġadres":2655,"17":2656,"ĠSpor":2657,"ĠtasarÄ±m":2658,"ÃľR":2659,"AZ":2660,"ĠKurulu":2661,"aÄŁa":2662,"ĠAlman":2663,"ladÄ±ÄŁÄ±":2664,"asÄ±yla":2665,"Ġnedir":2666,"lÃ¢":2667,"ecektir":2668,"otor":2669,"Ġpr":2670,"Ġmiktar":2671,"Ġherkes":2672,"Ã¶v":2673,"ĠsaÄŁlam":2674,"Ġmuht":2675,"Ġbab":2676,"Ġdiyor":2677,"ĠEÄŁer":2678,"ĠBit":2679,"yan":2680,"23":2681,"ĠsÃ¶zleÅŁ":2682,"Ġdemek":2683,"Ġham":2684,"ĠyÃ¼zden":2685,"ĠolmuÅŁ":2686,"Ġ[":2687,"Ġgec":2688,"Ã¼ncÃ¼":2689,"Ġona":2690,"ĠYÃ¼k":2691,"sta":2692,"ebilm":2693,"Ġbilim":2694,"Ġkalk":2695,"UL":2696,"ĠkoÅŁul":2697,"ĠUl":2698,"ĠHat":2699,"iri":2700,"AP":2701,"ĠarasÄ±ndaki":2702,"emizde":2703,"ĠÃ§Ã¼nkÃ¼":2704,"Ä±mÄ±za":2705,"ĠVer":2706,"ack":2707,"Ġbank":2708,"lendi":2709,"Ġmedya":2710,"log":2711,"Ġhukuk":2712,"Ġderece":2713,"elerinde":2714,"Ä±mda":2715,"Ġkalan":2716,"egor":2717,"Ġinsanlar":2718,"resi":2719,"Ġmeydana":2720,"ork":2721,"sen":2722,"ĠSÃ¶z":2723,"luÄŁu":2724,"Ġtr":2725,"Ġekonomik":2726,"lerce":2727,"irÃ¼s":2728,"ĠgÃ¼venlik":2729,"Ġpolitik":2730,"ĠgeÃ§miÅŁ":2731,"IM":2732,"ĠbaÅŁk":2733,"Ġand":2734,"per":2735,"Ä°ÅŁ":2736,"Ġsohbet":2737,"Ġhastan":2738,"adolu":2739,"Ġrapor":2740,"ÄŁustos":2741,"aket":2742,"ĠDoÄŁ":2743,"Ä±yordu":2744,"ĠbaÅŁlay":2745,"ukarÄ±":2746,"ĠÃĩok":2747,"ĠMan":2748,"tp":2749,"Ġyurt":2750,"blem":2751,"Ġtamamen":2752,"ĠakÄ±l":2753,"ayacak":2754,"forman":2755,"Ġdos":2756,"adem":2757,"ĠÃ¼cretsiz":2758,"Ġbaz":2759,"amÄ":2760,"amÄ±":2761,"anÄ±z":2762,"ĠÅŀubat":2763,"osu":2764,"Ġsebeb":2765,"Ġteslim":2766,"Ġimk":2767,"Ġsavun":2768,"ĠyarÄ±ÅŁ":2769,"Ġhesab":2770,"Ġele":2771,"eci":2772,"ga":2773,"Ġpoz":2774,"gisi":2775,"arlar":2776,"ĠHak":2777,"Ġform":2778,"Ġdon":2779,"ĠÃ§oc":2780,"sak":2781,"Ä±sÄ±na":2782,"ha":2783,"laÅŁtÄ±r":2784,"meleri":2785,"kem":2786,"Ġsol":2787,"Ä±mÄ±zda":2788,"Ġverilm":2789,"makta":2790,"DA":2791,"ĠBakanlÄ±ÄŁÄ±":2792,"Ġ2015":2793,"ĠÃ§ift":2794,"ĠkiÅŁiler":2795,"emez":2796,"Ä±mÄ±zÄ":2797,"Ä±mÄ±zÄ±":2798,"ĠÅŁah":2799,"liÄŁini":2800,"Ġmis":2801,"ser":2802,"ĠYaÅŁ":2803,"ĠHaberleri":2804,"Ã¢r":2805,"ĠayrÄ±ca":2806,"Ġstratej":2807,"eÅŁil":2808,"Ġciddi":2809,"alarÄ±nÄ±n":2810,"malÄ±dÄ±r":2811,"baÅŁkanÄ±":2812,"ĠBar":2813,"ĠyaptÄ±k":2814,"Ġnok":2815,"dÃ¼ÄŁÃ¼":2816,"±da":2817,"Ä±da":2818,"neÄŁin":2819,"Ġtip":2820,"//":2821,"iden":2822,"imleri":2823,"fen":2824,"dÄ±z":2825,"lenme":2826,"Ġekran":2827,"miÅŁti":2828,"Ġpart":2829,"ĠAf":2830,"ĠX":2831,"Ä±nca":2832,"ĠterÃ¶r":2833,"Ġbulundu":2834,"ĠyanlÄ±ÅŁ":2835,"lanmÄ±ÅŁ":2836,"Ġsonucu":2837,"ĠÄ±s":2838,"ĠvÃ¼c":2839,"lÄ±kla":2840,"ĠDer":2841,"ĠHan":2842,"go":2843,"ĠhastalÄ±k":2844,"ĠgÃ¼nlÃ¼k":2845,"tÄ±ÄŁÄ±nÄ±":2846,"Ġkamu":2847,"izyon":2848,"ĠKat":2849,"ilerek":2850,"ĠSaÄŁlÄ±k":2851,"Ġpolis":2852,"Ġsonunda":2853,"ĠMerkezi":2854,"?\"\"":2855,"veriÅŁ":2856,"ĠyapÄ±lacak":2857,"Ġah":2858,"Ġperson":2859,"Ġkart":2860,"Ġsig":2861,"ĠyaptÄ±r":2862,"emal":2863,"baÅŁ":2864,"ĠGir":2865,"Ġkural":2866,"air":2867,"Ġhaline":2868,"ĠGÃ¼ven":2869,"Ġbes":2870,"tiÄŁimiz":2871,"Ġopsiyon":2872,"''":2873,"ĠDeÄŁ":2874,"Ġolmaz":2875,"Ä±yorlar":2876,"Ġum":2877,"meniz":2878,"Ä±lÄ±ÄŁÄ±":2879,"Ġruh":2880,"ĠAÄŁustos":2881,"Ġolun":2882,"ansÄ":2883,"ansÄ±":2884,"ĠkatkÄ±":2885,"Ġedilir":2886,"ĠTÃ¼m":2887,"yum":2888,"Ġmerak":2889,"lerdir":2890,"ersiz":2891,"Ġverir":2892,"Ġvarsa":2893,"Ġann":2894,"med":2895,"ĠYardÄ±m":2896,"Ġemek":2897,"ĠGÃ¼ncel":2898,"adde":2899,"ĠsonrasÄ±":2900,"dak":2901,"Ġmobil":2902,"Ġboyut":2903,"Ġkelim":2904,"engin":2905,"ĠBank":2906,"Ġyerde":2907,"ĠDeniz":2908,"ĠÄ°zmir":2909,"ildiÄŁi":2910,"ĠMillet":2911,"ĠÄ°st":2912,"ĠTer":2913,"://":2914,"tul":2915,"Ġcam":2916,"Ġbeni":2917,"Ġvermek":2918,"ĠyÄ±llÄ±k":2919,"Ġservis":2920,"Ġbilgisayar":2921,"Ġmuh":2922,"inizin":2923,"Ġitibaren":2924,"Ġpan":2925,"ĠÃ¶ÄŁretmen":2926,"Ġzaten":2927,"Ġorta":2928,"ĠÃ¼lke":2929,"pany":2930,"erler":2931,"Ġdeneyim":2932,"Ġ199":2933,"miyor":2934,"ata":2935,"Ä±nÄ±zda":2936,"ĠÄ°nsan":2937,"dÃ¼k":2938,"GÃ¼n":2939,"ĠÃ¶yle":2940,"ĠMustafa":2941,"Ġteknoloj":2942,"tÃ¶r":2943,"ĠÃ¶lÃ¼m":2944,"ĠbulunmaktadÄ±r":2945,"Ġisten":2946,"ĠbulunduÄŁu":2947,"ĠaltÄ±na":2948,"lulu":2949,"manÄ±":2950,"tÄ±n":2951,"ou":2952,"ĠBÃ¶yle":2953,"ĠverdiÄŁi":2954,"ova":2955,"ĠÃ¶ldÃ¼r":2956,"ĠÃ¼niversit":2957,"ĠyaptÄ±ÄŁ":2958,"formans":2959,"lenmesi":2960,"Ġgiz":2961,"Ġproblem":2962,"ĠdÃ¼zey":2963,"Ġmilyar":2964,"ĠsayÄ±sÄ±":2965,"bilir":2966,"aÄŁÄ±t":2967,"ĠamacÄ±yla":2968,"dÄ±ÄŁÄ±nda":2969,"osta":2970,"Ġkaf":2971,"Ã¼nÃ¼z":2972,"ĠaldÄ±ÄŁÄ±":2973,"inÃ§":2974,"ĠTab":2975,"Ġtest":2976,"Ġhik":2977,"ĠÃ¶rgÃ¼t":2978,"ĠGazet":2979,"ĠBul":2980,"ampiyon":2981,"daÄŁ":2982,"inizde":2983,"Ã¼yorum":2984,"lÄ±lÄ±k":2985,"Ġmakin":2986,"ĠYaz":2987,"Ġyum":2988,"Ġkendini":2989,"Ġsorum":2990,"Ġsilah":2991,"ladÄ±k":2992,"imli":2993,"Ġtrans":2994,"ĠgÃ¼nde":2995,"ĠsÄ±nav":2996,"ĠMes":2997,"ĠRes":2998,"05":2999,"ĠÃ¶deme":3000,"Ġzorunda":3001,"imizde":3002,"Ġduyur":3003,"ia":3004,"ĠsaÄŁlar":3005,"Ġeksik":3006,"aÅŁa":3007,"alarÄ±na":3008,"madÄ±":3009,"ĠoluÅŁan":3010,"ĠbaÅŁlayan":3011,"Ġasker":3012,"ĠKÃ¼r":3013,"Ġotel":3014,"Ã½":3015,"mamÄ±z":3016,"laka":3017,"ayi":3018,"ĠbaÅŁÄ±na":3019,"alÄ±dÄ±r":3020,"Ġyeterli":3021,"mar":3022,"iydi":3023,"Her":3024,"azÄ±m":3025,"etr":3026,"sim":3027,"Ġvideo":3028,"±c":3029,"Ä±c":3030,"ĠVE":3031,"ation":3032,"ĠdÃ¶rt":3033,"ĠalÄ±nan":3034,"eÄŁen":3035,"ĠSit":3036,"Ġayak":3037,"ĠFakat":3038,"ĠSu":3039,"ke":3040,"ogle":3041,"ĠbasÄ±n":3042,"abilmek":3043,"ĠNasÄ±l":3044,"Ġfakat":3045,"ĠKÄ±r":3046,"itap":3047,"Ġ2014":3048,"Ġmin":3049,"Ġgar":3050,"yÄ±l":3051,"Ġkayn":3052,"Ġkent":3053,"ilendir":3054,"Ġkum":3055,"emen":3056,"Ġetkili":3057,"gen":3058,"ĠbaÅŁvuru":3059,"enÃ¼z":3060,"Ġyolu":3061,"ĠdÃ¶nemde":3062,"Ġkey":3063,"Ġneler":3064,"ĠdoÄŁrul":3065,"OL":3066,"ĠdÃ¼nyanÄ±n":3067,"Ġtec":3068,"ĠgerÃ§ekten":3069,"Er":3070,"Kar":3071,"fak":3072,"Ġnerede":3073,"iddet":3074,"ĠinsanlarÄ±n":3075,"Ġyoktur":3076,"Ġyem":3077,"artesi":3078,"Ġyere":3079,"ĠfÄ±rsat":3080,"ton":3081,"Ġteklif":3082,"ĠBakanÄ±":3083,"mel":3084,"ĠhoÅŁ":3085,"Ġgru":3086,"Ġhatta":3087,"ÂłÂł":3088,"Ġmemnun":3089,"Ġifad":3090,"Ġesn":3091,"ĠmÃ¼cadele":3092,"ĠsÃ¶ylem":3093,"ĠaslÄ±nda":3094,"Ġdurumu":3095,"ebilecek":3096,"etik":3097,"ĠkatÄ±lÄ±m":3098,"tern":3099,"ĠÃĩin":3100,"ĠmÃ¼cadel":3101,"ina":3102,"Ġyana":3103,"imler":3104,"ĠKullan":3105,"ĠSt":3106,"IL":3107,".)":3108,"Ġfak":3109,"ĠartÄ±ÅŁ":3110,"ĠAnadolu":3111,"Ã¼slÃ¼m":3112,"ayÄ±sÄ±yla":3113,"adÄ±m":3114,"Ġbirey":3115,"ĠkuÅŁ":3116,"ĠÄ°slam":3117,"mayÄ±n":3118,"Ġfor":3119,"par":3120,"Ġavantaj":3121,"ros":3122,"Ġgece":3123,"amsun":3124,"Ġ2013":3125,"ĠbaÅŁlan":3126,"ĠYani":3127,"Ġkredi":3128,"Ġbuna":3129,"Ġvaz":3130,"unlarÄ±":3131,"ĠbaÄŁÄ±m":3132,"ĠMÃ¼dÃ¼rlÃ¼ÄŁÃ¼":3133,"Ġkarak":3134,"ĠSal":3135,"oogle":3136,"Ġhizmeti":3137,"Ġmalzem":3138,"Ġuyar":3139,"Ġbahs":3140,"Ġhayvan":3141,"Ã¼me":3142,"enler":3143,"ĠdeÄŁiÅŁiklik":3144,"siye":3145,"Ä±nt":3146,"Ġdost":3147,"tand":3148,"Ġted":3149,"Ġbulunuyor":3150,"ĠsonrasÄ±nda":3151,"ĠÃĩalÄ±ÅŁ":3152,"eyn":3153,"eksiyon":3154,"gÃ¶r":3155,"mamÄ±ÅŁ":3156,"ĠGeÃ§":3157,"amam":3158,"ĠÃĩocuk":3159,"ĠSiz":3160,"UM":3161,"ĠkÄ±l":3162,"Ġkaliteli":3163,"ĠMec":3164,"ĠyabancÄ±":3165,"ĠbeÅŁ":3166,"Ġoperasyon":3167,"Ġ2022":3168,"fi":3169,"Ġonay":3170,"ĠPer":3171,"Ġokuy":3172,"Ġedilmesi":3173,"Ġre":3174,"Ġsonuc":3175,"03":3176,"ĠolmadÄ±ÄŁÄ±nÄ±":3177,"Ġ28":3178,"teki":3179,"Ä±mÄ±zÄ±n":3180,"AH":3181,"uar":3182,"01":3183,"ĠTel":3184,"Ġpuan":3185,"ĠFrans":3186,"ĠalÄ±yor":3187,"ĠBÃ¼yÃ¼kÅŁehir":3188,"eceÄŁiz":3189,"Ġdeniz":3190,"ĠdÃ¼ÅŁÃ¼nc":3191,"rac":3192,"yÄ":3193,"yÄ±":3194,"ĠKadÄ±n":3195,"Ġettik":3196,"uvvet":3197,"OS":3198,"ĠRusya":3199,"kili":3200,"ĠAÅŁ":3201,"ĠdÃ¼zenlenen":3202,"yonel":3203,"iÅŁi":3204,"geÃ§":3205,"ĠÄ°ÅŁte":3206,"ĠSen":3207,"ĠsayÄ±da":3208,"Ġreklam":3209,"âĢľ":3210,"ĠMer":3211,"ĠyaÅŁayan":3212,"ĠgÃ¶tÃ¼r":3213,"Ġcil":3214,"izik":3215,"seniz":3216,"asyonu":3217,"gesi":3218,"Ġnormal":3219,"zer":3220,"Ä±sÄ±nÄ±n":3221,"atÃ¼rk":3222,"Ġperformans":3223,"erÃ§ev":3224,"Ġsunul":3225,"fesyonel":3226,"ebook":3227,"ijital":3228,"ĠilaÃ§":3229,"Ġanaliz":3230,"ĠyaÅŁanan":3231,"ĠHizmet":3232,"ĠÃľr":3233,"Ã¼ny":3234,"Ġsizi":3235,"Ġdoktor":3236,"Ġdile":3237,"muÅŁtur":3238,"Ġtarz":3239,"Ġeser":3240,"ĠsÃ¶yley":3241,"lÄ±ÄŁÄ±nÄ±":3242,"ĠMal":3243,"Ġzorun":3244,"ĠaÅŁk":3245,"ĠKam":3246,"Ġ27":3247,"Ġuc":3248,"Ġ...":3249,"yas":3250,"spor":3251,"ediÄŁini":3252,"09":3253,"ipar":3254,"ĠProf":3255,"ĠyÄ±lÄ":3256,"ĠyÄ±lÄ±":3257,"Ġtoprak":3258,"rek":3259,"Ãĸz":3260,"ĠAÄŁ":3261,"ust":3262,"ĠSor":3263,"ĠSel":3264,"Ġgol":3265,"pp":3266,"ete":3267,"ĠaÅŁam":3268,"Ġrol":3269,"Ġaraya":3270,"ĠtanÄ±t":3271,"Ġ?":3272,"larÄ±nÄ±zÄ±":3273,"ĠSÃ¼r":3274,"28":3275,"Ġdurumunda":3276,"Ak":3277,"abz":3278,"Ġzengin":3279,"ĠTan":3280,"04":3281,"ediy":3282,"ard":3283,"Ġetkinlik":3284,"Ġ>":3285,"Ã¼ph":3286,"lanmasÄ±":3287,"Ġir":3288,"son":3289,"26":3290,"ĠgerektiÄŁini":3291,"ladÄ±ÄŁ":3292,"ðŁ":3293,"ĠÃ¶dÃ¼l":3294,"eks":3295,"her":3296,"unan":3297,"ĠÄ°ngiliz":3298,"Ġbenzer":3299,"ĠayÄ±nda":3300,"Ġdevr":3301,"ĠbaÅŁÄ±nda":3302,"iyordu":3303,"Ġfirmalar":3304,"urum":3305,"ĠÃ¶nÃ¼nde":3306,"mamak":3307,".,":3308,"Ġyandan":3309,"Ġ26":3310,"06":3311,"lev":3312,"masÄ±nda":3313,"ĠDemir":3314,"Ġbal":3315,"dit":3316,"ĠGenÃ§":3317,"ĠoÄŁ":3318,"ĠBas":3319,"Ġberi":3320,"Ġediyorum":3321,"atÄ±ÅŁ":3322,"ĠiÃ§erik":3323,"ĠgÃ¶rÃ¼ntÃ¼":3324,"Ġtedavi":3325,"ĠCHP":3326,"Ġyaparak":3327,"larca":3328,"Ġic":3329,"istik":3330,"Ġarada":3331,"ĠMilli":3332,"umsuz":3333,"Ġbelirten":3334,"--":3335,"ord":3336,"Ġ&":3337,"iir":3338,"ĠSar":3339,"Ġmotor":3340,"ĠÃ§arp":3341,"Ġkanal":3342,"ĠyapÄ±lmasÄ±":3343,"08":3344,"uzey":3345,"ĠtaÅŁÄ±m":3346,"ĠÃĸzellikle":3347,"ĠbaÅŁarÄ±":3348,"ĠgÃ¼venilir":3349,"Bur":3350,"lenmiÅŁ":3351,"07":3352,"ĠayÄ±r":3353,"ĠPart":3354,"Ġyararlan":3355,"ĠSev":3356,"ĠalÄ±m":3357,"ĠfÄ±r":3358,"umhur":3359,"Ä±ÄŁÄ±n":3360,"Ġkarakter":3361,"Ġkullanarak":3362,"dal":3363,"ĠSosyal":3364,"ĠÃ¶nceki":3365,"27":3366,"gar":3367,"ĠaltÄ±n":3368,"Ġresmi":3369,"ĠAhmet":3370,"ĠMak":3371,"Ġuygulama":3372,"arkÄ":3373,"arkÄ±":3374,"acebook":3375,"Ġderec":3376,"ĠuÃ§ak":3377,"Ã§ak":3378,"mÄ±yor":3379,"bur":3380,"ĠolmadÄ±ÄŁÄ±":3381,"duÄŁunu":3382,"Ġyapar":3383,"Ġnokta":3384,"Ġbasit":3385,"ĠakÅŁam":3386,"astik":3387,"ĠyatÄ±rÄ±mcÄ±":3388,"imin":3389,"Ġilan":3390,"niyet":3391,"ĠAynÄ±":3392,"Ġmar":3393,"ĠmÃ¼da":3394,"ĠhÃ¢":3395,"ikayet":3396,"Ġsiyasi":3397,"ĠgiriÅŁim":3398,"elerden":3399,"Ġazal":3400,"ĠsoÄŁ":3401,"mada":3402,"Ġgerekmektedir":3403,"ĠYak":3404,"Ġnes":3405,"Ġalanda":3406,"ĠÃ§erÃ§ev":3407,"ĠMÃ¼dÃ¼rÃ¼":3408,"Ġokum":3409,"Ġkims":3410,"ĠadlÄ±":3411,"Ġfinans":3412,"Ġtesis":3413,"ĠÃ§ocuÄŁ":3414,"ĠalanÄ±nda":3415,"Ã¼per":3416,"ĠsaÄŁlÄ±klÄ±":3417,"Ġnef":3418,"Ã§iler":3419,"Ã¼lÃ¼":3420,"edeki":3421,"Ġdam":3422,"ĠuluslararasÄ±":3423,"ĠYÃ¶net":3424,"Ġfikir":3425,"lenir":3426,"Ġmutlaka":3427,"ĠyapÄ±yor":3428,"Ġayar":3429,"vekili":3430,"bakan":3431,"Ġfon":3432,"ĠÃ§evir":3433,"Ä±lÄ±yor":3434,"gam":3435,"ĠalÄ±r":3436,"Ä°Åŀ":3437,"ĠÃ§ab":3438,"Ġsp":3439,"Ġistiyorum":3440,"ĠdaÄŁ":3441,"tandart":3442,"lisi":3443,"Ġhayal":3444,"Ġelektrik":3445,"Ġtehlik":3446,"Ġarz":3447,"oda":3448,"Ã¼mÃ¼zde":3449,"Ġileri":3450,"Ġhalde":3451,"ĠYÃ¶netim":3452,"larÄ±m":3453,"ĠmÃ¼ÅŁteri":3454,"ĠBor":3455,"Ġsahiptir":3456,"ĠTem":3457,"ĠyanÄ±t":3458,"yen":3459,"IK":3460,"Ġbizi":3461,"tere":3462,"ĠgÃ¶rmek":3463,"ĠhenÃ¼z":3464,"ĠateÅŁ":3465,"acaÄŁÄ±nÄ±z":3466,"uzur":3467,"ayla":3468,"sÄ":3469,"ĠÃ¶zgÃ¼r":3470,"Ġzam":3471,"Ġhaft":3472,"ĠCh":3473,"wit":3474,"mÄ±zÄ±":3475,"sÄ±":3476,"Ġenerji":3477,"ĠkararÄ±":3478,"ĠProj":3479,"say":3480,"ĠkeÅŁ":3481,"02":3482,"ĠgÃ¶rÃ¼nt":3483,"ĠÅŁiddet":3484,"ST":3485,"ĠsaÄŁlayan":3486,"Ġpop":3487,"Ġilgi":3488,"ĠÅŁeyler":3489,"Ġpersonel":3490,"ĠÅŁeyi":3491,"Ġto":3492,"lerinizi":3493,"adÄ±r":3494,"Ġcasino":3495,"Ġbelki":3496,"Ġkurtar":3497,"ĠOd":3498,"Ġvurgul":3499,"Ġeylem":3500,"aÅŁÄ±r":3501,"acaÄŁÄ±m":3502,"Ġmerkezi":3503,"Ġsene":3504,"Ã¼yle":3505,"asi":3506,"Ġgenellikle":3507,"Ġyazar":3508,"LE":3509,"Ġderin":3510,"eÅŁik":3511,"ĠkiÅŁisel":3512,"ĠarttÄ±r":3513,"ĠdÃ¶v":3514,"ĠetmiÅŁ":3515,"Ġdoldur":3516,"ĠCumhuriyet":3517,"ĠiÃ§ine":3518,"Ġharc":3519,"29":3520,"ĠYÃ¼ksek":3521,"ess":3522,"ĠmÃ¼k":3523,"AC":3524,"ise":3525,"Ġmutlu":3526,"ilmiÅŁtir":3527,"sÄ±zlÄ±k":3528,"Yeni":3529,"Ġpo":3530,"ink":3531,"ĠKim":3532,"Ġkavram":3533,"ĠtaÅŁÄ±n":3534,"ĠyavaÅŁ":3535,"ledi":3536,"Ġbilet":3537,"dam":3538,"ĠÃ§oÄŁu":3539,"Ã¢h":3540,"Ġdosy":3541,"Ġsiteleri":3542,"ĠgÃ¼l":3543,"Ä±lmaz":3544,"ĠKaz":3545,"ĠSistem":3546,"tadan":3547,"tak":3548,"mekte":3549,"Ġonline":3550,"Ġ29":3551,"Ġcep":3552,"Ġmekan":3553,"ĠyalnÄ±zca":3554,"Ġgay":3555,"lÄ±ÄŁÄ±n":3556,"ilebilir":3557,"\"\",":3558,"Ġkamer":3559,"40":3560,"ĠtaÅŁÄ±y":3561,"ĠAm":3562,"altÄ±":3563,"ĠalÄ±ÅŁveriÅŁ":3564,"Ġsem":3565,"ĠKÃ¶":3566,"hend":3567,".âĢĿ":3568,"ĠeÄŁit":3569,"ĠkÃ¼r":3570,"yap":3571,"Ġkendisine":3572,"Ġhala":3573,"eyle":3574,"ĠsayÄ±lÄ±":3575,"ĠeÄŁer":3576,"gr":3577,"Ġihtiyac":3578,"ullah":3579,"ĠkazanÃ§":3580,"Ä°stanbul":3581,"rem":3582,"ĠOsmanlÄ±":3583,"Ġodak":3584,"Ġlider":3585,"ĠdÃ¶k":3586,"oman":3587,"ĠdiÅŁ":3588,"ĠYorum":3589,"ĠÃ§al":3590,"Ġhastal":3591,"Ġkonum":3592,"ilim":3593,"ĠyapÄ±lÄ±r":3594,"ĠSuriye":3595,"Ġdakik":3596,"gili":3597,"Ġ40":3598,"Ġtahmin":3599,"tiler":3600,"Ġalacak":3601,"best":3602,"Ġdek":3603,"Ä±lacak":3604,"rÃ¼b":3605,"ĠBin":3606,"Ġtarif":3607,"Ġ2012":3608,"Ġbilgileri":3609,"Ġidar":3610,"ĠeleÅŁtir":3611,"ĠKÃ¼ltÃ¼r":3612,"Ġtoplant":3613,"Ġkurtul":3614,"ona":3615,"lanÄ±r":3616,"Ġolumsuz":3617,"Ùİ":3618,"ĠsÄ±rada":3619,"ĠDol":3620,"Ġ+":3621,"ĠbuluÅŁ":3622,"ene":3623,"ala":3624,"ï¿":3625,"Ġnumar":3626,"ĠmÃ¼zik":3627,"Ġbelirli":3628,"ĠeÄŁlen":3629,"ï¿½":3630,"ĠKemal":3631,"ĠedeceÄŁ":3632,"larÄ±mÄ±zÄ±n":3633,"bay":3634,"ipariÅŁ":3635,"atur":3636,"Ġveriyor":3637,"ĠdÄ±ÅŁÄ":3638,"ĠdÄ±ÅŁÄ±":3639,"edeni":3640,"Ġnot":3641,"diler":3642,"alatasar":3643,"Ãĸn":3644,"esiz":3645,"cil":3646,"Ġyans":3647,"Ġbeyaz":3648,"ĠbaÅŁta":3649,"ĠarasÄ±":3650,"ĠDo":3651,"enerbah":3652,"kar":3653,"ĠonlarÄ±":3654,"sas":3655,"ĠiÅŁi":3656,"Ġsite":3657,"yse":3658,"ĠlazÄ±m":3659,"ĠKol":3660,"Ġtaleb":3661,"hi":3662,"eliÄŁ":3663,"Ġmec":3664,"alatasaray":3665,"ĠaracÄ±":3666,"Ġtavsiye":3667,"OK":3668,"Ġsoy":3669,"Ġsefer":3670,"ĠÃ§alÄ±ÅŁmalarÄ":3671,"ĠÃ§alÄ±ÅŁmalarÄ±":3672,"ĠLig":3673,"ĠÃ¶ÄŁ":3674,"ĠBr":3675,"Ġfazl":3676,"ĠGÃ¶":3677,"Ġalarak":3678,"ĠgÃ¶steren":3679,"Ġyolc":3680,"EV":3681,"ĠkazandÄ±r":3682,"Ġolursa":3683,"and":3684,"Ġyapacak":3685,"Ġbi":3686,"ĠBirliÄŁi":3687,"kenin":3688,"tion":3689,"Ġsur":3690,"ĠBaÄŁ":3691,"eng":3692,"iÃ§ek":3693,"ĠHastan":3694,"ĠÃ¼ye":3695,"elt":3696,"ronik":3697,"ĠborÃ§":3698,"ĠÃ¶ÄŁrenciler":3699,"ĠgÃ¼c":3700,"Ġsizlere":3701,"lardÄ±":3702,"layÄ±n":3703,"ĠAtatÃ¼rk":3704,"ĠBugÃ¼n":3705,"ĠyapmÄ±ÅŁ":3706,"our":3707,"dÄ±ktan":3708,"rin":3709,"Ġkaydet":3710,"Ä±ldÄ±ÄŁÄ±":3711,"Ġeg":3712,"lÄ±ÄŁa":3713,"Ġemin":3714,"Ġkorun":3715,"ĠyukarÄ±":3716,"Ġceza":3717,"Ġkayde":3718,"uru":3719,"onya":3720,"Ġediyoruz":3721,"Biz":3722,"ulmasÄ±":3723,"Ġfaiz":3724,"ĠÃ¶nÃ¼ne":3725,"ĠÄ°yi":3726,"kÄ±n":3727,"Ä±sÄ±t":3728,"Ã¼slÃ¼man":3729,"taki":3730,"cÄ±lÄ±k":3731,"ĠmÃ¼dahal":3732,"ĠdeÄŁerli":3733,"ĠÅŁans":3734,"Ġsabah":3735,"Ġkop":3736,"ĠÃ¶ne":3737,"Ġte":3738,"2021":3739,"Ã¼yoruz":3740,"acaÄŁÄ±na":3741,"Ġederim":3742,"erken":3743,"dikleri":3744,"ĠaÃ§Ä±klamada":3745,"Ġgide":3746,"ĠiÅŁe":3747,"80":3748,"Ġikti":3749,"Ġyeri":3750,"mÃ¼r":3751,"esindeki":3752,"abileceÄŁi":3753,"ĠonlarÄ±n":3754,"Ġdef":3755,"ĠÃ¼nlÃ¼":3756,"Ġdefa":3757,"terek":3758,"ĠhÃ¼c":3759,"liye":3760,"Ã¼tfen":3761,"ĠĠĠĠ":3762,"Ġlim":3763,"emmel":3764,"ĠDÃ¶n":3765,"ĠiÃ§i":3766,"iyah":3767,"ĠÅŀimdi":3768,"âĢĵ":3769,"ĠtÃ¶r":3770,"idi":3771,"ĠDiÄŁer":3772,"ĠGÃ¼l":3773,"ipto":3774,"Gen":3775,"ivil":3776,"rom":3777,"uyoruz":3778,"Ġkok":3779,"IZ":3780,"ĠKend":3781,"ĠTÃ¼rkÃ§e":3782,"Ġheyec":3783,"ĠSay":3784,"ĠyerleÅŁ":3785,"Ġhafif":3786,"rail":3787,"ĠBitcoin":3788,"Ġef":3789,"ĠSin":3790,"Ġdemokr":3791,"ĠKÄ±z":3792,"amay":3793,"daÅŁ":3794,"ĠSeÃ§":3795,"................":3796,"±larak":3797,"Ä±larak":3798,"KK":3799,"EÄŁ":3800,"Ek":3801,"evizyon":3802,"ĠhayatÄ±nÄ±":3803,"ĠÄ°Ã§in":3804,"ĠÃ¶nemlidir":3805,"Ġsonraki":3806,"ĠCan":3807,"ĠâĢĺ":3808,"ĠgÃ¼venli":3809,"Ġlisans":3810,"inal":3811,"ĠDern":3812,"ĠalanÄ±":3813,"ĠÅŁÃ¼ph":3814,"Ġaile":3815,"ĠCumhurbaÅŁkanÄ±":3816,"Ä±sÄ±nÄ±z":3817,"ĠKor":3818,"Ġprofesyonel":3819,"ĠsaldÄ±rÄ":3820,"ĠsaldÄ±rÄ±":3821,"ĠTarihi":3822,"iyan":3823,"Ġetmektedir":3824,"ĠkarÅŁÄ±sÄ±nda":3825,"ĠAÃ§Ä±k":3826,"ĠFiyat":3827,"layarak":3828,"ekim":3829,"Ġdolu":3830,"60":3831,"iÅŁleri":3832,"Ġolma":3833,"EY":3834,"ĠolmuÅŁtur":3835,"ĠyayÄ±m":3836,"izasyon":3837,"ĠgÃ¶ren":3838,"Ġizley":3839,"Ġhuzur":3840,"liyor":3841,"Ġfil":3842,"Ġpaket":3843,"Ġbitir":3844,"ahim":3845,"Ġmesaf":3846,"ĠYer":3847,"Ġenf":3848,"ĠMed":3849,"Ġgal":3850,"allah":3851,"ĠÃĩev":3852,"Ġtutuk":3853,"ĠThe":3854,"ĠyaygÄ±n":3855,"aÄŁan":3856,"ĠfiyatlarÄ±":3857,"Ġbirisi":3858,"Ġmaliyet":3859,"ĠkarÅŁÄ±lÄ±k":3860,"pek":3861,"medi":3862,"keri":3863,"ĠdeÄŁiÅŁim":3864,"enerbahÃ§e":3865,"US":3866,"his":3867,"elerinden":3868,"ĠaylÄ±k":3869,"ĠsÃ¼rede":3870,"Ġkesinlikle":3871,"EC":3872,"lÄ±ÄŁÄ±na":3873,"ĠAmerika":3874,"Ġmat":3875,"ĠtecrÃ¼b":3876,"Ġproje":3877,"ĠSayfa":3878,"Ã¼ya":3879,"oker":3880,"Pro":3881,"BaÅŁ":3882,"ĠMahall":3883,"witter":3884,"Ġla":3885,"2020":3886,"Ġpozisyon":3887,"El":3888,"Ġakl":3889,"Ġtemsilc":3890,"ĠTay":3891,"alam":3892,"qu":3893,"ĠPazar":3894,"Ġhayata":3895,"ĠHakk":3896,"ĠdavranÄ±ÅŁ":3897,"Ġanlamda":3898,"ĠdÃ¶neminde":3899,"Ġesas":3900,"andÄ±r":3901,"Haber":3902,"sizlik":3903,"usun":3904,"Ġbat":3905,"ĠSanat":3906,"ĠGÃ¶k":3907,"ĠdÃ¼ÅŁÃ¼r":3908,"Ġmadd":3909,"ĠFat":3910,"35":3911,"ĠFilm":3912,"ĠdÃ¼nyada":3913,"Ġhisset":3914,"Ġbelirtti":3915,"ĠFak":3916,"ĠDav":3917,"ĠLis":3918,"Ġettir":3919,"eÅŁiktaÅŁ":3920,"ĠaÃ§Ä±klama":3921,"uro":3922,"ĠyazÄ±lÄ±m":3923,"ĠyÃ¶netic":3924,"iyim":3925,"âĢ¢":3926,"ĠÃ¼rÃ¼nleri":3927,"Ġaktif":3928,"ĠOL":3929,"ĠBurada":3930,"ĠdÃ¼ÄŁ":3931,"liÄŁe":3932,"ĠiÅŁlemi":3933,"eygam":3934,"ĠÃ¶nlem":3935,"ĠAlmanya":3936,"ku":3937,"Ġdel":3938,"dÄ±klarÄ±":3939,"Ġtakdir":3940,"afir":3941,"ĠAydÄ±n":3942,"Ġus":3943,"mamasÄ±":3944,"iber":3945,"Ġaray":3946,"ĠyÄ±ldÄ±r":3947,"ĠAnd":3948,"Ġkategor":3949,"Ġyerel":3950,"ultan":3951,"Ġ:)":3952,"nam":3953,"Ġ''":3954,"Ġyoksa":3955,"raman":3956,"Ġazalt":3957,"ĠsÃ¼t":3958,"ĠKÄ":3959,"Ġtaz":3960,"ĠSavaÅŁ":3961,"Ġmesel":3962,"Ä±lÄ±Ã§":3963,"Ġyiy":3964,"Ġbonus":3965,"Ġkendine":3966,"iklet":3967,"ĠtoplantÄ±":3968,"liÄŁinde":3969,"Ġyerinde":3970,"tuk":3971,"ĠOyun":3972,"are":3973,"ĠkaldÄ±":3974,"ĠedilmiÅŁ":3975,"Ġbol":3976,"ĠsÄ±kÄ±ntÄ±":3977,"Ä±sÄ±z":3978,"ĠBunu":3979,"Ġarama":3980,"diÄŁimiz":3981,"Ġtransfer":3982,"ayÄ±f":3983,"Ġprot":3984,"ĠKÄ±":3985,"45":3986,"Ġsek":3987,"ĠÃ¶dem":3988,"ĠoranÄ±":3989,"Ä±ÅŁtÄ±":3990,"Ġtabi":3991,"ĠyerleÅŁtir":3992,"endi":3993,"abileceÄŁiniz":3994,"Ä°s":3995,"Ã¶yl":3996,"bette":3997,"Ġetme":3998,"ĠÃľy":3999,"ĠkapÄ":4000,"ĠkapÄ±":4001,"ĠyapÄ±ldÄ±":4002,"Ġvb":4003,"Or":4004,"Ġfel":4005,"ĠMod":4006,"ĠyÄ±llarda":4007,"Ġaks":4008,"gal":4009,"ĠnÃ¼f":4010,"Ġpsik":4011,"ĠbaÄŁlantÄ±":4012,"mail":4013,"Ġgaz":4014,"Ġgerektir":4015,"ediler":4016,"atÄ±n":4017,"ĠTes":4018,"ĠdÃ¼zenlem":4019,"Ġtutar":4020,"Ġbed":4021,"ĠÃ¢":4022,"ze":4023,"ĠbeÄŁen":4024,"ĠVal":4025,"elerle":4026,"Ġsonucunda":4027,"dÃ¼m":4028,"ĠanlamÄ±na":4029,"Ġday":4030,"Ġsel":4031,"ĠProgram":4032,"ĠkullandÄ±":4033,"Ġolumlu":4034,"lÄ±klÄ±":4035,"lamasÄ±":4036,"ĠÄ±ÅŁ":4037,"ger":4038,"uyorum":4039,"AV":4040,"Ġimkan":4041,"ĠKurul":4042,"ly":4043,"Ġdavet":4044,"Ġ*":4045,"tic":4046,"Ġbundan":4047,"iyer":4048,"Ġsap":4049,"ĠfiyatÄ":4050,"ĠfiyatÄ±":4051,"gÄ±Ã§":4052,"Ġkampany":4053,"Ġ09":4054,"akar":4055,"Ġiddia":4056,"asayfa":4057,"Ġap":4058,"ĠMÃ¼z":4059,"Ġiptal":4060,"Ġstandart":4061,"Ġsona":4062,"ĠaldÄ±ÄŁ":4063,"ĠdoÄŁrudan":4064,"ĠÅŁif":4065,"eygamber":4066,"ternatif":4067,"Ġfizik":4068,"erv":4069,"atÄ±rÄ±m":4070,"acÄ±lÄ±k":4071,"ai":4072,"ĠpiÅŁ":4073,"Ġalma":4074,"Ġbunlar":4075,"ĠmeÅŁ":4076,"ĠdanÄ±ÅŁ":4077,"ĠeriÅŁ":4078,"ĠGÃ¶z":4079,"Ġduygu":4080,"ĠDÃ¼z":4081,"ĠTicaret":4082,"ĠgÃ¼nlerde":4083,"abilmektedir":4084,"alim":4085,"ĠbiÃ§imde":4086,"Ġdu":4087,"zet":4088,"ĠTaÅŁ":4089,"red":4090,"Â»":4091,"Ġbebek":4092,"ĠCam":4093,"ĠgÃ¼neÅŁ":4094,"ĠAlan":4095,"ĠyaÅŁÄ±ndaki":4096,"hendis":4097,"utan":4098,"ĠÃ¶den":4099,"ĠDerneÄŁi":4100,"ĠAL":4101,"illi":4102,"ĠBal":4103,"Ġhap":4104,"asÄ±n":4105,"liÄŁin":4106,"Ġkimse":4107,"Ġtatil":4108,"ĠOp":4109,"ĠUygul":4110,"Ġbilinen":4111,"liler":4112,"ĠakÄ±llÄ±":4113,"Ġhac":4114,"Ã¼stÃ¼":4115,"Ġlira":4116,"onav":4117,"lediÄŁi":4118,"sur":4119,"Ġ2011":4120,"ĠVar":4121,"ĠolmasÄ±na":4122,"ĠNo":4123,"Ġhikay":4124,"Ġbelirterek":4125,"Ġyasak":4126,"Ġara":4127,"Ġolmadan":4128,"ĠkiÅŁilerin":4129,"ĠaÃ§Ä±kladÄ±":4130,"mayacak":4131,"larÄ±mÄ±zÄ":4132,"larÄ±mÄ±zÄ±":4133,"Ġucuz":4134,"Ġveri":4135,"ĠBursa":4136,"Ġsorunu":4137,"ĠbÃ¼t":4138,"ĠÄ±ÅŁÄ±k":4139,"Ġbirim":4140,"Tar":4141,"fet":4142,"ĠistediÄŁiniz":4143,"emiÅŁ":4144,"ĠasÄ±l":4145,"Ã¼ndeki":4146,"ĠuÃ§uÅŁ":4147,"ĠÃ§ap":4148,"Ä±rÄ±m":4149,"ĠBet":4150,"oca":4151,"lÄ±klar":4152,"ĠinsanÄ±n":4153,"ĠHalk":4154,"ĠYayÄ±n":4155,"ĠÃĸrneÄŁin":4156,"Ġsert":4157,"ĠHam":4158,"ĠAraÅŁtÄ±r":4159,"ĠMur":4160,"ĠYol":4161,"ĠGoogle":4162,"ĠalmÄ±ÅŁ":4163,"AÄŀ":4164,"ĠkÄ":4165,"ĠiÅŁlemleri":4166,"ĠyetiÅŁ":4167,"brÄ±s":4168,"ĠÅŁar":4169,"Ġerken":4170,"ĠkÄ±":4171,"adi":4172,"ĠTV":4173,"Ne":4174,"mur":4175,"ĠYÃ¼z":4176,"Ġaf":4177,"ĠseÃ§en":4178,"Ġpas":4179,"Ġkuvvet":4180,"Ġton":4181,"ry":4182,"ĠSamsun":4183,"tarÄ±":4184,"alardan":4185,"isinden":4186,"meli":4187,"Ġ)":4188,"ĠhayÄ±r":4189,"ĠeÅŁit":4190,"Ana":4191,"Ġlez":4192,"Ġoyunu":4193,"ĠvazgeÃ§":4194,"ĠÃľst":4195,"Ä±sÄ±r":4196,"IÅŀ":4197,"eÄŁini":4198,"Ġhizmetleri":4199,"icari":4200,"ĠhazÄ±rlan":4201,"racat":4202,"diÄŁinde":4203,"roid":4204,"ĠBilg":4205,"ĠÃ§Ä±kÄ±ÅŁ":4206,"Ġetmeye":4207,"ĠÃ¶zelliÄŁi":4208,"rum":4209,"Ġseyahat":4210,"Ġsokak":4211,"ĠaÅŁaÄŁÄ±daki":4212,"Ad":4213,"2019":4214,"ban":4215,"Ġotomobil":4216,"tepe":4217,"liÄŁine":4218,"Ġtemin":4219,"tel":4220,"Ġkem":4221,"Ġolanak":4222,"leÅŁme":4223,"Ġyasal":4224,"Ġedebilirsiniz":4225,"Ġâ":4226,"asit":4227,"Anasayfa":4228,"ema":4229,"emizin":4230,"LÄ°":4231,"ĠkarÄ±ÅŁ":4232,"ator":4233,"ĠolduÄŁuna":4234,"Hay":4235,"Ġasla":4236,"Ä±lmÄ±ÅŁtÄ±r":4237,"ĠÃ¼Ã§Ã¼ncÃ¼":4238,"ĠÃ¶zellikleri":4239,"ond":4240,"ĠaydÄ±n":4241,"ESÄ°":4242,"Ġotomatik":4243,"ĠyetiÅŁtir":4244,"Ġyapmaya":4245,"ĠÃ¶lÃ§Ã¼":4246,"rah":4247,"ebiliriz":4248,"Ġbirik":4249,"ĠgeÃ§erli":4250,"ĠpopÃ¼ler":4251,"dikten":4252,"ows":4253,"Ġ500":4254,"ĠÅŁikayet":4255,"likleri":4256,"www":4257,"etleri":4258,"Ġdahi":4259,"ĠiÅŁÃ§":4260,"posta":4261,"hone":4262,"emey":4263,"ĠbaÅŁlar":4264,"Ġforex":4265,"Ġdijital":4266,"ndan":4267,"panya":4268,"ĠSah":4269,"aka":4270,"±f":4271,"Ä±f":4272,"ĠhakkÄ":4273,"ĠhakkÄ±":4274,"Ġiyil":4275,"Ġhisse":4276,"ĠaraÅŁtÄ±rma":4277,"TC":4278,"ĠalÄ±p":4279,"estor":4280,"Ġokun":4281,"Ġanne":4282,"ĠHem":4283,"ĠUn":4284,"ĠÄ°ran":4285,"DP":4286,"Ġorada":4287,"ĠaltÄ±":4288,"embe":4289,"Ġnedeni":4290,"ĠsipariÅŁ":4291,"ain":4292,"usunu":4293,"ĠÅŀirket":4294,"Ġtedbir":4295,"ĠBankasÄ±":4296,"tis":4297,"2018":4298,"Ġide":4299,"ĠÃ§eken":4300,"Ġkendisini":4301,"Ġetkisi":4302,"Ġkonut":4303,"ĠkullanÄ±mÄ±":4304,"Dev":4305,"ezi":4306,"isiniz":4307,"avi":4308,"sini":4309,"ĠÃ¼rÃ¼nler":4310,"stagram":4311,"As":4312,"Ġpay":4313,"ĠyÄ±lda":4314,"Ġsonu":4315,"ĠyÃ¼zyÄ±l":4316,"YA":4317,"Ġdiren":4318,"ĠbunlarÄ±":4319,"Ġoku":4320,"Ġvakit":4321,"ĠDÄ±ÅŁ":4322,"ediÄŁiniz":4323,"OM":4324,"Ġonlar":4325,"ĠÃľlk":4326,"Ġserbest":4327,"ĠAz":4328,"ĠÃĩar":4329,"ĠÅŀah":4330,"ĠiÅŁte":4331,"Ġalg":4332,"cÄ±lar":4333,"ĠYan":4334,"ĠHaberler":4335,"ĠBuna":4336,"ĠÃ¼lkenin":4337,"Ä±labilir":4338,"Ġortadan":4339,"ĠYardÄ±mcÄ±sÄ±":4340,"ĠBazÄ±":4341,"ĠKÃ¼rt":4342,"Ġtas":4343,"ĠKah":4344,"ĠHol":4345,"emesi":4346,"ĠbunlarÄ±n":4347,"Ġ60":4348,"Ġhus":4349,"ayÄ±p":4350,"madÄ±ÄŁÄ±":4351,"aza":4352,"Av":4353,"urken":4354,"gÃ¼":4355,"ĠsÃ¼resi":4356,"unuzu":4357,"ray":4358,"ĠDur":4359,"Ġonlara":4360,"Ä±za":4361,"Ġgiden":4362,"ie":4363,"ĠsÃ¼reci":4364,"ĠDen":4365,"ĠgeÃ§ti":4366,"Ġevde":4367,"ĠBÃ¶ylece":4368,"estiv":4369,"ĠKoca":4370,"Ġkoruy":4371,"Ġkendisi":4372,".'":4373,"ĠÄ°lÃ§e":4374,"Ġkod":4375,"Ã§uk":4376,"ĠyazÄ±lÄ±":4377,"ersin":4378,"Ġikili":4379,"ity":4380,"Ġdeney":4381,"ĠAR":4382,"Ġ2010":4383,"ĠRe":4384,"uldu":4385,"ĠTrabz":4386,"ĠkaÅŁ":4387,"Ġht":4388,"rika":4389,"ĠAntalya":4390,"Ġez":4391,"Ġbec":4392,"Ä±mÄ±n":4393,"ĠmÃ¼kemmel":4394,"lerimizi":4395,"Tek":4396,"amet":4397,"Ġoyunc":4398,"Ġduvar":4399,"ĠVak":4400,"33":4401,"nden":4402,"Ä±ydÄ±":4403,"erseniz":4404,"ese":4405,"memiÅŁ":4406,"Ä±ndÄ±r":4407,"Ġbazen":4408,"ĠÃ¶ncesi":4409,"ĠMas":4410,"Ġteknoloji":4411,"100":4412,"ĠmÃ¼dÃ¼r":4413,"Ġnitelik":4414,"eÄŁe":4415,"ĠSadece":4416,"Ġlir":4417,"ĠGazi":4418,"Ġyada":4419,"ĠFir":4420,"Ġsenin":4421,"ĠMahallesi":4422,"Ġmodern":4423,"ĠyÃ¶netimi":4424,"anlÄ±k":4425,"ĠinÅŁa":4426,"Ġyetkil":4427,"ĠMark":4428,"ĠiÃ§eren":4429,"Ġistih":4430,"sÃ¼z":4431,"ĠSp":4432,"leyici":4433,"Bil":4434,"eceÄŁim":4435,"edikleri":4436,"Ġsermay":4437,"ĠprogramÄ":4438,"ĠprogramÄ±":4439,"ĠDoÄŁu":4440,"Ġta":4441,"Ġetmesi":4442,"Ä±nÄ±zÄ±n":4443,"ĠTeknik":4444,"oj":4445,"ĠdÃ¶nÃ¼ÅŁtÃ¼r":4446,"ĠÃ¶ÄŁrenci":4447,"ĠKÄ±s":4448,"Ã¼lebilir":4449,"ĠAmerik":4450,"ilmektedir":4451,"ĠÄ°ÅŁlem":4452,"Ã¼mÃ¼ÅŁ":4453,"Ev":4454,"Kay":4455,"Ġgetiren":4456,"Ġtane":4457,"Ġrakam":4458,"ĠaÅŁÄ±rÄ±":4459,"kiler":4460,"isiyle":4461,"ebiliyor":4462,"ĠiÅŁbir":4463,"ube":4464,"ĠbaskÄ±":4465,"diÄŁiniz":4466,"Ġkm":4467,"ĠdoÄŁum":4468,"ĠEÅŁ":4469,"sat":4470,"ert":4471,"ĠanlayÄ±ÅŁ":4472,"imar":4473,"ĠÃ¼zerindeki":4474,"ĠHaf":4475,"Ġib":4476,"44":4477,"ĠGerÃ§":4478,",\"\"":4479,"ĠYet":4480,"Ġyola":4481,"tps":4482,"hane":4483,"ary":4484,"lanma":4485,"ĠgÃ¶nÃ¼l":4486,"ĠRec":4487,"Ġbirinci":4488,"Ġkans":4489,"Ġkeyif":4490,"Ġbl":4491,"ĠyÃ¼rÃ¼y":4492,"Ġ31":4493,"ates":4494,"Ä±lÄ±ÄŁÄ±yla":4495,"meni":4496,"ĠeÅŁy":4497,"ĠhatÄ±rlat":4498,"31":4499,"ĠBayram":4500,"Ġmon":4501,"iyar":4502,"abilen":4503,"DÃ¼n":4504,"ĠMÃ¼slÃ¼man":4505,"ĠoyunlarÄ±":4506,"EB":4507,"ock":4508,"Ġkilo":4509,"ĠkatÄ±ldÄ±":4510,"IS":4511,"Ġyor":4512,"ĠÄ°m":4513,"Ġkullanmak":4514,"Ġortalama":4515,"ĠkarÄ±ÅŁtÄ±r":4516,"ĠMet":4517,"Ġarab":4518,"ĠkÃ¶ÅŁ":4519,"ĠYÄ±lmaz":4520,"Ġdiyerek":4521,"Ġsorumlu":4522,"unma":4523,"nik":4524,"Ġbiliyor":4525,"Ġamel":4526,"ĠÄ°ngiltere":4527,"ĠdoÄŁrult":4528,"Ġetraf":4529,"ĠpeÅŁ":4530,"ĠsÄ±f":4531,"ĠBer":4532,"sit":4533,"Ġneredeyse":4534,"Ä°l":4535,"ĠkÄ±ÅŁ":4536,"Ġbirden":4537,"ĠSonra":4538,"Ġyakalan":4539,"36":4540,"ĠkullanÄ±lÄ±r":4541,"layÄ±p":4542,"Ġyaparken":4543,"Ġyapabilirsiniz":4544,"Ġalternatif":4545,"Kon":4546,"MA":4547,"ĠSh":4548,"ĠaÃ§Ä":4549,"ĠaÃ§Ä±":4550,"ĠbalÄ±k":4551,"ĠbakÄ±ÅŁ":4552,"ĠfaktÃ¶r":4553,"macÄ±":4554,"Ġyakal":4555,"ĠbaÄŁÄ±msÄ±z":4556,"ĠgÃ¶Ã§":4557,"ĠEd":4558,"Daha":4559,"ĠGÃ¼ney":4560,"Ġimza":4561,"Ġpark":4562,"indows":4563,"ĠgeliÅŁim":4564,"Ġmo":4565,"Ġvit":4566,"alarÄ±ndan":4567,"Ġyaralan":4568,"ĠdetaylÄ±":4569,"Ġbelediye":4570,"leriniz":4571,"ĠFakÃ¼lt":4572,"55":4573,"ĠÅŁiir":4574,"Ġkalp":4575,"ill":4576,"ell":4577,"lÄ±klarÄ±":4578,"Ġdurdur":4579,"Ġaskeri":4580,"ĠdesteÄŁi":4581,"Ġkadro":4582,"ĠzayÄ±f":4583,"ediÄŁimiz":4584,"ĠNur":4585,"Ġyeter":4586,"dev":4587,"ĠkapalÄ±":4588,"iciler":4589,"ĠolmasÄ±nÄ±":4590,"Ġihtim":4591,"liliÄŁ":4592,"ASI":4593,"ĠÃ§ay":4594,"omb":4595,"ĠÃ§ocuklar":4596,"Ġrez":4597,"ĠayrÄ±l":4598,"ĠDak":4599,"ĠÄ":4600,"ĠsoruÅŁtur":4601,"ĠÅŁampiyon":4602,"Ġekib":4603,"Ġedip":4604,"Ġverildi":4605,"ĠEkonom":4606,"Ġparti":4607,"eceÄŁine":4608,"Ġisimli":4609,"Ġfirma":4610,"Ġred":4611,"Ġsiyaset":4612,"Ġkitab":4613,"Ġrad":4614,"ĠMa":4615,"vik":4616,"Ġtutul":4617,"ĠyeÅŁil":4618,"Ġharika":4619,"zu":4620,"ĠÄ°nternet":4621,"Ġcen":4622,"ĠFil":4623,"ĠÃ§oÄŁ":4624,"yÃ¼z":4625,"ĠdaÄŁÄ±t":4626,"mesinin":4627,"uzu":4628,"onavirÃ¼s":4629,"iter":4630,"ts":4631,"90":4632,"ĠQ":4633,"Ġzih":4634,"LARI":4635,"ĉĊ":4636,"abrik":4637,"Ġvad":4638,"ĠacÄ±":4639,"iyatro":4640,"ĠÅŀu":4641,"ĠaracÄ±lÄ±ÄŁÄ±yla":4642,"ĠdeÄŁeri":4643,"leyin":4644,"iya":4645,"ĠbÃ¼ny":4646,"ĠyÃ¶nlendir":4647,"ekil":4648,"Ġolmay":4649,"ĠMev":4650,"Ã¼mÃ¼zdeki":4651,"ĠÅŁer":4652,"Ġciv":4653,"ĠÃ§Ä±kÄ±yor":4654,"Ä±nar":4655,"Ġbelirlen":4656,"ĠalmaktadÄ±r":4657,"ĠdÄ±ÅŁarÄ±":4658,"Ġmeslek":4659,"baÅŁkan":4660,"deniz":4661,"ĠKÄ±brÄ±s":4662,"ĠPartisi":4663,"Ä°D":4664,"Ġbilir":4665,"Ġfaydalan":4666,"!\"\"":4667,"2017":4668,"ĠolduÄŁundan":4669,"abilmesi":4670,"ĠYatÄ±rÄ±m":4671,"arÄ±m":4672,"ĠÃ¶ÄŁret":4673,"Ã§esi":4674,"ĠGÃ¼r":4675,"dÄ±rÄ±m":4676,"ĠkayÄ±p":4677,"ĠyÄ±ldÄ±z":4678,"Ġgiren":4679,"Ġyapabilir":4680,"Cumhur":4681,"ĠYunan":4682,"Ġtepki":4683,"ĠyapÄ±m":4684,"Ġolmaya":4685,"Ġsivil":4686,"Ġduyg":4687,"car":4688,"eytin":4689,"ĠGÃ¼ncelleme":4690,"masÄ±ndan":4691,"ĠilÃ§esinde":4692,"ĠGalatasaray":4693,"ĠBahis":4694,"70":4695,"ĠkÄ±smÄ":4696,"ĠkÄ±smÄ±":4697,"Ġuyum":4698,"Ġgr":4699,"ĠdoÄŁrultusunda":4700,"usuna":4701,"ĠAKP":4702,"ĠdÃ¼ÅŁÃ¼nÃ¼yorum":4703,"ĠOrta":4704,"iÃ§i":4705,"ĠÃľrÃ¼n":4706,"ĠÃ¶ngÃ¶r":4707,"ĠAlt":4708,"Ġdokun":4709,"Ġgur":4710,"ĠÃ¶nceden":4711,"Ġhoc":4712,"Ġters":4713,"yet":4714,"cret":4715,"ĠNedir":4716,"ĠayÄ":4717,"ĠayÄ±":4718,"ĠcÃ¼m":4719,"layÄ±cÄ±":4720,"ĠÃ§Ä±kart":4721,"ire":4722,"ĠdÃ¼zenlen":4723,"ĠDÃ¼ny":4724,"visi":4725,"ĠdÃ¼ÅŁtÃ¼":4726,"ĠgÃ¼ndem":4727,"Ġtehdit":4728,"iyiz":4729,"Ġ=":4730,"ĠÅŁehit":4731,"aÄŁÄ±n":4732,"irken":4733,"Ġiktidar":4734,"mut":4735,"ĠdÃ¼zenli":4736,"34":4737,"Ġediliyor":4738,"alle":4739,"ĠUluslararasÄ±":4740,"ĠÃ¼yesi":4741,"ĠtarÄ±m":4742,"larÄ±mÄ±za":4743,"ĠsÃ¶yleyen":4744,"II":4745,"ĠCev":4746,"Ġ198":4747,"Ã¶nder":4748,"Ġmarka":4749,"encer":4750,"brahim":4751,"out":4752,"bin":4753,"ĠCuma":4754,"ĠTah":4755,"!!":4756,"pt":4757,"ĠhÃ¼kÃ¼met":4758,"Ġkriz":4759,"ane":4760,"kÄ±r":4761,"tansiy":4762,"TÃ¼m":4763,"Ġitir":4764,"Ġyarg":4765,"Ġx":4766,"Es":4767,"Ġdes":4768,"Ġcm":4769,"ĠPeki":4770,"ĠeriÅŁim":4771,"Ġheyecan":4772,"Ġsana":4773,"ĠkÄ±rmÄ±zÄ±":4774,"ĠBÄ°R":4775,"abileceÄŁini":4776,"Ġfutbolcu":4777,"eyiz":4778,"ĠolduÄŁumuz":4779,"ĠuygulamasÄ±":4780,"ĠLe":4781,"ĠkiÅŁilik":4782,"ahmet":4783,"Ġyerini":4784,"th":4785,"Ġreh":4786,"ĠuÄŁraÅŁ":4787,"ukat":4788,"diÄŁim":4789,"ĠsoÄŁuk":4790,"we":4791,"ĠendiÅŁ":4792,"Mer":4793,"ĠinÅŁaat":4794,"Ġgem":4795,"masÄ±yla":4796,"Ġcilt":4797,"ĠWeb":4798,"Ġmilli":4799,"Ġbet":4800,"Ġelem":4801,"ĠbaÄŁlant":4802,"ahtar":4803,"ABD":4804,"Ø§":4805,"ĠArap":4806,"Ġkripto":4807,"Ġsuyu":4808,"Ġetkilen":4809,"ĠDest":4810,"rop":4811,"LERÄ°":4812,"ladÄ±m":4813,"Ġherkesin":4814,"Ġedilecek":4815,"larÄ±ndaki":4816,"luluÄŁ":4817,"ĠÄ°srail":4818,"ĠÃ¼lkede":4819,"ĠdÃ¶viz":4820,"Ġgrub":4821,"eder":4822,"Ã¶ÄŁr":4823,"ĠdolaÅŁ":4824,"ĠolmaktadÄ±r":4825,"ĠihtiyacÄ±":4826,"ĠBat":4827,"ĠDE":4828,"Ġticari":4829,"ĠÃĩek":4830,"Ġvergi":4831,"Ä±ÄŁÄ±nda":4832,"Ġrast":4833,"ĠmaaÅŁ":4834,"Ġins":4835,"Ġolmam":4836,"ĠMut":4837,"ĠÃ§oÄŁun":4838,"OÄŀ":4839,"39":4840,"ĠBeÅŁiktaÅŁ":4841,"ĠKab":4842,"ĠalÄ±ndÄ±":4843,"lardaki":4844,"bil":4845,"Ġadresi":4846,"ĠmÃ¼ÅŁteriler":4847,"ĠCez":4848,"Ġbelirtilen":4849,"ĠFin":4850,"ĠTam":4851,"38":4852,"ĠSab":4853,"Ġdiyen":4854,"ĠyÄ±lÄ±n":4855,"ĠDir":4856,"Ġdikkate":4857,"Ġbinlerce":4858,"ĠtanÄ±n":4859,"ĠMobil":4860,"amazan":4861,"Ãĸzel":4862,"ĠÄ°k":4863,"tuÄŁ":4864,"Ġgelenek":4865,"37":4866,"obÃ¼s":4867,"Ġgetirdi":4868,"ĠtÄ±r":4869,"ĠgÃ¶rdÃ¼ÄŁ":4870,"azartesi":4871,"dek":4872,"bon":4873,"Ġizle":4874,"ĠMad":4875,"Ġresim":4876,"ĠGerek":4877,"letiÅŁim":4878,"otel":4879,"iyorlar":4880,"Ġkapasit":4881,"ĠHÃ¼s":4882,"Ġsim":4883,"oyu":4884,"land":4885,"Ãĩok":4886,"ĠÃ§alÄ±ÅŁÄ±yor":4887,"On":4888,"Ġ35":4889,"ĠamacÄ±":4890,"ĠKÃ¶y":4891,"ĠistiyorsanÄ±z":4892,"amayan":4893,"ilmek":4894,"Ġordu":4895,"cilik":4896,"Ä°lk":4897,"ĠFenerbahÃ§e":4898,"ĠbÃ¼r":4899,"ĠLi":4900,"ular":4901,"etrol":4902,"isa":4903,"ĠDair":4904,"Ġsalon":4905,"Ġism":4906,"ner":4907,"ĠgeÃ§iÅŁ":4908,"ĠhÄ±zla":4909,"Ġhad":4910,"32":4911,"ĠNew":4912,"mm":4913,"kol":4914,"ĠDil":4915,"ĠSey":4916,"tiketler":4917,"Ġilgilen":4918,"Ġbulunur":4919,"Ġhaberleri":4920,"Ġunsur":4921,"Ġbulundur":4922,"Ð°":4923,"ĠâĢ¦":4924,"ĠtÃ¶ren":4925,"Ġtelevizyon":4926,"ÃľRK":4927,"dÃ¼z":4928,"ress":4929,"LAN":4930,"ĠettiÄŁini":4931,"ĠÂ«":4932,"uluÄŁ":4933,"ĠPara":4934,"ĠDÃ¼ÅŁ":4935,"kadaÅŁ":4936,"ori":4937,"Ġolanlar":4938,"Ġteb":4939,"kek":4940,"yer":4941,"Ġbuy":4942,"±b":4943,"ĠeÄŁitimi":4944,"ĠDakika":4945,"Ġoda":4946,"Ġdenetim":4947,"Ġtoplumsal":4948,"lasik":4949,"Ġzamanlarda":4950,"maktan":4951,"Ġincelem":4952,"Ä±b":4953,"ĠMilletvekili":4954,"ĠYine":4955,"Ġbilgilendir":4956,"Ġhasta":4957,"oft":4958,"iÅŁehir":4959,"Ġpil":4960,"Ġkanun":4961,"anÄ±m":4962,"Ġdizi":4963,"ĠlÃ¼tfen":4964,"ĠvarlÄ±k":4965,"bo":4966,"ĠMeclis":4967,"ĠSav":4968,"Ġverecek":4969,"ĠrahatsÄ±z":4970,"Ġsahn":4971,"za":4972,"ĠFransa":4973,"Ġdepr":4974,"ĠHiÃ§":4975,"Top":4976,"ĠAltÄ±n":4977,"udi":4978,"ĠboÄŁ":4979,"bal":4980,"asÄ±z":4981,"lot":4982,"mit":4983,"Ġnoktada":4984,"ĠgelmiÅŁ":4985,"UT":4986,"ĠdÃ¼ÅŁman":4987,"46":4988,"GeÃ§":4989,"evk":4990,"anti":4991,"ĠUzun":4992,"Ġgiderek":4993,"Ä±yÄ±z":4994,"ÃľK":4995,"ĠSaat":4996,"ĠKurum":4997,"ĠÅŀeh":4998,"emli":4999,"yip":5000,"ĠolacaÄŁÄ±nÄ±":5001,"ĠSultan":5002,"Ġbecer":5003,"ĠBaÅŁkanlÄ±ÄŁÄ±":5004,"ĠBizim":5005,"ĠSayÄ±n":5006,"ĠFatih":5007,"emize":5008,"ĠbÃ¶":5009,"ĠAN":5010,"EO":5011,"ĠHz":5012,"Ġpiyasa":5013,"ĠBaÅŁbakan":5014,"cisi":5015,"Ġ08":5016,"ĠKÃ¼Ã§Ã¼k":5017,"ĠmÃ¼t":5018,"ĠparÃ§asÄ±":5019,"lÄ±dÄ±r":5020,"ovid":5021,"Bak":5022,"ĠMurat":5023,"gre":5024,"Bel":5025,"uf":5026,"ĠðŁ":5027,"ĠkiÅŁiye":5028,"ĠÅŁunlarÄ±":5029,"ĠKarÅŁ":5030,"ĠÄ°ki":5031,"orta":5032,"ayÄ±m":5033,"Ġeklen":5034,"ĠtanÄ±":5035,"ĠgÃ¶zlem":5036,"ĠolduklarÄ±":5037,"48":5038,"arÄ±nda":5039,"fÄ":5040,"Ġ2009":5041,"BM":5042,"bakÄ±r":5043,"ĠKÄ±lÄ±Ã§":5044,"luluÄŁu":5045,"fÄ±":5046,"ĠkaÃ§Ä±r":5047,"oma":5048,"Ġpotansiy":5049,"ĠGÃ¼zel":5050,"ĠKiÅŁ":5051,"ĠkÃ¼resel":5052,"ĠRecep":5053,"ĠyapÄ±lmÄ±ÅŁ":5054,"ĠÅŁiÅŁ":5055,"ÄŁur":5056,"lal":5057,"Ġadr":5058,"Ġyapma":5059,"ĠsÃ¶ylÃ¼yor":5060,"Â´":5061,"ĠGÃ¼nÃ¼":5062,"ĠÃ¶t":5063,"ĠsÃ¶ylen":5064,"olog":5065,"lerim":5066,"ĠseÃ§enekleri":5067,"ĠgÃ¶sterir":5068,"sem":5069,"Ġkomp":5070,"ĠvÃ¼cut":5071,"Ġatan":5072,"99":5073,"ĠFakÃ¼ltesi":5074,"DI":5075,"liÄŁinin":5076,"ĠtanÄ±ÅŁ":5077,"ĠGÃ¼venlik":5078,"ĠOdasÄ±":5079,"Ġhaz":5080,"Ġmisafir":5081,"ulmuÅŁ":5082,"ĠgÃ¼cÃ¼":5083,"Ġkazanmak":5084,"ĠtÃ¼rk":5085,"ĠinsanlarÄ±":5086,"ĠGazetesi":5087,"bey":5088,"Ġsorumluluk":5089,"Ġdurumlarda":5090,"ben":5091,"Ġistik":5092,"Ġhassas":5093,"Ġsayede":5094,"demir":5095,"ĠHep":5096,"ĠiP":5097,"Ġvade":5098,"baÅŁÄ":5099,"baÅŁÄ±":5100,"Ġiade":5101,"ĠaÄŁaÃ§":5102,"ĠkÄ±sÄ±t":5103,"Ä°z":5104,"ĠÅŀehir":5105,"ederasyon":5106,"seri":5107,"ĠkalÄ±n":5108,"lanÄ±yor":5109,"Ġbeden":5110,"AF":5111,"Ġkulak":5112,"ĠdÃ¼ÅŁÃ¼ÅŁ":5113,"ĠÃ¶y":5114,"ĠTat":5115,"pple":5116,"Ġkahv":5117,"ĠMus":5118,"ĠÃ¼stÃ¼n":5119,"Ġkendilerine":5120,"oli":5121,"Ġsunuyor":5122,"var":5123,"ĠÃĸnc":5124,"Ġveriler":5125,"ĠbÃ¶lgede":5126,"Ġsiyah":5127,"Ġsabit":5128,"oya":5129,"ĠÃ§erÃ§evesinde":5130,"enizi":5131,"Ġistiyoruz":5132,"Ġkolayca":5133,"Ġbahset":5134,"Ġgelin":5135,"Ġekipleri":5136,"OP":5137,"ĠiÃ§indeki":5138,"ĠSÄ±r":5139,"ĠOtel":5140,"und":5141,"ĠBatÄ±":5142,"ĠZaman":5143,"celi":5144,"ĠÃ§iÃ§ek":5145,"giler":5146,"Ġuzat":5147,"amik":5148,"OB":5149,"Ġifadelerini":5150,"Ġeve":5151,"ĠStr":5152,"ĠdÃ¼nyaya":5153,"Ġihracat":5154,"ciler":5155,"Ġsaf":5156,"ĠMic":5157,"Ġgizli":5158,"ĠolmalÄ±dÄ±r":5159,"Ġtuz":5160,"Ġkus":5161,"lÄ±ÄŁÄ±nÄ±n":5162,"UK":5163,"ĠElekt":5164,"Ġtrafik":5165,"lerimizin":5166,"laÅŁma":5167,"omp":5168,"Ġalak":5169,"ruf":5170,"tÃ¼rk":5171,"Ġbayan":5172,"ĠBunlar":5173,"Ġlezzet":5174,"ĠKitap":5175,"ĠÃ¶ÄŁretim":5176,"EF":5177,"ĠMac":5178,"ĠadÄ±nÄ±":5179,"ĠâĢ¢":5180,"oin":5181,"Ã¼ley":5182,"iki":5183,"Ġkuru":5184,"duÄŁumuz":5185,"SS":5186,"ĠÃĩaÄŁ":5187,"Ġelektronik":5188,"ĠFor":5189,"Ġkurulan":5190,"Ġameliyat":5191,"ĠvermiÅŁ":5192,"iyarbakÄ±r":5193,"Ġbayram":5194,"ĠalÄ±nmasÄ±":5195,"urk":5196,"ĠFacebook":5197,"ĠÃ¶zen":5198,"ĠCem":5199,"ave":5200,"57":5201,"alarla":5202,"liliÄŁi":5203,"Ðµ":5204,"Ġkup":5205,"ÅŁey":5206,"obot":5207,"Ġduyar":5208,"ĠYÄ±ldÄ±rÄ±m":5209,"ĠkatÄ±lan":5210,"bank":5211,"Ġhab":5212,"Ġfi":5213,"Ġref":5214,"ĠiÅŁlev":5215,"Ġsunan":5216,"ĠpaylaÅŁÄ±m":5217,"Ġmahk":5218,"Kur":5219,"antep":5220,"liyat":5221,"leyerek":5222,"Ġederken":5223,"edek":5224,"BugÃ¼n":5225,"ĠIrak":5226,"ĠimkanÄ±":5227,"Ġhakim":5228,"ĠÃ¼rÃ¼nÃ¼":5229,"ĠGiriÅŁ":5230,"ĠteÅŁkil":5231,"Ġaltyap":5232,"Ġtez":5233,"Ġince":5234,"ĠdolayÄ±sÄ±yla":5235,"amÄ±yor":5236,"Ġ$":5237,"amadÄ±":5238,"Ġaktiv":5239,"ĠMuham":5240,"esef":5241,"Ġbozuk":5242,"ĠgÃ¶rÃ¼len":5243,"ÃĸR":5244,"Ġalmaya":5245,"YOR":5246,"ĠsaygÄ±":5247,"ksiyon":5248,"Ä°H":5249,"Ġmahkem":5250,"ĠÅŁaÅŁÄ±r":5251,"ĠBek":5252,"Ġ00":5253,"ĠHasan":5254,"ĠBon":5255,"ĠHava":5256,"omet":5257,"ĠOkul":5258,"ledik":5259,"ĠgÃ¶rsel":5260,"ĠkÃ¶k":5261,"Ġgitti":5262,"ĠTasar":5263,"ĠYazÄ±":5264,"Ä±rlar":5265,"47":5266,"ĠvirÃ¼s":5267,"...\"":5268,"uÄŁu":5269,"usunun":5270,"Ġkurulu":5271,"ĠolduÄŁunuz":5272,"OT":5273,"ĠÃ§alÄ±ÅŁtÄ±r":5274,"ĠkaÃ§Ä±n":5275,"ildiÄŁini":5276,"Ġistek":5277,"sinin":5278,"ĠIs":5279,"altÄ±na":5280,"SaÄŁ":5281,"haba":5282,"ĠSÄ±n":5283,"ĠÅŁarkÄ±":5284,"isiklet":5285,"ĠtaÅŁÄ":5286,"ĠtaÅŁÄ±":5287,"__":5288,"Ġsakin":5289,"Ġsebebi":5290,"ĠÃ§alÄ±ÅŁmasÄ±":5291,"Ġsorgul":5292,"ĠBÃ¼tÃ¼n":5293,"aÅŁÄ±k":5294,"Ġkesim":5295,"ĠYok":5296,"Ġetik":5297,"str":5298,"ĠHastanesi":5299,"ĠbÃ¶lge":5300,"ĠÃ§ocuklarÄ±n":5301,"DÃ¼nya":5302,"ĠiÅŁler":5303,"imizden":5304,"okul":5305,"ĠÃ¶ncelikle":5306,"ĠkavuÅŁ":5307,"kon":5308,"ĠgÃ¶steriyor":5309,"ĠAbd":5310,"ĠBilgi":5311,"ĠTayyip":5312,"ĠÃ¼yelik":5313,"ediÄŁim":5314,"nÃ¼n":5315,"ĠEf":5316,"liyet":5317,"lamÄ±ÅŁ":5318,"ĠPKK":5319,"ĠtatlÄ±":5320,"ĠteÅŁvik":5321,"Ġsuy":5322,"Yap":5323,"Ġbeklent":5324,"ĠkolaylaÅŁ":5325,"oto":5326,"sef":5327,"49":5328,"Ġhepsi":5329,"Ġbiridir":5330,"ĠÄ°nÅŁ":5331,"Ġ2008":5332,"Ġgenelinde":5333,"ĠiÅŁin":5334,"Gel":5335,"nu":5336,"ĠSanayi":5337,"Ġdeng":5338,"ÃľM":5339,"ebilmek":5340,"adet":5341,"Ġdis":5342,"ĠCumhuriyeti":5343,"emizi":5344,"Ġkapan":5345,"mede":5346,"ĠMahkem":5347,"Ġsebebiyle":5348,"ĠÃ§evre":5349,"ĠdÃ¼ÅŁÃ¼nÃ¼yor":5350,"Ġsever":5351,"ĠbaÅŁkanÄ±":5352,"ĠOnun":5353,"dat":5354,"ever":5355,"ĠÃĩÄ±k":5356,"Ġkaydetti":5357,"Ġdemektir":5358,"Ġhediye":5359,"ÅŁembe":5360,"ĠbÃ¶lgesinde":5361,"SK":5362,"ayarak":5363,"rag":5364,"Ġfinansal":5365,"Ġves":5366,"Ġsonuna":5367,"manÄ±zÄ±":5368,"ĠyaÅŁÄ±nda":5369,"sul":5370,"ĠDolayÄ±sÄ±yla":5371,"ĠtaÅŁÄ±yan":5372,"kur":5373,"ĠPr":5374,"Ġbanka":5375,"ĠÂ·":5376,"fil":5377,"ÅŁamba":5378,"ĠHatta":5379,"ĠgeliÅŁmeler":5380,"2016":5381,"ĠÅŁeker":5382,"ĠKanunu":5383,"ĠÅŁim":5384,"lemeye":5385,"Ġyalan":5386,"Ġihal":5387,"ĠÃ§atÄ±ÅŁ":5388,"ĠkaynaÄŁÄ±":5389,"ĠBirleÅŁ":5390,"Ġarka":5391,"In":5392,"ĠÅŁirketi":5393,"ĠbarÄ±ÅŁ":5394,"Ġesnaf":5395,"Ġdemir":5396,"Ġmuhal":5397,"ĠolmalÄ±":5398,"ĠvÃ¼cud":5399,"omo":5400,"ĠaÃ§Ä±lÄ±ÅŁ":5401,"ulur":5402,"avuz":5403,"Ġzorunlu":5404,"ĠBelediy":5405,"ĠbÃ¶ylece":5406,"ĠUS":5407,"ĠAc":5408,"Ġces":5409,"ect":5410,"ĠduruÅŁ":5411,"ikat":5412,"lant":5413,"ahis":5414,"Ġ45":5415,"Ġhissed":5416,"anlarÄ±":5417,"ĠkarÅŁÄ±laÅŁtÄ±r":5418,"ĠÄ°brahim":5419,"ĠyÄ±llar":5420,"Ġmakal":5421,"ĠBenim":5422,"ĠÃ¶lÃ§Ã¼de":5423,"kal":5424,"Sen":5425,"ĠdemiÅŁ":5426,"Ġyoluyla":5427,"rens":5428,"enkul":5429,"ĠmÃ¼mkÃ¼ndÃ¼r":5430,"duklarÄ±":5431,"Ġsinyal":5432,"Ä°nsan":5433,"adÄ±n":5434,"ĠKara":5435,"Ġyerli":5436,"ĠgerÃ§ekleÅŁtirilen":5437,"lanmÄ±ÅŁtÄ±r":5438,"Ã¼ndem":5439,"lamaya":5440,"ĠBoy":5441,"ĠbÃ¼yÃ¼m":5442,"Ġalabilirsiniz":5443,"Ġbr":5444,"Ġbe":5445,"Ġgirdi":5446,"ĠbÃ¶lÃ¼mÃ¼":5447,"irler":5448,"Ġmodelleri":5449,"ĠHakkÄ±nda":5450,"Ġbeb":5451,"ris":5452,"ĠgeldiÄŁi":5453,"Ġmezun":5454,"Ġbekliyor":5455,"Ġmetre":5456,"ĠilÃ§e":5457,"Ã¼leyman":5458,"Ġbelediy":5459,"Ã¼lmesi":5460,"EÄŁer":5461,"75":5462,"Ġburaya":5463,"Ġbirini":5464,"ĠbakÄ±mÄ±ndan":5465,"Ġseni":5466,"Ġrestor":5467,"ĠbilinÃ§":5468,"ĠsÄ±v":5469,"Ġyenil":5470,"ĠKer":5471,"Ã¼ldÃ¼":5472,"Ġ80":5473,"ĠyaÅŁadÄ±ÄŁÄ±":5474,"Ġbulmak":5475,"ĠKuzey":5476,"Ġismi":5477,"DÄ°":5478,"ĠAndroid":5479,"ĠOf":5480,"Ġitibariyle":5481,"ĠgÃ¼Ã§lendir":5482,"Ġtad":5483,"ĠkanÄ±t":5484,"adÄ±klarÄ±":5485,"Ġ90":5486,"TR":5487,"ĠÃ§aÄŁr":5488,"ĠkartÄ±":5489,"Ġren":5490,"Ġyetenek":5491,"ĠedilmiÅŁtir":5492,"ERÄ°":5493,"ment":5494,"Ġetki":5495,"ĠArtÄ±k":5496,"Ġkayded":5497,"amin":5498,"Ġumut":5499,"amanÄ±n":5500,"ĠgÄ±da":5501,"Ġkoruma":5502,"ĠmaÄŁaz":5503,"Ã¼yada":5504,"laj":5505,"vey":5506,"Ġ01":5507,"Ġvadeli":5508,"Etiketler":5509,"ĠyaklaÅŁÄ±m":5510,"ĠhazÄ±rlanan":5511,"ĠgeÃ§tiÄŁimiz":5512,"Ġkaps":5513,"olar":5514,"Ġsevk":5515,"ĠiÃ§eriÄŁ":5516,"Ġterk":5517,"org":5518,"kray":5519,"ĠsÃ¼ren":5520,"undaki":5521,"CI":5522,"ĠmÃ¼l":5523,"ĠEski":5524,"Ġtit":5525,"Ġkomisyon":5526,"Ġtakv":5527,"tanÄ±n":5528,"ĠbaÅŁlÄ±yor":5529,"ĠbiÃ§im":5530,"San":5531,"Ġbuz":5532,"ĠÃĩan":5533,"mesinde":5534,"mesiyle":5535,"Ġiken":5536,"ĠHukuk":5537,"ÃľL":5538,"ĠTeÅŁ":5539,"kÃ¶y":5540,"Ġ70":5541,"ĠsaÄŁlÄ±yor":5542,"dÄ±ÄŁÄ±mÄ±z":5543,"ĠgÃ¶rÃ¼nÃ¼yor":5544,"Ġevet":5545,"ĠSig":5546,"Ġyatak":5547,"ĠÄ°ngilizce":5548,"ĠsorunlarÄ±":5549,"ĠPaÅŁa":5550,"lasyon":5551,"tÄ±ÄŁÄ±mÄ±z":5552,"Ġkendilerini":5553,"ho":5554,"sey":5555,"Ġkullanan":5556,"Ġfilmi":5557,"ĠaÃ§Ä±dan":5558,"ĠCen":5559,"ĠadlandÄ±r":5560,"Ġtakdirde":5561,"ĠdÃ¼zelt":5562,"Ġturizm":5563,"ang":5564,"ĠÃ§evrim":5565,"ETÃĸ":5566,"ĠFransÄ±z":5567,"Ġsorunun":5568,"ĠÅŁef":5569,"ĠyÃ¶ntemi":5570,"Uz":5571,"tÄ±lar":5572,"Ġindirim":5573,"ĠiÅŁÃ§i":5574,"ĠTwitter":5575,"Ġbenzeri":5576,"ĠhÃ¼k":5577,"ĠNeden":5578,"Ã¶rÃ¼":5579,"Ä±ÄŁa":5580,"Evet":5581,"ĠYen":5582,"uyordu":5583,"ĠhesabÄ±":5584,"Ġbirinin":5585,"rol":5586,"Ġdalg":5587,"Ġvs":5588,"Ä±lÄ±p":5589,"malarÄ±nÄ±":5590,"Oy":5591,"ĠbahÃ§":5592,"ĠBoz":5593,"Ġyoktu":5594,"lÄ±ÄŁÄ±nda":5595,"Ġfer":5596,"Ġedilebilir":5597,"kisi":5598,"ĠÄ°d":5599,"Ġrezerv":5600,"Ġidi":5601,"erji":5602,"LU":5603,"65":5604,"Ġmekt":5605,"Ġmemur":5606,"Ġdenet":5607,"los":5608,"Ġfatur":5609,"des":5610,"Ġorganizasyon":5611,"ĠCanlÄ±":5612,"ĠbirleÅŁtir":5613,"Ġnamaz":5614,"eÅŁem":5615,"ĠsÃ¼reÃ§te":5616,"Ġblog":5617,"ĠEx":5618,"ong":5619,"ral":5620,"ĠhÃ¼cr":5621,"ĠÃ¼yeleri":5622,"ĠPiyas":5623,"vel":5624,"ĠSÃ¼per":5625,"ĠaÃ§Ä±lan":5626,"Ġortamda":5627,"Ġbedel":5628,"Ġsahib":5629,"EZ":5630,"ĠistediÄŁi":5631,"Ä±ntÄ±lÄ±":5632,"ĠVan":5633,"ĠBab":5634,"DoÄŁ":5635,"istin":5636,"ĠzamanÄ±":5637,"tren":5638,"afer":5639,"ĠMÃ¼ÅŁter":5640,"ĠHÃ¼seyin":5641,"ĠÃĸmer":5642,"Ġmus":5643,"ÙĦ":5644,"ĠiliÅŁkiler":5645,"ĠErz":5646,"Ġeb":5647,"Ġmaddi":5648,"landa":5649,"Ġkamp":5650,"ĠgÃ¶rÃ¼nÃ¼m":5651,"Ġrakip":5652,"Tr":5653,"=\"\"":5654,"Ġtoz":5655,"ĠbaÅŁlangÄ±Ã§":5656,"Ġpl":5657,"ÃĸN":5658,"ordin":5659,"kim":5660,"Ġbesin":5661,"Ġakadem":5662,"ĠkonuÅŁan":5663,"ĠÃ¼retic":5664,"ĠHast":5665,"Ġyenilik":5666,"ĠyÃ¼kselt":5667,"ÅŁiv":5668,"ĠHes":5669,"ayasa":5670,"kel":5671,"Ġulusal":5672,"ĠtÃ¼rÃ¼":5673,"ektÃ¶rÃ¼":5674,"ĠgÃ¼ndeme":5675,"ĠhayatÄ":5676,"ĠhayatÄ±":5677,"ĠgeÃ§er":5678,"iti":5679,"ĠÅŀampiyon":5680,"adeniz":5681,"kiÅŁehir":5682,"manlÄ±k":5683,"aÄŁÄ±nÄ±":5684,"ome":5685,"ĠAdana":5686,"Ġistif":5687,"andar":5688,"ĠPazartesi":5689,"Ġincelen":5690,"Ġdedim":5691,"ĠCar":5692,"mÃ¼ÅŁtÃ¼r":5693,"ĠÃľcret":5694,"TA":5695,"TI":5696,"ĠmaÄŁdur":5697,"ĠMat":5698,"ĠMon":5699,"ĠyÃ¼zÃ¼nden":5700,"ĠEuro":5701,"Ġsanal":5702,"ĠyapmanÄ±z":5703,"Ã¶ÄŁretim":5704,"Ġsitesinde":5705,"Genel":5706,"dÄ±ÄŁÄ±nÄ±z":5707,"ĠYas":5708,"anÄ±zÄ±":5709,"ĠkÄ±sÄ±m":5710,"ABER":5711,"ĠJap":5712,"ĠolmadÄ±ÄŁ":5713,"ĠSonuÃ§":5714,"Ġgrafik":5715,"ĠkÄ±ymet":5716,"lor":5717,"Ġistedi":5718,"ĠdÃ¶nÃ¼ÅŁÃ¼m":5719,"AyrÄ±ca":5720,"likler":5721,"nan":5722,"ĠuyarÄ±":5723,"ĠhaklarÄ±":5724,"ĠKart":5725,"Ġzir":5726,"ami":5727,"ĠPeygamber":5728,"duÄŁunuz":5729,"Ġharit":5730,"itir":5731,"daa":5732,"ĠÅŁub":5733,"ĠÅŁehr":5734,"ĠMen":5735,"Ġgalib":5736,"BaÅŁk":5737,"ĠNet":5738,"Ġbence":5739,"Yorum":5740,"ĠdeÄŁin":5741,"Ġbors":5742,"ĠilginÃ§":5743,"ĠMey":5744,"ĠKir":5745,"Ġtoplu":5746,"Ġtasarruf":5747,"madÄ±ÄŁÄ±nÄ±":5748,"ĠyangÄ±n":5749,"ĠEmniyet":5750,"arik":5751,"Ġbakan":5752,"ĠBl":5753,"âĢĶ":5754,"ĠKut":5755,"Ġpratik":5756,"Ġprojesi":5757,"ĠsaÄŁlayacak":5758,"ĠÃ¼lkemizde":5759,"UZ":5760,"ĠsonuÃ§larÄ±":5761,"ĠBilim":5762,"ĠgerektiÄŁi":5763,"ĠiÅŁlemler":5764,"alesef":5765,"ĠÄ°Ãĩ":5766,"TÄ°":5767,"alatya":5768,"Ġayn":5769,"abiliriz":5770,"ĠhazÄ±rlÄ±k":5771,"ĠyapÄ±sÄ±":5772,"abilirler":5773,"Ġmuhtem":5774,"ĠGÃ¶rÃ¼n":5775,"ica":5776,"akkabÄ±":5777,"Ġkorumak":5778,"ĠÃľÃ§":5779,"ilerden":5780,"ĠyumuÅŁ":5781,"ĠYAP":5782,"Ġmens":5783,"ĠmÃ¼dahale":5784,"ĠgÃ¶zaltÄ±na":5785,"ĠfarklÄ±lÄ±k":5786,"akkale":5787,"amaya":5788,"Ãĩocuk":5789,"ach":5790,"Ãĸnc":5791,"ĠkÃ¼t":5792,"ĠAj":5793,"ĠFer":5794,"ĠSa":5795,"ĠaralÄ±k":5796,"Ġrekabet":5797,"ĠkadÄ±nlar":5798,"LIK":5799,"DEN":5800,"ĠHayat":5801,"bahis":5802,"Ġistey":5803,"dÃ¼ÄŁÃ¼nÃ¼":5804,"ĠÅŁÄ±k":5805,"Ġfayda":5806,"siyet":5807,"has":5808,"Ġdip":5809,"ilmez":5810,"eceÄŁimiz":5811,"ĠdÃ¶nemi":5812,"ĠtÄ±p":5813,"ĠGÃ¼neÅŁ":5814,"ĠyakÄ±ndan":5815,"Ġzek":5816,"Ġoynan":5817,"ĠbÃ¼yÃ¼":5818,"Ä°YE":5819,"Ġetkiley":5820,"ĠkarÅŁÄ±lan":5821,"ĠWindows":5822,"Ġlig":5823,"ivas":5824,"Ġbask":5825,"Ġanti":5826,"58":5827,"Ã¼bÃ¼":5828,"ĠyaptÄ±klarÄ±":5829,"dol":5830,"ĠgÃ¶l":5831,"ĠÅŁark":5832,"Ġvermektedir":5833,"Ġfonksiyon":5834,"stit":5835,"ĠÃ§ekti":5836,"ĠkarÅŁÄ±ya":5837,"Ġelbette":5838,"ĠmaÃ§Ä":5839,"ĠmaÃ§Ä±":5840,"Ġsistemleri":5841,"Ġfiziksel":5842,"ĠYal":5843,"etiyle":5844,"lerimize":5845,"Ġniyet":5846,"ĠÃĩelik":5847,"ĠKil":5848,"Ä±ÅŁma":5849,"ĠsanatÃ§Ä±":5850,"Ġburadan":5851,"ick":5852,"Ġyerden":5853,"Ġhasar":5854,"Ġedilmektedir":5855,"Ġyolcu":5856,"eter":5857,"Ġbirer":5858,"yasal":5859,"TL":5860,"ĠyapÄ±n":5861,"ĠKonya":5862,"Ã¼mr":5863,"parator":5864,"ĠyarÄ":5865,"ĠyarÄ±":5866,"bek":5867,"muz":5868,"ĠyÃ¶nÃ¼nde":5869,"Ġhur":5870,"54":5871,"ĠÃ¼niversite":5872,"ĠPan":5873,"ĠgÃ¶revi":5874,"ĠNak":5875,"ĠGar":5876,"ump":5877,"Ġkred":5878,"ĠSil":5879,"Ġmevcuttur":5880,"Ä±klÄ±":5881,"ĠkolaylaÅŁtÄ±r":5882,"ĠKAR":5883,"ĠaldÄ±m":5884,"ĠPlan":5885,"Ġbeklem":5886,"Ġust":5887,"CHP":5888,"Ġaj":5889,"ima":5890,"ĠyayÄ±nlanan":5891,"eceksiniz":5892,"Ġideal":5893,"Ġkimlik":5894,"59":5895,"Ġsunu":5896,"Ġtamamlan":5897,"56":5898,"ĠYÄ±ldÄ±z":5899,"Ġzinc":5900,"ĠGru":5901,"ĠparÃ§a":5902,"ĠdeÄŁildi":5903,"ĠKanun":5904,"ĠGerÃ§ek":5905,"ĠsÃ¼s":5906,"ĠtaÅŁÄ±ma":5907,"ĠDestek":5908,"Ġ300":5909,"ĠsÃ¼recinde":5910,"liy":5911,"Ġmodeli":5912,"ĠBAÅŀ":5913,"Ä±nday":5914,"Ġmiktarda":5915,"ĠyansÄ±t":5916,"ĠaÄŁrÄ±":5917,"Ä°Ã§":5918,"ĠTun":5919,"ĠamaÃ§lÄ±":5920,"adir":5921,"ĠGer":5922,"Ġartan":5923,"ĠPort":5924,"Ġverm":5925,"GÃ¼ncel":5926,"ice":5927,"Ġkurumsal":5928,"At":5929,"TE":5930,"ĠÃĸdÃ¼l":5931,"Ġnesil":5932,"ĠkitabÄ±":5933,"ĠyÃ¼zey":5934,"ĠPat":5935,"ĠulaÅŁtÄ±r":5936,"ĠTelefon":5937,"Ankara":5938,"ĠMem":5939,"ĠgÃ¶rÃ¼r":5940,"ĠsÄ±fÄ±r":5941,"ĠAmerikan":5942,"krayna":5943,"madÄ±ÄŁ":5944,"Ġtor":5945,"ĠDik":5946,"lerdi":5947,"Ã§Ä±k":5948,"onun":5949,"ĠDe":5950,"Ä±lmasÄ±nÄ±":5951,"Ġkaybol":5952,"ruk":5953,"itesi":5954,"lerken":5955,"ĠyapÄ±mÄ±":5956,"illa":5957,"Ġkere":5958,"eyh":5959,"ood":5960,"ĠbugÃ¼ne":5961,"ĠanÄ±nda":5962,"Ġekibi":5963,"Ġroman":5964,"ive":5965,"Ġbahsed":5966,"ĠgÃ¶sterdi":5967,"ava":5968,"ĠolduklarÄ±nÄ±":5969,"2015":5970,"iyel":5971,"ĠÃ¼stÃ¼ne":5972,"diniz":5973,"Ġbilimsel":5974,"aÄŁÄ±na":5975,"Ġmaruz":5976,"ĠaÄŁr":5977,"ĠBununla":5978,"Ġgelip":5979,"Ġsanki":5980,"2022":5981,"va":5982,"ĠbarÄ±ndÄ±r":5983,"ĠsarÄ±":5984,"Ä±lmaktadÄ±r":5985,"ĠdÃ¼ÅŁen":5986,"Ġnefes":5987,"ĠÃ§at":5988,"dÄ±ÄŁÄ±m":5989,"78":5990,"ĠSoy":5991,"errah":5992,"ĠotobÃ¼s":5993,"ĠeÅŁi":5994,"GÃ¶r":5995,"ĠPerÅŁembe":5996,"ĠaraÅŁtÄ±rmalar":5997,"ĠMuhammed":5998,"Ä±ldÄ±ÄŁÄ±nda":5999,"ĠoranÄ±nda":6000,"ĠHerk":6001,"Ġnam":6002,"ĠesnasÄ±nda":6003,"ÂłÂłÂłÂł":6004,"odrum":6005,"ĠSek":6006,"ĠKomisyon":6007,"Ġdeprem":6008,"ĠTarÄ±m":6009,"ĠÄ°dar":6010,"Ġmahall":6011,"lÄ±yoruz":6012,"ĠgÃ¶rm":6013,"ĠAraÅŁtÄ±rma":6014,"ĠkÃ¼ltÃ¼rel":6015,"ĠgÃ¼r":6016,"Ġbulabilirsiniz":6017,"Ġep":6018,"ĠÄ°h":6019,"Ġsunulan":6020,"ĠYah":6021,"lendirme":6022,"ĠyaÅŁlÄ±":6023,"ĠÃĩarÅŁamba":6024,"ĠDin":6025,"Ġsevin":6026,"Ġadalet":6027,"Kul":6028,"les":6029,"tek":6030,"itif":6031,"Ġtablo":6032,"ĠgÃ¶rÃ¼yor":6033,"ĠÃ¶rn":6034,"Ġfabrik":6035,"ĠyaÅŁay":6036,"ĠFutbol":6037,"ĠRamazan":6038,"Ġtanesi":6039,"Ġsaha":6040,"bel":6041,"Ġbirbirinden":6042,"ĠSÃ¼leyman":6043,"ĠTÄ±p":6044,"acaksÄ±nÄ±z":6045,"ĠYeÅŁil":6046,"Ġvermeye":6047,"Ġzorluk":6048,"Allah":6049,"Siz":6050,"ĠÃ§aÄŁÄ±r":6051,"ĠkullanÄ±labilir":6052,"Ġbirbirine":6053,"isyen":6054,"Ġrenkli":6055,"Ġsinir":6056,"Ġsergil":6057,"43":6058,"ilme":6059,"Ġacil":6060,"ĠgÃ¶rdÃ¼k":6061,"Ä±lmasÄ±na":6062,"ĠcoÄŁraf":6063,"ight":6064,"ĠÃ¼retimi":6065,"ĠKup":6066,"Ok":6067,"diye":6068,"Ġdava":6069,"ĠCeza":6070,"ĠÅŁeyin":6071,"Ġport":6072,"Ġduruma":6073,"Ancak":6074,"diklerini":6075,"ash":6076,"acÄ±k":6077,"Ġkonak":6078,"âĢ¦âĢ¦":6079,"Ġsayfa":6080,"42":6081,"Ġzevk":6082,"daroÄŁlu":6083,"deri":6084,"ĠBalÄ±k":6085,"eÄŁine":6086,"yalÄ±":6087,"ebe":6088,"ĠTh":6089,"mÄ":6090,"ĠIÅŁ":6091,"Ġadeta":6092,"ĠkÃ¶t":6093,"ĠTurizm":6094,"ĠolacaÄŁÄ±":6095,"Ã¼str":6096,"Ġinsanlara":6097,"Ġkonuk":6098,"sine":6099,"AÅŁ":6100,"ĠDanÄ±ÅŁ":6101,"pe":6102,"Ġyenilen":6103,"rat":6104,"Ġpah":6105,"ĠkÄ±yaf":6106,"ann":6107,"Ġherkese":6108,"ena":6109,"mÄ±":6110,"ĠbirleÅŁ":6111,"Ã¢y":6112,"Ġtabii":6113,"Ġtedavisi":6114,"Ġverimli":6115,"ilip":6116,"osyon":6117,"ĠTeknoloji":6118,"ĠÃ¼lkeler":6119,"ĠLigi":6120,"ĠTe":6121,"onspor":6122,"igit":6123,"ĠSelÃ§uk":6124,"Ġtok":6125,"lus":6126,"ĠyaÅŁat":6127,"ĠinsanÄ±":6128,"ÃľZ":6129,"ĠAkdeniz":6130,"Ġhaberi":6131,"YaÅŁ":6132,"Ah":6133,"top":6134,"ĠÃ§alÄ±ÅŁmak":6135,"Ġalb":6136,"erez":6137,"Ġyiyecek":6138,"ĠÃ¶ÄŁrencilerin":6139,"41":6140,"53":6141,"Hal":6142,"Ġinceley":6143,"Ġhapis":6144,"amÄ±ÅŁ":6145,"Ġverilir":6146,"lob":6147,"ĠÄ°Ã§er":6148,"ĠÄ°letiÅŁim":6149,"alandÄ±r":6150,"ĠTR":6151,"ĠII":6152,"ĠulaÅŁÄ±m":6153,"ĠÃ§Ã¶k":6154,"Ġseviye":6155,"Ġverim":6156,"Ġdepol":6157,"Ġten":6158,"uncu":6159,"Ġpetrol":6160,"Ġmevzu":6161,"ail":6162,"veren":6163,"meyecek":6164,"Ġistihdam":6165,"okol":6166,"ĠbÃ¼tÃ§":6167,"Ġbelirlenen":6168,"paÅŁa":6169,"Ġkara":6170,"ĠPark":6171,"tÄ±klarÄ±":6172,"ĠpiÅŁir":6173,"ĠÅŀahin":6174,"Ġrej":6175,"lemesi":6176,"ĠÃ¶nde":6177,"ĠoÄŁlu":6178,"Ġnin":6179,"Kal":6180,"ĠGrup":6181,"ahh":6182,"ĠÄ°kinci":6183,"ĠBundan":6184,"ola":6185,"Ġithal":6186,"Ġanlatan":6187,"ĠÃ¼stÃ¼nde":6188,"ĠbÃ¶lÃ¼mÃ¼nde":6189,"ĠyÄ±lÄ±ndan":6190,"ĠulaÅŁabilirsiniz":6191,"Ġgrubu":6192,"Ġtalim":6193,"Ã©":6194,"ĠarkadaÅŁlar":6195,"Ġgidi":6196,"ĠgereÄŁi":6197,"ĠdÃ¼zeyde":6198,"sk":6199,"Ġvererek":6200,"ole":6201,"Ġseyir":6202,"Ġkalite":6203,"ĠbÃ¼nyesinde":6204,"ĠtarayÄ±":6205,"DAN":6206,"ĠfaydalÄ±":6207,"Ġgetirmek":6208,"LA":6209,"elek":6210,"Ġsanayi":6211,"ith":6212,"Ġbilgiye":6213,"ĠMÄ±sÄ±r":6214,"Ġgidiyor":6215,"ĠSes":6216,"Ġhata":6217,"ĠyaÅŁamak":6218,"ĠSalÄ±":6219,"Ġbiy":6220,"era":6221,"ace":6222,"lerindeki":6223,"ous":6224,"ĠgeliÅŁmiÅŁ":6225,"Ġmedy":6226,"ĠyÃ¼kÃ¼m":6227,"ĠFar":6228,"Ġ36":6229,"ĠkÃ¢":6230,"Ġse":6231,"Ġdekor":6232,"ĠedildiÄŁi":6233,"Haberler":6234,"ĠApple":6235,"ĠCumartesi":6236,"Ġmalzeme":6237,"ĠdayalÄ±":6238,"ĠyÃ¼rÃ¼yÃ¼ÅŁ":6239,"ife":6240,"Kat":6241,"osk":6242,"int":6243,"ug":6244,"Ġanahtar":6245,"ilmesini":6246,"soy":6247,"ĠYapÄ±lan":6248,"Ġettim":6249,"melerin":6250,"Ġdarbe":6251,"ĠÃ¶ncesinde":6252,"SO":6253,"ĠiyileÅŁtir":6254,"gah":6255,"ĠsÄ±nÄ±rlÄ±":6256,"ĠCumhurbaÅŁkan":6257,"ARI":6258,"ketbol":6259,"Ġ07":6260,"Ġtaraftar":6261,"Ġkanser":6262,"±d":6263,"ĠSat":6264,"ĠKav":6265,"Ġmeydan":6266,"ograf":6267,"ĠgÃ¶k":6268,"ĠÃ§Ä±kacak":6269,"ĠyarÄ±m":6270,"ĠdÃ¼ÅŁÃ¼nÃ¼l":6271,"eral":6272,"ĠiliÅŁki":6273,"Ama":6274,"vekil":6275,"ĠMHP":6276,"usuz":6277,"tifak":6278,"ĠaÅŁÄ":6279,"ĠaÅŁÄ±":6280,"Ġizlen":6281,"ĠhalkÄ±n":6282,"anlÄ±ur":6283,"demi":6284,"ĠsonuÃ§lar":6285,"ĠyarÄ±n":6286,"Ġelinde":6287,"Ġorman":6288,"ĠBÃ¶lg":6289,"Ä±d":6290,"akarya":6291,"ĠFark":6292,"BÃ¼yÃ¼k":6293,"Ġdikkatli":6294,"Ġevlilik":6295,"Ġgazetec":6296,"Ġpotansiyel":6297,"Ġyitir":6298,"Ġiyice":6299,"Ġuyumlu":6300,"Tarih":6301,"ĠDep":6302,"sÄ±zÄ±n":6303,"ĠTurk":6304,"ĠiPhone":6305,"ĠNer":6306,"ĠalanlarÄ±":6307,"ĠKocaeli":6308,"Ġrefer":6309,"ĠgÃ¼nler":6310,"Ġgeleneksel":6311,"ĠsÃ¼redir":6312,"Ġada":6313,"ĠgÃ¼nÃ¼mÃ¼z":6314,"ĠKaÃ§":6315,"ĠÄ°ÅŁlet":6316,"emeyen":6317,"Ġusul":6318,"Ġmakam":6319,"ĠPolitik":6320,"ĠErkek":6321,"Ġkusur":6322,"aÅŁÄ":6323,"Yar":6324,"ĠgÃ¼":6325,"ĠOrdu":6326,"yu":6327,"Ġofis":6328,"aÅŁÄ±":6329,"ĠYa":6330,"muyor":6331,"ĠAslÄ±nda":6332,"ĠDon":6333,"ĠiÅŁgal":6334,"eth":6335,"Ġufak":6336,"ĠhastalÄ±ÄŁÄ±":6337,"ĠolduÄŁunda":6338,"YÄ±l":6339,"fik":6340,"Ġdini":6341,"ĠAsya":6342,"ediklerini":6343,"ĠÃ¶nÃ¼mÃ¼zdeki":6344,"ĠaldÄ±k":6345,"ĠaÃ§Ä±klamasÄ±":6346,"Ġcinsel":6347,"ĠZir":6348,"ĠÄ°liÅŁ":6349,"deb":6350,"ĠyanÄ±na":6351,"ĠDiyarbakÄ±r":6352,"ĠsektÃ¶rÃ¼nde":6353,"Ġsalg":6354,"ĠGÃľN":6355,"lÃ¢m":6356,"Ä°YOR":6357,"ĠaÄŁz":6358,"ĠKaynak":6359,"Ġegz":6360,"melidir":6361,"bat":6362,"ĠhÄ±r":6363,"Ã¼ye":6364,"Yaz":6365,"mr":6366,"ĠBan":6367,"ayÄ±t":6368,"kent":6369,"Ġsigort":6370,"edava":6371,"ĠHÃ¼kÃ¼m":6372,"ich":6373,"ĠOÄŁ":6374,"Ġdiler":6375,"ĠBahÃ§":6376,"ĠolasÄ±":6377,"mamaktadÄ±r":6378,"Ġby":6379,"ĠkalmÄ±ÅŁ":6380,"Ġelb":6381,"ĠET":6382,"usuf":6383,"ĠbaÄŁlam":6384,"ĠkadÄ±nÄ±n":6385,"ĠÃ§ekici":6386,"HA":6387,"ĠKaymak":6388,"Ġdevrim":6389,"ĠSohbet":6390,"Ġdevletin":6391,"gat":6392,"oo":6393,"ĠKredi":6394,"led":6395,"ĠyapÄ±ldÄ±ÄŁÄ±":6396,"Ġkurs":6397,"Ġkullanabilirsiniz":6398,"ĠKit":6399,"ematik":6400,"ĠyazÄ±k":6401,"Ġtarihli":6402,"ĠâĢĶ":6403,"ladÄ±ÄŁÄ±nÄ±":6404,"ĠTrabzon":6405,"Ġondan":6406,"ĠkonuÅŁma":6407,"ĠSitesi":6408,"Ġgitmek":6409,"ĠsÃ¼rece":6410,"Ä°ST":6411,"Ĥº":6412,"muÅŁtu":6413,"yaspor":6414,"ĠÃ¶ncelik":6415,"addesi":6416,"ibe":6417,"ĠKurumu":6418,"ĠkadÄ±nlarÄ±n":6419,"Ġcok":6420,"ĠÄ°Åŀ":6421,"ĠAna":6422,"Ġbelirtildi":6423,"ĠgÃ¼nÃ¼mÃ¼zde":6424,"Ġob":6425,"atistik":6426,"ĠÃ§am":6427,"ĠmÃ¼hendis":6428,"Ġkargo":6429,"malÄ±sÄ±nÄ±z":6430,"ĠVat":6431,"Ġtaban":6432,"ĠyÃ¶nde":6433,"yaj":6434,"indistan":6435,"riyet":6436,"andarma":6437,"ĠimkÃ¢n":6438,"ĠolasÄ±l":6439,"ĠArkadaÅŁ":6440,"ĠRab":6441,"irli":6442,"ĠgerekÃ§":6443,"amayacak":6444,"ĠolmamasÄ±":6445,"Ġgurur":6446,"Ġtarihleri":6447,"ĠaÅŁaÄŁÄ±da":6448,"Ġkazanan":6449,"Ġsorunlar":6450,"yeni":6451,"ĠfarkÄ":6452,"ĠfarkÄ±":6453,"Ġgidip":6454,"elal":6455,"ende":6456,"ĠGenÃ§lik":6457,"ĠiÅŁbirliÄŁi":6458,"Ġgeril":6459,"Ġbeyan":6460,"Ġolabilirsiniz":6461,"ĠAnal":6462,"ĠÄ±r":6463,"Ġbireysel":6464,"ĠBÃ¶lÃ¼m":6465,"rosoft":6466,"gaz":6467,"ĠkulÃ¼p":6468,"amuk":6469,"isiz":6470,"Ġrobot":6471,"ĠgeÃ§ici":6472,"eliÄŁi":6473,"ĠArab":6474,"ĠuygulamalarÄ±":6475,"sh":6476,"kor":6477,"Ġoynay":6478,":)":6479,"Ġtutan":6480,"Ä±yÄ±m":6481,"ĠgÃ¶stermektedir":6482,"Ġedebiyat":6483,"old":6484,"Ġsizler":6485,"ĠtakÄ±mÄ±":6486,"ĠetmiÅŁtir":6487,"eker":6488,"Ã¼lÃ¼k":6489,"ĠAfrika":6490,"Ġfinal":6491,"ĠÄ°mam":6492,"leket":6493,"masÄ±n":6494,"fat":6495,"Ġtrend":6496,"ĠinanÃ§":6497,"veÃ§":6498,"ĠnoktasÄ±":6499,"199":6500,"Ġtemizlik":6501,"cÄ±nÄ±n":6502,"sar":6503,"ĠKÄ±zÄ±l":6504,"Ġisterseniz":6505,"ĠGaziantep":6506,"Ġavukat":6507,"ĠÃ§alÄ±ÅŁÄ±r":6508,"ĠcivarÄ±nda":6509,"Ġ05":6510,"Ġgayret":6511,"layacak":6512,"ĠcezasÄ±":6513,"ĠCih":6514,"ĠaydÄ±nlat":6515,"Ġmetal":6516,"Ġmanz":6517,"ĠÄ°L":6518,"ĠgÃ¼nden":6519,"Ġverilmesi":6520,"ebi":6521,"ĠÃ§ocuÄŁun":6522,"BMM":6523,"ĠSavaÅŁÄ":6524,"ĠSavaÅŁÄ±":6525,"leÄŁ":6526,"tifik":6527,"2014":6528,"ĠÃ§Ã¶":6529,"Ġeh":6530,"Ġku":6531,"ferans":6532,"Ġkimi":6533,"Bet":6534,"ansiyon":6535,"Ġsunar":6536,"Ġdiyet":6537,"Ġkazanma":6538,"Ġ197":6539,"araj":6540,"ĠAY":6541,"ĠKoÃ§":6542,"âĢ¦]":6543,"ĠyayÄ±nlan":6544,"ĠkullanÄ±lmasÄ±":6545,"ĠCon":6546,"elendir":6547,"gari":6548,"Ġkabil":6549,"ĠakÄ±ÅŁ":6550,"ĠsunmaktadÄ±r":6551,"Åŀimdi":6552,"ĠgeleceÄŁ":6553,"Ġyah":6554,"menizi":6555,"ĠGaz":6556,"ĠÃľyesi":6557,"Ġlink":6558,"tayÄ±z":6559,"ĠyazÄ±l":6560,"ĠHotel":6561,"ĠbabasÄ±":6562,"kÄ±rÄ±":6563,"Ġkonularda":6564,"Ġyetersiz":6565,"ĠyÃ¼kseliÅŁ":6566,"leniyor":6567,"ĠaraÃ§larÄ±":6568,"ĠUlusal":6569,"ĠaltÄ±nÄ±":6570,"Sev":6571,"ĠarasÄ±ndan":6572,"Ġ2007":6573,"ĠedeceÄŁiz":6574,"TÃľ":6575,"Ġyerlerde":6576,"Ġsermaye":6577,"ĠKons":6578,"malarÄ±n":6579,"ĠmuhteÅŁem":6580,"Ġyolda":6581,"ĠKaradeniz":6582,"Ġtemas":6583,"Ġyolculuk":6584,"laÅŁÄ±k":6585,"ĠGal":6586,"ue":6587,"Ġplatformu":6588,"ĠattÄ±":6589,"Ġharekete":6590,"enn":6591,"ĠdaÄŁÄ±":6592,"Ġmimar":6593,"imden":6594,"ĠolmadÄ±":6595,"ĠÄ°smail":6596,"ĠAraÃ§":6597,"Ġye":6598,"Ġederiz":6599,"ĠTal":6600,"ĠbazÄ±larÄ±":6601,"ĠgeldiÄŁini":6602,"ĠmantÄ±k":6603,"ĠBeyaz":6604,"Ve":6605,"ecik":6606,"ĠiÅŁleri":6607,"Ġkuzey":6608,"ĠmÃ¼r":6609,"Bunun":6610,"Ġ;":6611,"ĠyÃ¶nel":6612,"ĠÃ¼creti":6613,"Ġmac":6614,"52":6615,"ĠnumarasÄ±":6616,"ĠbÃ¼yÃ¼me":6617,"acaÄŁÄ±mÄ±z":6618,"Ġinc":6619,"ĠKent":6620,"Ġgelmektedir":6621,"ĠazÄ±ndan":6622,"Ġklasik":6623,"ĠAvust":6624,"ĠFÄ±r":6625,"itler":6626,"51":6627,"Ġlok":6628,"ĠDemokr":6629,"ph":6630,"aÄŁÄ±nÄ±n":6631,"Ġris":6632,"ÅŁu":6633,"ekte":6634,"ĠkullandÄ±ÄŁÄ±":6635,"lukla":6636,"Ġenflasyon":6637,"Rus":6638,"ĠgÃ¶rÃ¼ÅŁmeler":6639,"ĠFran":6640,"ĠaÃ§Ä±klan":6641,"Ġyetkili":6642,"ĠÃ§ekme":6643,"ĠolaÄŁan":6644,"Ġsessiz":6645,"ft":6646,"âĢĺ":6647,"Ġgecik":6648,"eydi":6649,"ĠmÃ¼s":6650,"Ġyolunda":6651,"lav":6652,"otos":6653,"ĠHÄ±z":6654,"Ġsavunma":6655,"Ġbende":6656,"ĠAT":6657,"Ġderecede":6658,"ĠtÄ±klayÄ±n":6659,"ÅŁe":6660,"ĠbÄ":6661,"Ġsebeple":6662,"ĠgerektiÄŁ":6663,"ĠCasino":6664,"Ġmesl":6665,"ĠoluÅŁturmak":6666,"ĠSistemi":6667,"Ġverici":6668,"Ġalanlarda":6669,"Ġitiraz":6670,"ester":6671,"ĠSonr":6672,"Ä°LER":6673,"anlÄ±urfa":6674,"ĠbÄ±":6675,"ĠalmasÄ±":6676,"isin":6677,"ĠgÃ¶rdÃ¼":6678,"unuzun":6679,"Ġkahraman":6680,"Ġverilecek":6681,"ĠanlattÄ±":6682,"ĠbaÄŁÄ±ÅŁ":6683,"ĠÅŁahÄ±s":6684,"ĠÃ§ekim":6685,"rip":6686,"ĠgÃ¼venliÄŁi":6687,"tein":6688,"ilmesine":6689,"):":6690,"ĠÃ¶ÄŁrenmek":6691,"ĠÃ¶rt":6692,"ull":6693,"ĠTok":6694,"ĠÃ§aÄŁrÄ±":6695,"Ġkalab":6696,"ĠkazandÄ±":6697,"ĠÃĸÄŁren":6698,"Ġgelmesi":6699,"urdu":6700,"ĠaralarÄ±nda":6701,"Ġmir":6702,"ĠvasÄ±":6703,"ĠÃ§alÄ±ÅŁmalarÄ±nÄ±":6704,"ĠBaÅŁvur":6705,"ĠalÄ±ÅŁkan":6706,"ĠkeÅŁf":6707,"ĠgÃ¼nÃ¼n":6708,"Ġmasraf":6709,"ĠsaÄŁlÄ±ÄŁÄ±":6710,"Ġgayet":6711,"ID":6712,"ĠtanÄ±tÄ±m":6713,"Ġbuldu":6714,"ĠkÃ¶pek":6715,"Ġilave":6716,"Ġdey":6717,"ĠrÃ¼z":6718,"Ġ02":6719,"Ġpencer":6720,"Ã¼mrÃ¼k":6721,"Ã§isi":6722,"Ãľr":6723,"ĠÃ¼rÃ¼nlerin":6724,"meyin":6725,"ĠseÃ§eneÄŁi":6726,"ĠdÃ¼ÅŁÃ¼nce":6727,"abor":6728,"aklÄ±":6729,"ĠGrubu":6730,"zat":6731,"Ġhttps":6732,"ĠÃ§ey":6733,"ame":6734,"Ġaraba":6735,"xy":6736,"ader":6737,"Ġuyan":6738,"ĠoluÅŁturul":6739,"ĠMersin":6740,"ĠÅŁirketin":6741,"ĠHizmetleri":6742,"tÄ±cÄ±":6743,"Ġkaybetti":6744,"ko":6745,"adÄ±ÄŁÄ±mÄ±z":6746,"Ä±ldÄ±ÄŁÄ±nÄ±":6747,"ĠEvet":6748,"Ġkonser":6749,"hats":6750,"ĠalÄ±narak":6751,"ĠkoronavirÃ¼s":6752,"Ġgenelde":6753,"insel":6754,"Ġuygulamalar":6755,"Ġtelefonu":6756,"ĠhayÄ±rlÄ±":6757,"ĠgÃ¼ne":6758,"likte":6759,"mp":6760,"ĠsÃ¶ylemek":6761,"uman":6762,"DU":6763,"Ġhayran":6764,"ĠolmayÄ±":6765,"ĠFederasyon":6766,"ĠYaÅŁam":6767,"ĠÄ±sÄ±":6768,"ĠSok":6769,"Ġno":6770,"ĠEnd":6771,"ider":6772,"ĠSarÄ±":6773,"ĠsÄ±z":6774,"ĠArt":6775,"ĠbaÅŁlayacak":6776,"ĠKral":6777,"aÄŁÄ±nda":6778,"Ser":6779,"MAN":6780,"Ġemir":6781,"ĠFestiv":6782,"dÃ¼n":6783,"ĠKendi":6784,"ĠyapÄ±lÄ±yor":6785,"ĠDeÄŁer":6786,"ĠaykÄ±rÄ±":6787,"Ġkalem":6788,"ĠkalÄ±cÄ±":6789,"ĠBe":6790,"ĠalÄ±nÄ±r":6791,"irim":6792,"ĠKarab":6793,"Ġkitl":6794,"ĠgÃ¶rÃ¼yoruz":6795,"ĠkaybÄ":6796,"ĠkaybÄ±":6797,"Ġmutluluk":6798,"ĠedildiÄŁ":6799,"ĠFETÃĸ":6800,"ÅŁap":6801,"ĠYazar":6802,"Ġaral":6803,"rada":6804,"Ã¼rken":6805,"biy":6806,"Ġgerekse":6807,"Ä±llÄ±":6808,"ĠÅŁirketleri":6809,"ĠDoÄŁan":6810,"Ġbitk":6811,"Ã¢m":6812,"ĠÄ°talya":6813,"Ä¢":6814,"Spor":6815,"ĠtÃ¼ketim":6816,"Ġmuhab":6817,"Ġkeyifli":6818,"ĠgerÃ§ekleÅŁen":6819,"Ġbeyin":6820,"unlar":6821,"Ġbeklenen":6822,"Ġplak":6823,"Ġ150":6824,"Ġval":6825,"ĠRek":6826,"Uy":6827,"Ã¢t":6828,"jen":6829,"ĠyatÄ±rma":6830,"ĠkalÄ±r":6831,"ĠgÃ¶m":6832,"ÃĸÄŁr":6833,"Ã¼kle":6834,"Ġnelerdir":6835,"lÃ¼ÄŁe":6836,"itika":6837,"Ġest":6838,"Ġzamanlar":6839,"Ä°ÅŁte":6840,"Ä°zmir":6841,"ĠzamanÄ±nda":6842,"ĠkatÄ±lÄ±mcÄ±":6843,"ĠÄ°ndir":6844,"Ã¼ks":6845,"ĠÅŀen":6846,"leyecek":6847,"Mu":6848,"atlar":6849,"ĠPas":6850,"Ġ32":6851,"Gir":6852,"ĠSun":6853,"mediÄŁi":6854,"mekten":6855,"Ġmeclis":6856,"Ġmor":6857,"ĠBoÄŁ":6858,"ĠyaÄŁmur":6859,"ĠfÄ±rsatÄ±":6860,"slan":6861,"oper":6862,"Ġpazarlama":6863,"ĠÅŀube":6864,"MS":6865,"Ġverme":6866,"Ġdarb":6867,"ĠyÃ¼rÃ¼r":6868,"ĠkaÃ§ak":6869,"Ġdurumun":6870,"ĠDÃ¼zen":6871,"LAM":6872,"Ġrehber":6873,"yiz":6874,"RO":6875,"Ġnetic":6876,"ME":6877,"Ġpiyasaya":6878,"ĠsÃ¶zleÅŁme":6879,"Ġvir":6880,"ĠdonanÄ±m":6881,"Ġmutfak":6882,"danÄ":6883,"danÄ±":6884,"Ġuygulanan":6885,"Ġpozitif":6886,"ansÄ±z":6887,"ĠOrman":6888,"Ġhali":6889,"Ġtoplumun":6890,"ĠÃĸl":6891,"larÄ±nÄ±za":6892,"Ġzeytin":6893,"Ä°B":6894,"Ġoynamak":6895,"memesi":6896,"Mar":6897,"ĠvatandaÅŁlar":6898,"ses":6899,"Ġsos":6900,"Ġwww":6901,"makla":6902,"ohn":6903,"dÄ±ÅŁ":6904,"Ġemekli":6905,"ĠkÃ¶pr":6906,"ĠmiktarÄ±":6907,"ĠBirleÅŁik":6908,"ĠZaten":6909,"ĠKullanÄ±cÄ±":6910,"ĠanlamÄ":6911,"ĠanlamÄ±":6912,"ĠÃĸÄŁretmen":6913,"Ġbekleniyor":6914,"ĠYaÄŁ":6915,"ĠÄ°t":6916,"Ġdoy":6917,"ĠTrump":6918,"iÄŁin":6919,"ĠToplum":6920,"Ġcem":6921,"ox":6922,"ĠfirmasÄ±":6923,"Ġteor":6924,"ĠÄ°ÃĩÄ°N":6925,"ĠOrt":6926,"nuv":6927,"okulu":6928,"ĠatÄ±k":6929,"Ġbisiklet":6930,"Ä°ngil":6931,"Ġdilek":6932,"Ġboyu":6933,"ĠiletiÅŁime":6934,"duÄŁum":6935,"ĠOrgan":6936,"Ġgarant":6937,"ĠRum":6938,"ĠoranlarÄ±":6939,"----":6940,"veya":6941,"Ġedici":6942,"sinde":6943,"ĠProjesi":6944,"Ġekmek":6945,"leyip":6946,"ĠHazÄ±r":6947,"Ġ196":6948,"alimanÄ±":6949,"Ġmikro":6950,"Ġoranda":6951,"Ġnas":6952,"ĠbileÅŁ":6953,"ĠsunduÄŁu":6954,"Ġkov":6955,"ĠyÄ±llardÄ±r":6956,"Ġoyunun":6957,"ĠTor":6958,"ĠProgramÄ":6959,"ĠProgramÄ±":6960,"ĠÃĩift":6961,"ĠulaÅŁmak":6962,"Avrupa":6963,"ĠteÅŁekkÃ¼rler":6964,"2013":6965,"espor":6966,"zi":6967,"Ġversiyon":6968,"Ġdakikada":6969,"ĠSiyas":6970,"Ġhatt":6971,"Ġkimsenin":6972,"Ġmetrek":6973,"ÙĲ":6974,"ĠAile":6975,"Ġtopr":6976,"ĠKazan":6977,"zerbay":6978,"ĠgÃ¶zden":6979,"ĠHDP":6980,"amÄ±nÄ±":6981,"ÅŁi":6982,"ĠyapÄ±yoruz":6983,"ĠnÃ¼fus":6984,"Ey":6985,"ĠReh":6986,"Ġtazmin":6987,"elle":6988,"ĠUkrayna":6989,"Ġmuhaf":6990,"ĠÃ¶lÃ¼":6991,"ĠVakfÄ±":6992,"ĠyapmasÄ±":6993,"Ġcumhur":6994,"ebilen":6995,"lobal":6996,"ĠhalkÄ±":6997,"ĠMedya":6998,"Ġpu":6999,"Ġker":7000,"ĠyapÄ±p":7001,"ĠYÃ¶netimi":7002,"Ġkonfor":7003,"ĠModel":7004,"Ġparlak":7005,"Ġkariyer":7006,"Ġhusus":7007,"lÄ±kta":7008,"azarÄ±":7009,"Ġayda":7010,"Ġmensup":7011,"ĠFa":7012,"ÃĸZ":7013,"ĠÅŁifr":7014,"ĠÃĸÄŁrenc":7015,"cÄ±k":7016,"Ġ2000":7017,"Ġbozul":7018,"Ġistis":7019,"azer":7020,"Ġente":7021,"zan":7022,"Ġharf":7023,"Ġ[âĢ¦]":7024,"ĠMalatya":7025,"Ġalanlar":7026,"ĠÃĸZ":7027,"elerdir":7028,"ĠBunlarÄ±n":7029,"Ġkarm":7030,"ĠkullanÄ±c":7031,"Ġhayatta":7032,"ĠÃ§Ä±kmÄ±ÅŁ":7033,"ĠDers":7034,"Ġbilgisi":7035,"stra":7036,"Ġetmeniz":7037,"ĠÃĩalÄ±ÅŁma":7038,"Ġzemin":7039,"ĠdÃ¶ndÃ¼":7040,"Ġ48":7041,"ebilirim":7042,"Ġolabilecek":7043,"Ġ06":7044,"ĠÃ§or":7045,"azÄ±ÄŁ":7046,"ĠAbdullah":7047,"ĠÃĩanakkale":7048,"ĠLa":7049,"Ä±sÄ±yla":7050,"elerek":7051,"ĠyolculuÄŁ":7052,"Ġkilit":7053,"Ġbez":7054,"ĠFinans":7055,"ĠHareket":7056,"ĠRad":7057,"ĠYork":7058,"atlarÄ±":7059,"sed":7060,"ĠOnline":7061,"do":7062,"ĠKamu":7063,"uÅŁturucu":7064,"ĠÄ°b":7065,"Ġbaba":7066,"ĠbaktÄ±ÄŁ":7067,"ĠbaÅŁÄ":7068,"ĠbaÅŁÄ±":7069,"iÄŁe":7070,"Ġth":7071,"INDA":7072,"ĠyÃ¶ntemleri":7073,"ceÄŁi":7074,"Ġservisi":7075,"ĠalÄ±cÄ±":7076,"ayol":7077,"igiturk":7078,"Ãľlk":7079,"Ġokur":7080,"Ġizlem":7081,"ĠyapmayÄ±":7082,"ĠEb":7083,"ĠdeÄŁerlendirme":7084,"ĠTemiz":7085,"ĠÃ§alÄ±ÅŁmaya":7086,"ette":7087,"ĠkullanÄ±cÄ±larÄ±n":7088,"Kaynak":7089,"Par":7090,"ĠalakalÄ±":7091,"ĠkullanÄ±cÄ±lar":7092,"ĠYunanistan":7093,"Ġsam":7094,"ĠyollarÄ±":7095,"ĠKen":7096,"simum":7097,"ech":7098,"mini":7099,"Ġantren":7100,"ĠEskiÅŁehir":7101,"SP":7102,"larÄ±nÄ±zÄ±n":7103,"Ġmali":7104,"ebilmektedir":7105,"adÄ±ÄŁÄ±nÄ±z":7106,"deÄŁ":7107,"Ġkorku":7108,"ĠaÃ§tÄ±":7109,"Ġkomut":7110,"imum":7111,"ĠInstagram":7112,"raz":7113,"Ġ!":7114,"Ã§Ä±n":7115,"ĠbulunmasÄ±":7116,"ĠnÃ¶":7117,"Ġverileri":7118,"ĠÄ°le":7119,"ĠÃ¼stÃ¼":7120,"Ġmetin":7121,"lantÄ±":7122,"ĠdÃ¼k":7123,"ĠKÄ±lÄ±Ã§daroÄŁlu":7124,"Ä±nma":7125,"ĠMahkemesi":7126,"ĠYurt":7127,"ĠBelki":7128,"ĠÃ§ocuklarÄ±":7129,"ĠKaf":7130,"ĠadayÄ±":7131,"uyum":7132,"ĠkaÄŁÄ±t":7133,"Ġgereksin":7134,"ĠbÃ¶yl":7135,"ĠyÃ¶r":7136,"Ġkimyasal":7137,"dÄ±lar":7138,"Ġsaatlerinde":7139,"Ġkamera":7140,"Ġacaba":7141,"uÅŁu":7142,"Ġfalan":7143,"diven":7144,"ĠLim":7145,"Ġkenar":7146,"ĠkarÅŁÄ±mÄ±za":7147,"ĠeÄŁlenceli":7148,"ĠTemel":7149,"ĠayakkabÄ±":7150,"ĠyaptÄ±ÄŁÄ±mÄ±z":7151,"ĠAnn":7152,".\"\"\"":7153,"ĠGÃ¼Ã§":7154,"ĠayrÄ±ntÄ±":7155,"Ġsporcu":7156,"Ġaram":7157,"lom":7158,"ĠsoruÅŁturma":7159,"ilerinden":7160,"Ġblok":7161,"Man":7162,"DiÄŁer":7163,"Ġyerler":7164,"Ġyetk":7165,"ĠSÃ¶zleÅŁ":7166,"ĠÃĩevre":7167,"Ġdenk":7168,"ĠgÃ¶ÄŁ":7169,"Ġfelsef":7170,"SaÄŁlÄ±k":7171,"LÄ°K":7172,"ĠkÄ±yas":7173,"Ġpanel":7174,"Ġeklem":7175,"Ġgaranti":7176,"ĠSaÃ§":7177,"Ġka":7178,"Ġmeyve":7179,"ayas":7180,"ĠdÃ¼r":7181,"ÅŁet":7182,"Ġsaniye":7183,"Ġ38":7184,"Ġkoltuk":7185,"Ġhizmetler":7186,"Ġinceleme":7187,"iyetini":7188,"otik":7189,"ĠpiyasasÄ±nda":7190,"ĠTut":7191,"Ġyedek":7192,"ĠbaÅŁlamÄ±ÅŁ":7193,"sis":7194,"ĠAD":7195,"urta":7196,"ĠMeclisi":7197,"Ġhaberler":7198,"Ġnih":7199,"ĠForum":7200,"ĠFu":7201,"Ġbileti":7202,"ĠÅŁartlarÄ±":7203,"gÃ¼t":7204,"Ġmaalesef":7205,"Ġbeslenme":7206,"ĠsÄ±kÄ±nt":7207,"ĠBÃ¶lge":7208,"ks":7209,"Ġsevgi":7210,"INI":7211,"Ġ03":7212,"ĠTasarÄ±m":7213,"ĠBayramÄ":7214,"ĠBayramÄ±":7215,"Ġcami":7216,"Ġprojeler":7217,"ĠcÃ¼ml":7218,"ĠBÃ¶lgesi":7219,"................................":7220,"ĠbirliÄŁi":7221,"ĠSP":7222,"ĠsÄ±kÄ":7223,"ĠsÄ±kÄ±":7224,"ĠÃ¶nemi":7225,"ĠkapsamlÄ±":7226,"EP":7227,"Ġsisteminin":7228,"ĠsatÄ±ÅŁa":7229,"Ġyel":7230,"akin":7231,"Ġolamaz":7232,"Ġprim":7233,"azen":7234,"ĠseÃ§imi":7235,"Ġaran":7236,"tre":7237,"Ġmakinesi":7238,"pa":7239,"Ġtipi":7240,"Ġyorumlar":7241,"Ġhalen":7242,"ĠKÄ±sa":7243,"tih":7244,"Ġiklim":7245,"Ãľn":7246,"ĠSe":7247,"ĠsÃ¼rÃ¼cÃ¼":7248,"ĠAdam":7249,"ĠdÃ¼zenleme":7250,"ĠolmanÄ±z":7251,"rade":7252,"ĠKarak":7253,"Ġbirimi":7254,"ĠMez":7255,"ĠgÃ¶zÃ¼k":7256,"ĠgeniÅŁlet":7257,"Ġhalka":7258,"ĠSivas":7259,"ĠTanrÄ±":7260,"Ġtiyatro":7261,"ĠHABER":7262,"ĠMÃ¼hendis":7263,"ometre":7264,"ĠEc":7265,"zerbaycan":7266,"Ä±lma":7267,"Ġdoz":7268,"Ġmaddesi":7269,"ĠyaptÄ±m":7270,"ĠÃľzer":7271,"teri":7272,"ĠoluÅŁturan":7273,"ĠSem":7274,"ĠLond":7275,"unuza":7276,"iyaret":7277,"ĠER":7278,"tuÄŁu":7279,"ĠyÄ±lÄ±nÄ±n":7280,"Ġdom":7281,"diy":7282,"ĠyaÅŁÄ±yor":7283,"ĠÄ°kili":7284,"ĠsÄ±rt":7285,"esir":7286,"eÅŁme":7287,"ĠSatÄ±ÅŁ":7288,"kun":7289,"tikten":7290,"Ġmasa":7291,"Ġduyurdu":7292,"ĠsaÄŁlamaktadÄ±r":7293,"\"\".":7294,"KAN":7295,"Ä±bbi":7296,"ĠÃ§evrimiÃ§i":7297,"ĠÄ°ÅŁleri":7298,"Ġevden":7299,"ĠParis":7300,"pat":7301,"Ġettiler":7302,"Ġoldum":7303,"Ãĸr":7304,"Ġbonusu":7305,"Ġtablet":7306,"lÄ±ca":7307,"ĠKulÃ¼bÃ¼":7308,"Ġtaraftan":7309,"ilerde":7310,"St":7311,"Ġkoc":7312,"ĠMuh":7313,"ĠÃ¼retilen":7314,"ĠCo":7315,"Ġticareti":7316,"ĠgÃ¼ney":7317,"ĠÐ":7318,"Ġkalb":7319,"Ġparmak":7320,"ELER":7321,"mos":7322,"EÅŀ":7323,"ĠÙ":7324,"ĠmaÃ§ta":7325,"ebileceÄŁi":7326,"EH":7327,"Ġmuk":7328,"ĠÅŁarj":7329,"Ġaraz":7330,"Bey":7331,"Ġkendinizi":7332,"gÃ¼l":7333,"Ġsilin":7334,"Ġenfeksiyon":7335,"ĠkumaÅŁ":7336,"Ġbilen":7337,"ĠolduÄŁum":7338,"ĠyÃ¼zlerce":7339,"Ġoyunlar":7340,"Ġdenir":7341,"ĠbaÅŁladÄ±k":7342,"ĠÃ¶rgÃ¼tÃ¼":7343,"ĠdÃ¶":7344,"ĠhaklÄ±":7345,"Ġprom":7346,"ĠsÃ¼rÃ¼yor":7347,"own":7348,"eyse":7349,"ĠVali":7350,"Ġkelime":7351,"Ġrekor":7352,"Mes":7353,"ĠetkileÅŁ":7354,"Ġetmeyi":7355,"ĠEnstit":7356,"Ġfar":7357,"ĠterÃ¶rist":7358,"ult":7359,"Ġert":7360,"SA":7361,"ĠTav":7362,"ĠDÄ±ÅŁiÅŁleri":7363,"Ã¼man":7364,"ĠiÃ§erir":7365,"ĠÃ¼lkelerin":7366,"ĠÄ°N":7367,"ĠÃ§ekiyor":7368,"Ä±nan":7369,"ĠEkonomi":7370,"onik":7371,"abi":7372,"ĠkÄ±v":7373,"Ã¾":7374,"ĠÃ¶zgÃ¼rlÃ¼k":7375,"ĠCom":7376,"Ġevlen":7377,"ĠaÄŁÄ±z":7378,"Ġanlamak":7379,"ĠEN":7380,"Ġkodu":7381,"Sosyal":7382,"Ġsanay":7383,"ĠyÃ¶nlÃ¼":7384,"ĠEge":7385,"ĠsÃ¼per":7386,"avul":7387,"Ġolmasa":7388,"Ä±sal":7389,"Ä°NE":7390,"uel":7391,"lanabilir":7392,"ĠtasarÄ±mÄ±":7393,"Ġhavuz":7394,"Ġ400":7395,"ĠEmre":7396,"ĠtaÅŁÄ±mak":7397,"ĠkatÄ":7398,"ĠkatÄ±":7399,"ĠHik":7400,"ĠKÃ¼t":7401,"ish":7402,"doÄŁ":7403,"Ġolmaktan":7404,"2012":7405,"priz":7406,"Alman":7407,"ĠdÃ¼ÄŁÃ¼n":7408,"Ġolunca":7409,"ĠfirmamÄ±z":7410,"ĠbaÅŁlÄ±klÄ±":7411,"ĠYusuf":7412,"TV":7413,"ĠnoktasÄ±nda":7414,"ĠBÄ°L":7415,"Ġtedarik":7416,"Ġcenaz":7417,"ĠFaz":7418,"tikÃ§e":7419,"Ġnem":7420,"ĠkarÅŁÄ±n":7421,"OV":7422,"Ġbizlere":7423,"ndeki":7424,"Ġgelince":7425,"Ġsordu":7426,"ĠÃ¼m":7427,"ijinal":7428,"Ġdosya":7429,"Ġtavsiy":7430,"Ġbulunmak":7431,"adÄ±klarÄ±nÄ±":7432,"Ġmevsim":7433,"rit":7434,"Ġmay":7435,"ĠDoÄŁru":7436,"ĠadamÄ":7437,"ĠadamÄ±":7438,"The":7439,"Ġstat":7440,"ĠoluÅŁur":7441,"Ġarayan":7442,"Ġsorular":7443,"CumhurbaÅŁkanÄ±":7444,"ĠcÃ¼z":7445,"Ġkaza":7446,"bas":7447,"elisiniz":7448,"GÃ¶nder":7449,"Ġbulan":7450,"dayÄ±z":7451,"Ġikram":7452,"ĠKork":7453,"Bit":7454,"ĠrÃ¶":7455,"ĠDeÄŁiÅŁ":7456,"mara":7457,"rist":7458,"daÄŁÄ":7459,"daÄŁÄ±":7460,"ilt":7461,"ĠrahatlÄ±kla":7462,"etle":7463,"Ġmuay":7464,"Ġdili":7465,"Ġrahmet":7466,"ĠmÃ¼n":7467,"ĠZira":7468,"enize":7469,"sav":7470,"Ġalabilir":7471,"ĠgeÃ§iyor":7472,"Ġbelgesi":7473,"Ġyedi":7474,"ĠyapÄ±lmaktadÄ±r":7475,"isindeki":7476,"ĠbakÄ±n":7477,"Ġtap":7478,"ĠPolis":7479,"Ġemniyet":7480,"Ġmuhalef":7481,"Ġbilgilere":7482,"aa":7483,"Ġserg":7484,"Ġsevgil":7485,"lup":7486,"unt":7487,"Ã¼yÃ¼":7488,"akal":7489,"eÄŁiyle":7490,"ĠiÃ§eri":7491,"ĠSÄ±nav":7492,"lasman":7493,"Ġtraf":7494,"ĠĠĠĠĠĠĠĠ":7495,"ÅŁÄ":7496,"ĠolmuÅŁtu":7497,"ĠFik":7498,"ĠAÅŁaÄŁÄ±":7499,"Samsun":7500,"ĠHakan":7501,"ĠDuy":7502,"ĠgidiÅŁ":7503,"Ġyeten":7504,"ÅŁÄ±":7505,"ĠiÅŁletme":7506,"ĠKarar":7507,"ĠiÃ§inden":7508,"umuzun":7509,"aborat":7510,"eleriyle":7511,"Ġsesi":7512,"Yazar":7513,"aylÄ±":7514,"Ġkahve":7515,"ĠKayseri":7516,"ĠkiÅŁilere":7517,"uda":7518,"Ġpsikolojik":7519,"ĠmaÃ§Ä±nda":7520,"tum":7521,"lamalar":7522,"ĠÅŁeye":7523,"imle":7524,"Ġlan":7525,"ĠTabii":7526,"Ġtoh":7527,"melik":7528,"ĠkÄ±zÄ±":7529,"ĠalÄ±rken":7530,"Ġgeride":7531,"ĠgÃ¶rdÃ¼m":7532,"?âĢĿ":7533,"ji":7534,"ĠDar":7535,"ĠgÃ¶rmÃ¼ÅŁ":7536,"Ã¼ce":7537,"ĠsanÄ±rÄ±m":7538,"ĠHD":7539,"ino":7540,"ĠolmalarÄ±":7541,"Ġtren":7542,"Ġprens":7543,"ence":7544,"ĠhanÄ±m":7545,"Ġplana":7546,"'m":7547,"ĠTÃ¼r":7548,"ebilmesi":7549,"ĠgeliÅŁme":7550,"ĠaÃ§Ä±ldÄ±":7551,"suzluk":7552,"ĠdolarlÄ±k":7553,"cÄ±lÄ±ÄŁÄ±":7554,"ĠyargÄ±":7555,"utin":7556,"ĠArdÄ±ndan":7557,"ua":7558,"Ġkonuyu":7559,"Ġsevg":7560,"ĠRapor":7561,"Ġkarbon":7562,"Ġettikleri":7563,"Ġdan":7564,"ĠkullanÄ±lmaktadÄ±r":7565,"IT":7566,"Ġmini":7567,"eÄŁinde":7568,"ĠsÃ¼rÃ¼m":7569,"500":7570,"ĠMaÃ§":7571,"ĠsÃ¼reli":7572,"Ġengelli":7573,"ĠsatÄ±m":7574,"mekteyiz":7575,"ĠOtom":7576,"esela":7577,"ĠVol":7578,"ĠKes":7579,"tÄ±ktan":7580,"ĠElektrik":7581,"ĠBirÃ§ok":7582,"iplin":7583,"ĠØ":7584,"Ġkalitesi":7585,"Ġmeyv":7586,"Ġalana":7587,"ĠsÃ¶zÃ¼":7588,"Ġedebil":7589,"ĠÃ¼s":7590,"rimenkul":7591,"ĠMuht":7592,"lerdeki":7593,"KAR":7594,"ĠFotoÄŁraf":7595,"Ġihtimal":7596,"eÄŁinin":7597,"Ġmemleket":7598,"Ġprotokol":7599,"Ġlik":7600,"ĠanÄ":7601,"ĠYÃ¼r":7602,"ĠanÄ±":7603,"ĠkiÅŁiyi":7604,"ĠolmanÄ±n":7605,"ĠgelmiÅŁtir":7606,"Ġaktivit":7607,"sp":7608,"Ġisteyenler":7609,"mesinden":7610,"ĠUzman":7611,"Ġkatk":7612,"Ġokuma":7613,"ĠGe":7614,"Ġpromosyon":7615,"ĠendÃ¼str":7616,"cÃ¼k":7617,"larken":7618,"Ġgib":7619,"manÄ±za":7620,"landÄ±ÄŁÄ±":7621,"ĠEnerji":7622,"Ã¶ly":7623,"Ġriski":7624,"ĠKuvvet":7625,"beri":7626,"ĠsÃ¶zleri":7627,"ĠÅŁeyleri":7628,"Ġkurmak":7629,"ĠyaralÄ±":7630,"ĠolayÄ±":7631,"ĠPlatform":7632,"ÙĴ":7633,"EÃĩ":7634,"ĠkaranlÄ±k":7635,"Ġaksine":7636,"âĢĭ":7637,"DÃ¼ny":7638,"ee":7639,"Ġturist":7640,"Ġdevreye":7641,"imizle":7642,"alog":7643,"ĠÄ±":7644,"ĠÃĸzgÃ¼r":7645,"UÅŀ":7646,"ĠkÃ¢r":7647,"ĠyukarÄ±da":7648,"ĠDoÃ§":7649,"ĠkÃ¼Ã§":7650,"Åŀu":7651,"Ġkaybed":7652,"ĠoluÅŁum":7653,"Ul":7654,");":7655,"Ġex":7656,"aketi":7657,"Ġmezar":7658,"ĠLisesi":7659,"Ġekonomi":7660,"Ġgram":7661,"ikol":7662,"aydÄ±":7663,"Ã¼rriyet":7664,"Ġcon":7665,"ĠOnlar":7666,"ding":7667,"ĠKUR":7668,"bahar":7669,"ĠDenizli":7670,"ĠEK":7671,"ektif":7672,"amÄ±zda":7673,"Ġlideri":7674,"ĠodasÄ±":7675,"Ġ04":7676,"ĠsÄ±vÄ":7677,"ĠsÄ±vÄ±":7678,"KadÄ±n":7679,"ĠSch":7680,"ĠFilistin":7681,"ĠErzurum":7682,"Ġdenem":7683,"ĠEÄŁit":7684,"ĠÅŁekli":7685,"malarÄ±na":7686,"ĠDi":7687,"Ġedilerek":7688,"ÄŀÄ°":7689,"ĠkÃ¶p":7690,"Ġuyku":7691,"ĠÃľstelik":7692,"ĠSakarya":7693,"ĠÃ¶mr":7694,"ĠaÃ§Ä±kÃ§a":7695,"ĠsÃ¼rÃ¼c":7696,"ĠNev":7697,"alel":7698,"Ġkaybeden":7699,"Ġakr":7700,"ĠalÄ±mÄ±":7701,"Dr":7702,"Ġihlal":7703,"Ġdemokratik":7704,"Ġzincir":7705,"dÄ±ÅŁÄ±":7706,"Ġbomb":7707,"ĠYemek":7708,"ĠÃ§ocuÄŁu":7709,"ĠBÃ¶lÃ¼mÃ¼":7710,"ĠhakkÄ±nÄ±":7711,"cÄ±lÄ±ÄŁ":7712,"dÃ¶n":7713,"Ġbitki":7714,"melerini":7715,"ĠMin":7716,"ĠDoktor":7717,"Ġbildirdi":7718,"ilmelidir":7719,"Ġkemik":7720,"ĠsabÄ±r":7721,"ĠpiyasasÄ±":7722,"ĠDaÄŁ":7723,"Ġyasa":7724,"ws":7725,"Ġhekim":7726,"ayolu":7727,"ilerle":7728,"lex":7729,"ĠTÃľRK":7730,"Ġforum":7731,"Ġsuretiyle":7732,"ĠRoma":7733,"ĠtÃ¼c":7734,"ĠNec":7735,"Â·":7736,"Ġ37":7737,"ticaret":7738,"ĠdeÄŁilim":7739,"Ġ1000":7740,"ĠÃĸnce":7741,"ĠMel":7742,"lanarak":7743,"Kam":7744,"ĠÃ§Ä±kmasÄ±":7745,"ĠyumuÅŁak":7746,"balaj":7747,"emiyor":7748,"Ġetken":7749,"lima":7750,"ĠÅŁehrin":7751,"ĠPlay":7752,"ĠsayÄ±sÄ±nÄ±n":7753,"ĠEmek":7754,"Ġbirine":7755,"Ġbiliyoruz":7756,"Ġsiteler":7757,"ded":7758,"ĠÅŁunu":7759,"ign":7760,"Ġprotest":7761,"ĠalbÃ¼m":7762,"Ä°P":7763,"Ġ250":7764,"ĠyÄ±la":7765,"tor":7766,"ĠbaÅŁarÄ±sÄ±z":7767,"ĠKuÅŁ":7768,"ĠsektÃ¶rÃ¼":7769,"tip":7770,"Ġkullanma":7771,"OC":7772,"api":7773,"alaxy":7774,"Ġicra":7775,"ĠTabi":7776,"ĠgÃ¶rÃ¼lmektedir":7777,"obet":7778,"Ġsunmak":7779,"Ġanket":7780,"ĠTakÄ±m":7781,"66":7782,"KÄ±r":7783,"ĠGiz":7784,"Ġtehlikeli":7785,"ukur":7786,"ĠbulunduÄŁunu":7787,"ĠgeldiÄŁinde":7788,"Ä±laÅŁ":7789,"ĠÃ§elik":7790,"atlÄ±":7791,"Ġdez":7792,"Ġmide":7793,"Ġsigorta":7794,"Ġmekaniz":7795,"ĠsÃ¶":7796,"cÃ¼sÃ¼":7797,"ĠsÄ±ÄŁÄ±n":7798,"Ġnesn":7799,"Ġsembol":7800,"ĠkullanÄ±yor":7801,"ĠHÄ±r":7802,"Ġortada":7803,"laÃ§":7804,"ĠGÃ¶rev":7805,"Ġhip":7806,"ĠÃĩÃ¶z":7807,"ersiniz":7808,"ĠarasÄ±na":7809,"Ġsayg":7810,"ĠkÄ±rÄ±k":7811,"Kan":7812,"Ġetmez":7813,"Ġsigara":7814,"Ġkritik":7815,"ĠCaddesi":7816,"orit":7817,"liyoruz":7818,"ALI":7819,"ĠaylarÄ±nda":7820,"Ã¼lÃ¼r":7821,"Ġmavi":7822,"Ġec":7823,"debiyat":7824,"ĠsaÄŁlanmasÄ±":7825,"ĠyapÄ±labilir":7826,"oks":7827,"ĠÃ¼rÃ¼nÃ¼n":7828,"Em":7829,"ĠKahraman":7830,"ld":7831,"anet":7832,"RÃ¼yada":7833,"Cev":7834,"Deniz":7835,"ĠHangi":7836,"ĠniteliÄŁ":7837,"yol":7838,"ĠBodrum":7839,"ĠseÃ§enekler":7840,"tiÄŁiniz":7841,"tral":7842,"ĠnumaralÄ±":7843,"abileceÄŁ":7844,"Ġalkol":7845,"Ġbeslen":7846,"Ġzirv":7847,"ĠdeÄŁiÅŁken":7848,"Ġtutum":7849,"Ã¢l":7850,"ĠdÃ¶nemlerde":7851,"Ġsunum":7852,"Ġyal":7853,"abak":7854,"duktan":7855,"Kend":7856,"Ġiddaa":7857,"Ġkamuoy":7858,"ĠTarif":7859,"ĠKaya":7860,"https":7861,"ĠEtkin":7862,".[":7863,"YÃ¼k":7864,"ĠÃ¶zellikler":7865,"Ã¼phan":7866,"Ġmahalle":7867,"ĠbÃ¶lÃ¼n":7868,"Ġmerkezinde":7869,"ĠmÃ¼lk":7870,"vi":7871,"leÅŁtirme":7872,"ĠkatkÄ±da":7873,"ĠDiz":7874,"Ġekipman":7875,"ĠPh":7876,"Ġbina":7877,"Ġhukuki":7878,"ĠHemen":7879,"unÃ§":7880,"Ġunutul":7881,"AA":7882,"ĠGÃ¶ster":7883,"amadÄ±m":7884,"ĠgÃ¶rdÃ¼ÄŁÃ¼":7885,"ĠBÃ¼l":7886,"ĠPek":7887,"ĠÃ¶dey":7888,"utu":7889,"Ġkeyf":7890,"ĠGÃ¼ndem":7891,"Ġkonular":7892,"ĠEngel":7893,"ĠTBMM":7894,"Ġevinde":7895,"ĠBarÄ±ÅŁ":7896,"ĠDek":7897,"ĠalÄ±nacak":7898,"mis":7899,"Ġegemen":7900,"Ġonur":7901,"ĠbÃ¶lgeye":7902,"Ã§u":7903,"ĠÃ§Ä±ktÄ±ÄŁÄ±":7904,"ĠÃ§izg":7905,"Ġslot":7906,"Ġkumar":7907,"Ġmisiniz":7908,"dirne":7909,"ĠÅŁÃ¼k":7910,"ĠÃĩak":7911,"ĠÅŀer":7912,"lon":7913,"Forex":7914,"Ġhediy":7915,"Ġcinayet":7916,"ĠhemÅŁ":7917,"??":7918,"ydi":7919,"app":7920,"ĠvatandaÅŁlarÄ±n":7921,"Ġgelerek":7922,"Har":7923,"Ġsef":7924,"ĠdÄ±ÅŁÄ±na":7925,"Ġhitap":7926,"ĠhakkÄ±ndaki":7927,"Ã§Ä±lÄ±k":7928,"DEM":7929,"Ġmektup":7930,"Ġimzalan":7931,"Ġyaprak":7932,"ĠaltÄ±ndaki":7933,"ĠForeks":7934,"ĠMÃ¼cad":7935,"ĠhariÃ§":7936,"ĠkaynaklÄ±":7937,"ĠyÄ±llarÄ±":7938,"utma":7939,"SÃ¶z":7940,"ĠkolaylÄ±kla":7941,"Yak":7942,"ĠyaptÄ±ÄŁÄ±nÄ±":7943,"avuÅŁ":7944,"dun":7945,"oid":7946,"ĠÃ§ekir":7947,"ĠgetirdiÄŁi":7948,"ACAK":7949,"Ġsitenin":7950,"Ġlistesi":7951,"ĠÄ°slÃ¢m":7952,"ĠHindistan":7953,"Ġevren":7954,"Ab":7955,"anlarÄ±n":7956,"Ġmm":7957,"ĠiÃ§eriÄŁi":7958,"Ġsom":7959,"Ġbelge":7960,"77":7961,"Ġvide":7962,"Kap":7963,"Ġvah":7964,"ĠBM":7965,"Ġhttp":7966,"ĠSekret":7967,"ĠResmi":7968,"ĠFederasyonu":7969,"ĠServis":7970,"Ġ39":7971,"Ġmedyada":7972,"Ä±ÅŁÄ±klÄ±k":7973,"ĠÃĸyle":7974,"Ã§ilerin":7975,"Ġvizyon":7976,"ĠÃ§alÄ±ÅŁmalarÄ±na":7977,"ĠkoÅŁullarÄ±":7978,"ĠKayÄ±t":7979,"ĠKupasÄ±":7980,"ĠGazete":7981,"Ã¼kleer":7982,"eryal":7983,"tÄ±ÄŁÄ±nÄ±z":7984,"Ter":7985,"Amer":7986,"irin":7987,"ĠarkasÄ±nda":7988,"ĠkullanÄ±larak":7989,"ĠaÃ§mak":7990,"linik":7991,"Ġirade":7992,"Sor":7993,"Ġfestiv":7994,"ĠyaÄŁÄ±":7995,"ĠÃ§alÄ±ÅŁÄ±yoruz":7996,"Ġolmayacak":7997,"ĠeÅŁya":7998,"ĠaÃ§Ä±klandÄ±":7999,"ĠÃĸrgÃ¼t":8000,"ĠÄ°ST":8001,"BaÅŁkan":8002,"emem":8003,"ĠJohn":8004,"Ġgerekirse":8005,"ĠTrabzonspor":8006,"Ġdedik":8007,"ĠAp":8008,"lÃ¼ÄŁÃ¼ne":8009,"Ġsaatleri":8010,"atta":8011,"ĠOlay":8012,"Ġidari":8013,"ĠPsik":8014,"ĠaÃ§Ä±klamalarda":8015,"Ġfiyatlar":8016,"eten":8017,"ml":8018,"ure":8019,"ĠkulÃ¼b":8020,"ĠJo":8021,"Ġyav":8022,"Ġolaylar":8023,"Ġ34":8024,"lerinize":8025,"Ã¼lmÃ¼ÅŁ":8026,"ĠhayatÄ±n":8027,"eciler":8028,"oot":8029,"Ġplastik":8030,"irt":8031,"lit":8032,"Ġ33":8033,"mes":8034,"YON":8035,"Ġdamar":8036,"ĠAV":8037,"ĠÃ¶mÃ¼r":8038,"198":8039,"bÃ¼s":8040,"ĠÄ°ncel":8041,"Ġseven":8042,"Ġsonsuz":8043,"ĠbakalÄ±m":8044,"Ġ2006":8045,"DÄ°R":8046,"rid":8047,"ĠCep":8048,"ĠaÃ§an":8049,"Ġkons":8050,"ĠMay":8051,"Â«":8052,"ĠfÄ±k":8053,"ĠSÄ":8054,"ĠÃ¶f":8055,"Ġistikrar":8056,"ĠplanÄ":8057,"ĠplanÄ±":8058,"ĠtarafÄ±nda":8059,"Ã¼lasyon":8060,"Bay":8061,"ektaÅŁ":8062,"ĠsÃ¼rÃ¼k":8063,"Ġrezervasyon":8064,"Ä±rsak":8065,"Ġhaftada":8066,"Ġselam":8067,"ĠkÄ±smÄ±nÄ±":8068,"Peki":8069,"elli":8070,"ĠÃ¶ÄŁrencileri":8071,"lÄ±lÄ±ÄŁÄ±":8072,"ĠalmÄ±ÅŁtÄ±r":8073,"ĠuzaklaÅŁ":8074,"ĠRenk":8075,"ĠMag":8076,"Ġkurban":8077,"ĠSol":8078,"ĠÃĩay":8079,"ste":8080,"ĠdÃ¼zgÃ¼n":8081,"ĠolanÄ±":8082,"ion":8083,"ĠbÃ¼yÃ¼y":8084,"ĠanlamlÄ±":8085,"Kr":8086,"Ġcaz":8087,"ĠgÃ¶revl":8088,"Ġyahut":8089,"umuzu":8090,"ĠOysa":8091,"ĠBlog":8092,"Ġmaksimum":8093,"ĠÃ§ekmek":8094,"68":8095,"Ġran":8096,"uydu":8097,"ĠkurallarÄ±":8098,"ĠodaklÄ±":8099,"ĠVideo":8100,"ĠbaÅŁladÄ±ÄŁÄ±":8101,"Ġbekleyen":8102,"ĠgÃ¶sterg":8103,"ĠihtiyacÄ±nÄ±z":8104,"AÃ§Ä±k":8105,"ĠKontrol":8106,"2011":8107,"Ġasit":8108,"abildiÄŁ":8109,"ĠsÃ¼rpriz":8110,"Ġ**":8111,"ĠsalgÄ±n":8112,"ĠulaÅŁtÄ±":8113,"ĠÅŀim":8114,"itÃ¶r":8115,"Ġhakaret":8116,"ĠgÃ¼zellik":8117,"ĠKomisyonu":8118,"ĠkalabalÄ±k":8119,"Kullan":8120,"ĠKore":8121,"Ġbizimle":8122,"ĠSÄ±":8123,"GÃľN":8124,"Ġnakliyat":8125,"ebileceÄŁiniz":8126,"Ġmilletvekil":8127,"ĠtÃ¼ketic":8128,"Ġrengi":8129,"Ġdeneme":8130,"ĠUÄŁur":8131,"ĠtanÄ±k":8132,"name":8133,"Ġuzaktan":8134,"ĠdÃ¢h":8135,"Ġanlar":8136,"ĠKON":8137,"ĠÃ§apÄ±nda":8138,"ĠgÃ¶rÃ¼lÃ¼r":8139,"lamalarÄ±":8140,"Merhaba":8141,"ĠÃ¶ÄŁrenildi":8142,"Ġpiyasada":8143,"ĠcanlandÄ±r":8144,"Ġkapsamda":8145,"ĠÃ§aba":8146,"Ġetkileri":8147,"ĠayrÄ±ntÄ±lÄ±":8148,"ĠhÃ¢lÃ¢":8149,"viÃ§":8150,"ĠgÃ¶sterdiÄŁi":8151,"Ġhadis":8152,"iller":8153,"ĠanlaÅŁma":8154,"ĠfarkÄ±nda":8155,"ĠkarmaÅŁÄ±k":8156,"ĠYapÄ":8157,"ĠgÃ¼z":8158,"ĠYapÄ±":8159,"ĠadÄ±yla":8160,"ĠdeÄŁiÅŁikliÄŁi":8161,"Ġtutmak":8162,"Ġnakliye":8163,"Ġokumak":8164,"ĠAÄŁÄ±r":8165,"ĠyoÄŁ":8166,"larÄ±mÄ±":8167,"Ġsa":8168,"Ġonunla":8169,"Ġegzersiz":8170,"ĠZor":8171,"Ġbilmiyorum":8172,"Ġsorunsuz":8173,"Ġderi":8174,"ĠPerson":8175,"SÄ°":8176,"ĠdÃ¼ÅŁÃ¼nÃ¼r":8177,"ĠalanÄ±na":8178,"Ġailesi":8179,"ĠettiÄŁiniz":8180,"ĠHesap":8181,"lÄ±lar":8182,"Ġveril":8183,"ĠiÅŁyer":8184,"ĠkaldÄ±ÄŁÄ±":8185,"ĠunutmayÄ±n":8186,"Ġgalibiyet":8187,"Ġsertifik":8188,"Ġpost":8189,"Ġprofil":8190,"Ġmanevi":8191,"ĠMor":8192,"ĠYarÄ±ÅŁ":8193,"Ä±lama":8194,"Ġailen":8195,"lub":8196,"ĠMetin":8197,"ĠyaÄŁÄ±ÅŁ":8198,"Ġolsay":8199,"ĠkÄ±smÄ±nda":8200,"Ġkilometre":8201,"Bah":8202,"Pol":8203,"Ġyeterince":8204,"onomi":8205,"ĠgeliÅŁen":8206,"ĠgeliÅŁtirme":8207,"FA":8208,"ĠKum":8209,"ĠbulaÅŁ":8210,"Ã§in":8211,"INA":8212,"ĠiÅŁletmeler":8213,"DÄ±ÅŁ":8214,"Ġmakine":8215,"Ġbunlara":8216,"Has":8217,"raÃ§":8218,"kaya":8219,"ĠdÃ¶nemin":8220,"ĠOrtak":8221,"ĠyÄ±lÄ±na":8222,"Ä±lmak":8223,"PS":8224,"Ġkriter":8225,"ĠÅŁok":8226,"menize":8227,"Ġverg":8228,"ĠCor":8229,"ĠtarzÄ":8230,"ĠtarzÄ±":8231,"ĠHayvan":8232,"ĠarÅŁiv":8233,"ikal":8234,"ĠTemsil":8235,"ĠtuÅŁ":8236,"ĠGez":8237,"Ġlek":8238,"ĠolduÄŁunun":8239,"ĠgÃ¶stermek":8240,"ĠAnayasa":8241,"ĠSÄ±nÄ±f":8242,"Ġyerleri":8243,"ĠaÅŁaÄŁ":8244,"Ã§ek":8245,"ĠkatÄ±ldÄ±ÄŁÄ±":8246,"Ġtalebi":8247,"ĠBebek":8248,"Ġpor":8249,"Ġzehir":8250,"Ġtepk":8251,"ĠbaÄŁÄ±r":8252,"Ġkamyon":8253,"liÄŁiyle":8254,"Ġomuz":8255,"Ġkendisinin":8256,"Res":8257,"ux":8258,"endim":8259,"ĠÃ§Ä±kma":8260,"ĠKonseyi":8261,"ĠTim":8262,"ĠGÃ¼mÃ¼ÅŁ":8263,"ĠÃ¼lkelerde":8264,"ĠdanÄ±ÅŁman":8265,"Ġikin":8266,"ĠYalnÄ±z":8267,"http":8268,"Ġdeneyimi":8269,"ATO":8270,"ĠDergisi":8271,"Ġkendimi":8272,"ĠfarkÄ±n":8273,"Tel":8274,"ĠdeÄŁiÅŁen":8275,"Ġharcam":8276,"ĠÃ¶ÄŁrenme":8277,"Ä°nternet":8278,"Ġsaati":8279,"ĠÃ¶rneÄŁi":8280,"lemiÅŁ":8281,"Ġgetiriyor":8282,"ĠUÃ§":8283,"Devlet":8284,"ĠHanÄ±m":8285,"Ġinf":8286,"Ġtarihinden":8287,"ĠgeliÅŁtirmek":8288,"Ä°SÄ°":8289,"ĠVER":8290,"luÄŁa":8291,"cal":8292,"ĠaracÄ±n":8293,"ix":8294,"ĠkeÅŁfet":8295,"ĠrahatsÄ±zlÄ±k":8296,"ĠgÃ¼nleri":8297,"DeÄŁ":8298,"ĠbÄ±Ã§ak":8299,"ĠarkadaÅŁÄ":8300,"ĠarkadaÅŁÄ±":8301,"ĠUygulama":8302,"ladÄ±ÄŁÄ±mÄ±z":8303,"BA":8304,"Ġ75":8305,"EÄŁitim":8306,"ĠolmasÄ±dÄ±r":8307,"Ġteker":8308,"fÃ¶y":8309,"Ġdinamik":8310,"Ġset":8311,"ĠSavunma":8312,"CE":8313,"Ġgidecek":8314,"Ġvermesi":8315,"ĠsÃ¶n":8316,"Ġvel":8317,"ĠeÅŁliÄŁinde":8318,"Ġila":8319,"ano":8320,"ĠÃ¼lkeye":8321,"Ġwith":8322,"ĠzararlÄ±":8323,"ĠHey":8324,"medik":8325,"ĠYay":8326,"ĠmÃ¼h":8327,"abilme":8328,"ĠTaraf":8329,"engiz":8330,"Sur":8331,"ĠNit":8332,"Benim":8333,"Ġvarsay":8334,"Tak":8335,"laÅŁmasÄ±":8336,"ĠLondra":8337,"Yer":8338,"ĠbuluÅŁtur":8339,"portaj":8340,"Ġfen":8341,"ÃľÅŀ":8342,"ĠÃ¼stlen":8343,"ĠÃľcretsiz":8344,"ĠAzerbaycan":8345,"ĠÃ§abuk":8346,"burg":8347,"Ġgeriye":8348,"Ġyorgun":8349,"dirim":8350,"ĠdoÄŁan":8351,"Ġmakyaj":8352,"Ã§ileri":8353,"Ġnez":8354,"Ġboyutu":8355,"ĠTedav":8356,"ĠHe":8357,"ĠYou":8358,"ĠkalÄ±p":8359,"larÄ±mÄ±zla":8360,"alÄ±sÄ±nÄ±z":8361,"ĠBaÅŁka":8362,"ĠanlaÅŁÄ±l":8363,"ĠgÃ¼nah":8364,"uyorlar":8365,"Ġmusunuz":8366,"ĠyÃ¼kÃ¼mlÃ¼l":8367,"unus":8368,"ĠCevap":8369,"Ä±lÄ±ÅŁ":8370,"usundaki":8371,"ĠseÃ§in":8372,"ĠAdalet":8373,"ĠLisans":8374,"talyan":8375,"ĠkarÅŁÄ±lÄ±ÄŁÄ±nda":8376,"Ġahlak":8377,"Dem":8378,"Ġdua":8379,"ĠÃ¶zgÃ¼":8380,"aklar":8381,"Ġteknolojik":8382,"ĠaraÃ§lar":8383,"leyebilirsiniz":8384,"Ġ@":8385,"Ġ65":8386,"ĠkontrolÃ¼":8387,"Ġefsan":8388,"ĠKÃ¶yÃ¼":8389,"Osman":8390,"Ġesnek":8391,"Ġtesti":8392,"ĠÃ§eÅŁ":8393,"Ġistenen":8394,"Ġsitesinin":8395,"Ä±yorsunuz":8396,"ĠDEÄŀ":8397,"Ġolmakla":8398,"ĠbÃ¼yÃ¼t":8399,"Ġsahne":8400,"Ġcerrah":8401,"Ġpeyn":8402,"sÃ¼":8403,"Ġbekliyoruz":8404,"Ġgereklidir":8405,"haber":8406,"ĠMik":8407,"ĠUr":8408,"ĠBÃ¶yl":8409,"TT":8410,"ĠBilgisayar":8411,"imini":8412,"memek":8413,"ĠkÃ¶r":8414,"ularÄ±":8415,"Ġdevir":8416,"madÄ±m":8417,"Ä±mÄ±zdan":8418,"atÃ¼r":8419,"mac":8420,"Ġprotein":8421,"ĠkaÅŁÄ±ÄŁÄ±":8422,"lanmaktadÄ±r":8423,"ĠkaynaklarÄ±":8424,"ĠDoÄŁal":8425,"Ã¼nce":8426,"ĠaÅŁkÄ±n":8427,"GenÃ§":8428,"ĠfirmalarÄ±":8429,"ĠiÅŁleme":8430,"tÃ¼rÃ¼":8431,"Ġdolara":8432,"Ġtamir":8433,"Ġseri":8434,"Ġbahar":8435,"ĠMo":8436,"ky":8437,"iÅŁan":8438,"Ġsistemini":8439,"Ġ55":8440,"Ġannesi":8441,"Ġsinema":8442,"GS":8443,"fendi":8444,"Ġmit":8445,"ĠolmasÄ±nÄ±n":8446,"ĠMÃ¼ÅŁteri":8447,"ĠÄ±rk":8448,"ĠtamamÄ":8449,"ĠtamamÄ±":8450,"bit":8451,"Ġsakat":8452,"ĠgeleceÄŁi":8453,"Ġbirinc":8454,"ĠÃ§Ä±kÄ±p":8455,"Ġderken":8456,"ĠiÅŁletim":8457,"Ġasgari":8458,"Ġsistemin":8459,"ĠdeÄŁerleri":8460,"ĠYat":8461,"ĠtanÄ±y":8462,"ĠtoplantÄ±sÄ±nda":8463,"row":8464,"ĠdoÄŁur":8465,"ĠBana":8466,"Ġmilletvekili":8467,"ĠyazÄ±n":8468,"ĠKanunun":8469,"ĠdoÄŁa":8470,"Ùı":8471,"Ġnakit":8472,"ĠzamanlÄ±":8473,"ĠFestivali":8474,"Su":8475,"udu":8476,"ĠPC":8477,"Ġsiteye":8478,"Ġkafa":8479,"lÄ±yorum":8480,"Ġkral":8481,"ĠuyuÅŁturucu":8482,"amÄ±n":8483,"ĠÄ°nÅŁaat":8484,"ecekler":8485,"po":8486,"Ġduygusal":8487,"malara":8488,"ĠyakÄ±t":8489,"ildiÄŁinde":8490,"Ã°":8491,"dÄ±klarÄ±nÄ±":8492,"tÄ±klarÄ±nÄ±":8493,"Ġkalmak":8494,"gur":8495,"Ġikisi":8496,"tikleri":8497,"ĠSamsung":8498,"ĠSorum":8499,"ĠGÃ¶nder":8500,"Ġdernek":8501,"ĠÃ§el":8502,"lari":8503,"Ġsitede":8504,"ĠHavalimanÄ±":8505,"ĠgÃ¶rÃ¼ntÃ¼len":8506,"ĠFiyatlarÄ±":8507,"ĠÃ§Ä±karmak":8508,"ĠgeldiÄŁ":8509,"Ġinsana":8510,"ĠÅŁirketler":8511,"LEN":8512,"ĠhattÄ±":8513,"Ġdans":8514,"ĠTÃľ":8515,"Ġsistemine":8516,"Ġtebrik":8517,"ĠilÃ§esi":8518,"ILI":8519,"PG":8520,"Ġbroker":8521,"ĠyardÄ±mÄ±yla":8522,"Ġsenar":8523,"Ã¼lecek":8524,"ĠÃĸÄŁretim":8525,"Ġmahkeme":8526,"Ġbilgilerin":8527,"Ġskor":8528,"tive":8529,"Tur":8530,"Ġetkiler":8531,"ĠÃ¶ÄŁrencilere":8532,"CEL":8533,"ĠÄ±sÄ±t":8534,"ĠyÃ¶netmen":8535,"inizden":8536,"lÃ®":8537,"Ġgeldik":8538,"Ġayakta":8539,"ĠOrhan":8540,"69":8541,"Kim":8542,"ĠED":8543,"Ġdaima":8544,"ĠGEL":8545,"Ġvatan":8546,"Ġtay":8547,"madÄ±k":8548,"Ã§ilik":8549,"Ġmail":8550,"alÄ±lar":8551,"ĠdÃ¼zenlediÄŁi":8552,"Ġuygulamaya":8553,"ĠKadÄ±nlar":8554,"Ġseviyede":8555,"ĠAir":8556,"dÄ±ÄŁÄ±na":8557,"Ä°st":8558,"memiz":8559,"Ġverdim":8560,"ĠÄ°mparator":8561,"vin":8562,"ĠdÃ¢hil":8563,"Ä±nÄ±zdan":8564,"Ġkonuya":8565,"ĠÃ§Ä±kardÄ±":8566,"Ġvefat":8567,"ĠortasÄ±nda":8568,"ĠsÃ¼n":8569,"ĠyaÅŁamÄ±nÄ±":8570,"Ġorijinal":8571,"ĠsÄ±klÄ±kla":8572,"ĠvasÄ±t":8573,"alarÄ±yla":8574,"Ä±mdan":8575,"ĠGÄ±da":8576,"Ä°NÄ°":8577,"Ġbiliyorum":8578,"ĠYIL":8579,"lic":8580,"Ã¶nÃ¼l":8581,"amanÄ±z":8582,"Ä°ki":8583,"Ġoyuncular":8584,"tiÄŁim":8585,"ENÄ°":8586,"ĠinÅŁallah":8587,"io":8588,"ĠForm":8589,"Ġsaatte":8590,"Ġbilgilerini":8591,"2010":8592,"Ġkampanya":8593,"ĠHatay":8594,"Ġdirekt":8595,"unc":8596,"Ã¼ÄŁÃ¼n":8597,"Bursa":8598,"Ġmoda":8599,"ĠÅŀanlÄ±urfa":8600,"ĠMir":8601,"ĠSim":8602,"ĠsÃ¶ylemiÅŁ":8603,"ĠFarklÄ±":8604,"ĠinanÄ±lmaz":8605,"eyt":8606,"ĠHayÄ±r":8607,"ĠNot":8608,"ĠsatÄ±r":8609,"Ġlog":8610,"GB":8611,"ĠÅŁehri":8612,"IP":8613,"Ġtev":8614,"artman":8615,"ĠÃ¶rneÄŁin":8616,"Ġsahipleri":8617,"Ġyoksul":8618,"ĠprogramlarÄ±":8619,"ĠayrÄ±m":8620,"ĠMÃ¼zesi":8621,"GÃ¼ncelleme":8622,"ÃĩalÄ±ÅŁ":8623,"lÄ±ktan":8624,"ucusu":8625,"Ġbulut":8626,"Eski":8627,"Ġirti":8628,"ĠyansÄ±":8629,"ĠaÅŁamasÄ±nda":8630,"ĠÃĸN":8631,"ĠaÃ§ma":8632,"ĠhaftalÄ±k":8633,"ĠIÅŁÄ±k":8634,"yaÅŁ":8635,"Ġslog":8636,"Ġevr":8637,"ĠgÃ¼cÃ¼nÃ¼":8638,"ĠPa":8639,"ĠLev":8640,"uper":8641,"Ġevrak":8642,"ÅŁek":8643,"ames":8644,"ĠMis":8645,"izmin":8646,"ĠEmin":8647,"ĠDA":8648,"ĠeÄŁilim":8649,"Ġkoordin":8650,"ĠÃ¶nlemek":8651,"ERS":8652,"Ġyumurta":8653,"edeniyet":8654,"akistan":8655,"Ġkoleksiyon":8656,"ĠMuÄŁ":8657,"ĠbaÅŁlamak":8658,"anÄ±p":8659,"AÃĩ":8660,"Ġvurgulayan":8661,"ĠyargÄ±lan":8662,"ĠhayatÄ±na":8663,"ĠÄ±srar":8664,"ĠTiyatro":8665,"Ġ..":8666,"ĠAil":8667,"ĠTip":8668,"GK":8669,"Facebook":8670,"Ġkuy":8671,"ĠdirenÃ§":8672,"ĠhÄ±zlandÄ±r":8673,"ĠSON":8674,"Ġseviyesi":8675,"Ġcevab":8676,"ĠyardÄ±mÄ":8677,"ĠyardÄ±mÄ±":8678,"Ã¼rt":8679,"Ġdenilen":8680,"ĠalmayÄ±":8681,"ĠÃ¼lkemiz":8682,"yn":8683,"ĠrÃ¼y":8684,"ĠlÃ¼ks":8685,"Ġkrem":8686,"ocuÄŁ":8687,"ĠyatÄ±rÄ±mcÄ±lar":8688,"Ġakses":8689,"Ġistatistik":8690,"ĠÃ¶zet":8691,"ĠmesajÄ":8692,"ĠmesajÄ±":8693,"ĠManisa":8694,"amÄ±zÄ±":8695,"ĠgÄ±d":8696,"Ð¾":8697,"Ġdiliyorum":8698,"Ġsiyasal":8699,"Ġolurken":8700,"Ã¼lÃ¼yor":8701,"ĠsÃ¼rÃ¼":8702,"ĠKiÅŁisel":8703,"lÃ¼ÄŁÃ¼nÃ¼":8704,"Ġbedava":8705,"esun":8706,"kas":8707,"ĠfazlasÄ±":8708,"ĠGeliÅŁtir":8709,"Ġliste":8710,"ĠGÃ¼nlÃ¼k":8711,"Ġhid":8712,"',":8713,"ĠÃ§izgi":8714,"oter":8715,"ĠBaÅŁar":8716,"NA":8717,"ĠPaylaÅŁ":8718,"ĠpayÄ±":8719,"ĠbirÅŁey":8720,"Ġbuton":8721,"DV":8722,"ĠRob":8723,"ĠAbdÃ¼l":8724,"Ġceph":8725,"Ġkendileri":8726,"Ġolmuyor":8727,"Google":8728,"ex":8729,"ĠÃ§Ã¶zÃ¼mler":8730,"Ġanalizi":8731,"BazÄ±":8732,"ĠgÃ¶rÃ¼nce":8733,"Ġstok":8734,"Ġolurdu":8735,"mu":8736,"ĠkayÄ±tlÄ±":8737,"Ġmarket":8738,"Ġbizzat":8739,"yurt":8740,"Ġdi":8741,"ĠÃ§ekin":8742,"ĠMicrosoft":8743,"ĠaltyapÄ":8744,"ĠaltyapÄ±":8745,"Ġtarihine":8746,"SY":8747,"Rusya":8748,"Ġimzal":8749,"aklarÄ±":8750,"ĠÄ°spanya":8751,"Ġkonul":8752,"Ġhareketli":8753,"Ġistedim":8754,"cell":8755,"Ġetmey":8756,"Ġabon":8757,"Ġgetirilen":8758,"Ġyolunu":8759,"melisiniz":8760,"ĠMaÄŁ":8761,"Ġsof":8762,"mamÄ±ÅŁtÄ±r":8763,"ilya":8764,"luÄŁunu":8765,"tÄ±ÄŁÄ±nda":8766,"ĠÃ§erez":8767,"Ġsitesine":8768,"otosiklet":8769,"Ġmateryal":8770,"Ġevin":8771,"ĠTrans":8772,"Ã¶rd":8773,"amadÄ±ÄŁÄ±":8774,"Ġpoker":8775,"ĠeÅŁlik":8776,"ps":8777,"Ġfaaliyetleri":8778,"Der":8779,"Ġorganize":8780,"ĠparayÄ±":8781,"Ġakademik":8782,"ĠkÄ±saca":8783,"Ġstres":8784,"Af":8785,"ĠEmir":8786,"tÄ±ÄŁÄ±m":8787,"Ġsinem":8788,"ĠÃ§Ã¶p":8789,"Ġbuyur":8790,"azin":8791,"SAN":8792,"67":8793,"ĠcoÅŁ":8794,"ĠValisi":8795,"esince":8796,"ĠkarÅŁÄ±lÄ±klÄ±":8797,"ĠiÅŁlemlerini":8798,"ĠyÃ¼kseldi":8799,"Ã¢b":8800,"Ġmerkezine":8801,"cin":8802,"Ġbizler":8803,"ĠDigiturk":8804,"Ġpen":8805,"layabilirsiniz":8806,"Ġdiplom":8807,"faf":8808,"Ġoynanan":8809,"Ä±rsÄ±nÄ±z":8810,"ĠverilmiÅŁtir":8811,"Ġiman":8812,"je":8813,"Ġlimit":8814,"hay":8815,"ĠhÃ¼km":8816,"ĠdÄ±ÅŁÄ±ndaki":8817,"ĠgeÃ§mek":8818,"desi":8819,"Ġcom":8820,"ĠsÃ¶yler":8821,"ĠgÃ¼lÃ¼m":8822,"ĠAkadem":8823,"Ġtef":8824,"maraÅŁ":8825,"Ã¼ket":8826,"Ot":8827,"BÃ¶l":8828,"ĠÃ§an":8829,"duÄŁunda":8830,"Ġmask":8831,"TK":8832,"Ġdelik":8833,"ĠProje":8834,"Ġbulur":8835,"ĠyaralandÄ±":8836,"ĠtakÄ±mÄ±n":8837,"ĠÅŁeyden":8838,"ĠsÃ¼rdÃ¼rÃ¼lebilir":8839,"ula":8840,"Ġ120":8841,"Ġekstra":8842,"Ġgetirir":8843,"nÃ¼":8844,"ĠyapÄ±landÄ±r":8845,"ĠEnstitÃ¼sÃ¼":8846,"ĠVen":8847,"ĠbeÄŁ":8848,"Ġfuar":8849,"ĠaÄŁÄ±rlÄ±k":8850,"Ġolursunuz":8851,"ebze":8852,"ĠDolar":8853,"Ġsekiz":8854,"Ġistifa":8855,"iyorsunuz":8856,"ĠKorum":8857,"ĠGeliÅŁ":8858,"ĠanlamÄ±nda":8859,"Ġdeplasman":8860,"ĠMÃ¼zik":8861,"RET":8862,"Ġbedeli":8863,"Ġmim":8864,"Ġkonferans":8865,"olojisi":8866,"ĠgÃ¶ze":8867,"anma":8868,"App":8869,"ĠÃ§ocuklara":8870,"ĠElazÄ±ÄŁ":8871,"ĠYayÄ±nlarÄ±":8872,"iner":8873,"ĠHis":8874,"Ġkalacak":8875,"Ãĸzellikle":8876,"amÄ±yorum":8877,"Ġrom":8878,"ĠgerÃ§ekleÅŁti":8879,"Ġolmazsa":8880,"ilmiÅŁti":8881,"ĠsahipliÄŁi":8882,"ĠgÃ¼nÃ¼nde":8883,"Ġisterim":8884,"ĠgÃ¶rÃ¼ÅŁme":8885,"ĠEdebiyat":8886,"ĠyapÄ±lmÄ±ÅŁtÄ±r":8887,"ĠvarlÄ±ÄŁÄ±":8888,"Ġmuhtemelen":8889,"ower":8890,"Ġedecektir":8891,"ĠÅŀehit":8892,"ĠAjansÄ±":8893,"ĠpahalÄ±":8894,"âĢĿ,":8895,"ĠdÃ¼nyayÄ±":8896,"ALAR":8897,"ĠBo":8898,"Ġtaksit":8899,"Ġdemokrasi":8900,"resyon":8901,"Ġtey":8902,"ĠHastalÄ±k":8903,"luÄŁun":8904,"Ġevi":8905,"ĠToplam":8906,"ĠkalÄ±yor":8907,"ĠÃ¶v":8908,"ĠDal":8909,"ĠÃĸrnek":8910,"ĠiliÅŁkileri":8911,"vil":8912,"Ġevine":8913,"iÄŁeri":8914,"ĠâĢº":8915,"ĠGalaxy":8916,"Ġdiyorum":8917,"Ġ2005":8918,"mamalÄ±dÄ±r":8919,"Ġkurumlar":8920,"ĠsÄ±nÄ±rlarÄ±":8921,"ÃĸL":8922,"Ġelinden":8923,"ĠÃ¶tÃ¼rÃ¼":8924,"ĠErmen":8925,"laÅŁtÄ±rma":8926,"ĠistediÄŁini":8927,"ĠyaptÄ±ÄŁÄ±nÄ±z":8928,"Ġbitcoin":8929,"dil":8930,"Ġoraya":8931,"ĠgÃ¶rÃ¼lÃ¼yor":8932,"ĠServisi":8933,"ĠkarÄ±n":8934,"ĠÄ°r":8935,"ĠbÃ¶lgesi":8936,"ĠEÄŁitimi":8937,"Mil":8938,"Ã¼min":8939,"ĠdolandÄ±r":8940,"mad":8941,"ĠiÅŁlen":8942,"Ġyerlere":8943,"Ġvaka":8944,"Ġizl":8945,"onsor":8946,"Ġbunlardan":8947,"ĠyorumlarÄ±":8948,"udum":8949,"ĠHac":8950,"ĠBol":8951,"ĠDevleti":8952,"Ġlit":8953,"ĠAlev":8954,"amini":8955,"ÙĨ":8956,"iyeli":8957,"Ġkrizi":8958,"ĠBeÅŁ":8959,"Ġhizmete":8960,"Ġzamanla":8961,"MET":8962,"Ġminimum":8963,"Ġodaklan":8964,"ĠBahÃ§eli":8965,"ongul":8966,"ational":8967,"ĠsorularÄ±":8968,"ĠaldÄ±ÄŁÄ±nÄ±":8969,"lÄ±ÄŁÄ±ndan":8970,"ĠÅŁÃ¼pheli":8971,"ĠdeÄŁiÅŁiklikler":8972,"Kor":8973,"ĠGB":8974,"ĠÄ°p":8975,"!..":8976,"ĠÃ¼lkemizin":8977,"ĠdÃ¼ÅŁÃ¼ndÃ¼ÄŁ":8978,"set":8979,"Ġnoktaya":8980,"Ġbanyo":8981,"ĠkarÅŁÄ±sÄ±na":8982,"ĠYÃ¼ksel":8983,"Ġziyade":8984,"Ġmilyonlarca":8985,"gut":8986,"atÃ¶rÃ¼":8987,"Ġparalel":8988,"Ġyuvar":8989,"ĠtarafÄ":8990,"ĠtarafÄ±":8991,"ĠgÃ¶revini":8992,"orld":8993,"Ġsir":8994,"ĠbÃ¶lÃ¼mde":8995,"ĠÃ§alÄ±ÅŁtÄ±ÄŁÄ±":8996,"Ä±sÄ±n":8997,"onguldak":8998,"mÃ¼yor":8999,"ĠDel":9000,"ĠsatÄ±ÅŁÄ±":9001,"stil":9002,"Mal":9003,"ĠarÄ±z":9004,"ĠKomutan":9005,"Ġkullanmaya":9006,"aÅŁkÄ±n":9007,"Ġtaahh":9008,"ĠkorunmasÄ±":9009,"icdan":9010,"ĠdediÄŁi":9011,"ĠTC":9012,"ĠÅŁansÄ±":9013,"ĠcevabÄ±":9014,"Ġhastaneye":9015,"ĠyÃ¼zÃ¼":9016,"ĠkonularÄ±":9017,"tihar":9018,"Ã§Ä±lar":9019,"ĠtoplantÄ±sÄ±":9020,"ELÄ°":9021,"ĠJaponya":9022,"Ġsenedi":9023,"ĠbaÅŁlÄ±k":9024,"ĠsilahlÄ±":9025,"press":9026,"ĠGeÃ§en":9027,"95":9028,"ĠahÅŁap":9029,"ĠRoman":9030,"ebilirler":9031,"Ġmerkezli":9032,"ĠolacaÄŁÄ±z":9033,"Ġkurulum":9034,"ĠoluÅŁturur":9035,"ĠsaÄŁladÄ±ÄŁÄ±":9036,"Ġsub":9037,"pÄ±nar":9038,"Ġsendik":9039,"ĠÅŁair":9040,"ĠDÃ¼nyanÄ±n":9041,"aiz":9042,"ĠÅŁik":9043,"ĠtÃ¼rleri":9044,"ĠMalz":9045,"OD":9046,"rand":9047,"Ġevvel":9048,"ĠyararlÄ±":9049,"Ġturnuv":9050,"Ġtopluluk":9051,"ĠTAR":9052,"Ġsahte":9053,"ĠGÃ¶l":9054,"ota":9055,"ĠtaÅŁÄ±yor":9056,"sÃ¶r":9057,"ĠhikÃ¢y":9058,"ĠarttÄ±":9059,"Ġzorlu":9060,"Ġsesli":9061,"Ġistasyon":9062,"ĠÅŁirketlerin":9063,"ĠJandarma":9064,"Ġsunucu":9065,"Sel":9066,"Ġradyo":9067,"kap":9068,"ĠUygulam":9069,"Ġduruyor":9070,"Ġdepolama":9071,"ĠMi":9072,"Ġdizisi":9073,"ĠKanal":9074,"Ġmaliyeti":9075,"Ġtopar":9076,"Bar":9077,"ilirken":9078,"ĠitibarÄ±yla":9079,"ĠakÄ±m":9080,"Ġadresimi":9081,"tadoÄŁu":9082,"ĠoluÅŁturulan":9083,"Ġtaze":9084,"Ã§asÄ±":9085,"adÄ±ÄŁÄ±m":9086,"ĠeÅŁsiz":9087,"ekom":9088,"ĠyazarÄ±":9089,"Ġsend":9090,"Ġkalma":9091,"maktÄ±r":9092,"Ġsul":9093,"LEM":9094,"ĠÃ§Ä±karak":9095,"Ġmaden":9096,"Ġbelirgin":9097,"Ġmalzemeleri":9098,"ree":9099,"cÄ±ya":9100,"ĠOR":9101,"ĠsÄ±caklÄ±k":9102,"amÄ±za":9103,"Ġhorm":9104,"ĠDef":9105,"mat":9106,"ĠetrafÄ±nda":9107,"Ġbudur":9108,"ĠbaÅŁÄ±ndan":9109,"DIR":9110,"ĠVatandaÅŁ":9111,"Ġraporu":9112,"Ġoturum":9113,"ĠsanÄ±k":9114,"losuz":9115,"ÃľrÃ¼n":9116,"Ġkiralama":9117,"Antalya":9118,"Ä±ndÄ±k":9119,"amaktadÄ±r":9120,"ĠtavÄ±r":9121,"ĠyaÅŁama":9122,"Ġtutun":9123,"Ġtohum":9124,"ĠAÅŁk":9125,"GerÃ§":9126,"ĠÃ¶nemlisi":9127,"ÅŁak":9128,"FT":9129,"Ġ47":9130,"berg":9131,"Ġstratejik":9132,"ĠbasÄ±l":9133,"Ġlaf":9134,"Ġkoruyucu":9135,"ĠgeÃ§irmek":9136,"outube":9137,"ĠCol":9138,"Ġdurumlar":9139,"Ġverdik":9140,"ĠYerel":9141,"ĠÃ¼yeler":9142,"gresi":9143,"Ġsizleri":9144,"ĠMuÄŁla":9145,"ĠTesis":9146,"ĠDikkat":9147,"ĠgÃ¶revlendir":9148,"Ġberaberinde":9149,"ĠortamÄ":9150,"ĠortamÄ±":9151,"ĠyÃ¼rÃ¼tÃ¼len":9152,"lament":9153,"ĠSite":9154,"eveyn":9155,"BB":9156,"ĠTep":9157,"ĠolaÄŁanÃ¼stÃ¼":9158,"mediÄŁini":9159,"Ġederler":9160,"Ġkaydeden":9161,"ĠDiÅŁ":9162,"Ġneticesinde":9163,"Ġsisteme":9164,"Ġdondur":9165,"ĠalanlarÄ±nda":9166,"ĠYavuz":9167,"BUL":9168,"Ġbizden":9169,"ĠdetaylarÄ±":9170,"ĠihraÃ§":9171,"denin":9172,"Ġoynayan":9173,"ĠÃľret":9174,"edin":9175,"Ġeline":9176,"Ġetkileyen":9177,"Ġstan":9178,"ĠAÃĩ":9179,"ĠMesaj":9180,"ĠUSD":9181,"Ġeleman":9182,"ĠÄ°ht":9183,"ĠÃ§Ã¶zÃ¼mÃ¼":9184,"Ãĩin":9185,"ĠgÃ¶nÃ¼llÃ¼":9186,"Ġyapay":9187,"ĠMeslek":9188,"Ġ58":9189,"ĠGÃĸR":9190,"Ãĩev":9191,"ĠyapmaktadÄ±r":9192,"Ġetiket":9193,"ĠkÃ¶ken":9194,"ndaki":9195,"ĠSez":9196,"ĠadamÄ±n":9197,"ĠÃĩiÃ§ek":9198,"Burada":9199,"ĠyaÅŁandÄ±":9200,"Ġdostu":9201,"ĠYakÄ±n":9202,"Ġbilmek":9203,"ĠRabb":9204,"Ġhareketi":9205,"ĠMesela":9206,"ĠkullanÄ±n":9207,"ĠÄ°lgili":9208,"ĠÃ¼zeri":9209,"ĠdÃ¼zenlendi":9210,"ĠÃ¶rgÃ¼tÃ¼n":9211,"Et":9212,"ĠyerleÅŁim":9213,"2009":9214,"ĠÃĸztÃ¼rk":9215,"Ġborsa":9216,"Ġbildirildi":9217,"ĠÃ§ant":9218,"Ġ600":9219,"ĠMarmara":9220,"ĠKonuÅŁ":9221,"yim":9222,"Ġvadede":9223,"ĠyakÄ±ÅŁ":9224,"ĠÃ¶lÃ§Ã¼m":9225,"ĠdayanÄ±klÄ±":9226,"ĠKa":9227,"ĠÄ°lan":9228,"umuza":9229,"ĠdaÄŁÄ±tÄ±m":9230,"ilecektir":9231,"Ġtl":9232,"iver":9233,"Ġhakem":9234,"mÄ±yorum":9235,"ubu":9236,"Ã¶rdÃ¼ncÃ¼":9237,"lÄ±lÄ±ÄŁ":9238,"ĠkullanÄ±r":9239,"ĠbaÅŁlamÄ±ÅŁtÄ±r":9240,"elif":9241,"ÃĸK":9242,"Ġbakar":9243,"ĠeÄŁlence":9244,"Ġsad":9245,"GÃ¶z":9246,"win":9247,"ĠTEK":9248,"ebelik":9249,"ĠÃ§alÄ±ÅŁtÄ±":9250,"ĠPl":9251,"cuk":9252,"ĠhalÄ±":9253,"ĠUygun":9254,"IC":9255,"ĠÃĩetin":9256,"ĠGeri":9257,"isti":9258,"tÃ¼k":9259,"Ġboya":9260,"ĠyemeÄŁi":9261,"Ġuzay":9262,"Ġgirmek":9263,"ĠNih":9264,"Ġicin":9265,"Ã¼nÃ¼r":9266,"Ġsahil":9267,"ebileceÄŁini":9268,"Ġkombin":9269,"Ġzamana":9270,"Ġverin":9271,"ĠMek":9272,"Ġnereye":9273,"tiÄŁinde":9274,"Ġmol":9275,"Ġvize":9276,"ĠPolitikasÄ±":9277,"xt":9278,"ometr":9279,"gazi":9280,"ĠsayÄ±sÄ±nÄ±":9281,"ĠyazdÄ±":9282,"Ġcennet":9283,"Ġsizden":9284,"ĠalÄ±nmÄ±ÅŁ":9285,"olik":9286,"Web":9287,"ĠDis":9288,"cid":9289,"ĠgÃ¶revli":9290,"ĠyazdÄ±ÄŁÄ±":9291,"ura":9292,"ĠHollanda":9293,"Ol":9294,"ĠNaz":9295,"ĠvurguladÄ±":9296,"ĠyapacaÄŁÄ±z":9297,"gÃ¶z":9298,"layÄ±nÄ±z":9299,"ĠgÃ¼ndÃ¼z":9300,"Ġzul":9301,"ĠgÃ¶zler":9302,"operatif":9303,"liÄŁinden":9304,"ĠiÅŁini":9305,"malÄ±yÄ±z":9306,"ĠÃĸnemli":9307,"Ġakla":9308,"ĠÃ§Ä±kmak":9309,"Ġverilmektedir":9310,"ĠHiÃ§bir":9311,"abrika":9312,"Ġmontaj":9313,"Ã¢z":9314,"Ä°NDE":9315,"kenti":9316,"Kas":9317,"ĠÃ¶ldÃ¼":9318,"ĠhalkÄ±nÄ±n":9319,"Ġyou":9320,"ĠÃĸde":9321,"Trabz":9322,"Ġittifak":9323,"ĠHalil":9324,"ung":9325,"Ġestetik":9326,"ĠHaklarÄ±":9327,"ĠMotor":9328,"ĠbakÄ±mÄ±":9329,"64":9330,"Ġyuv":9331,"ĠKÃ¶r":9332,"ĠgerÃ§ekleÅŁtirildi":9333,"Ġkadros":9334,"enf":9335,"Ġkayd":9336,"ĠBasÄ±n":9337,"Tab":9338,"Ä±yaman":9339,"Ġraf":9340,"ĠSam":9341,"ĠkÃ¼l":9342,"YÄ°":9343,"...\"\"":9344,"ÂĴ":9345,"vat":9346,"KiÅŁ":9347,"ĠgÃ¼ncellem":9348,"ĠNum":9349,"Ä±rt":9350,"ĠeÅŁyalar":9351,"ĠSak":9352,"ĠyetiÅŁkin":9353,"Ġuzan":9354,"Ġbeklet":9355,"ĠadÄ±mlar":9356,"Ġsuyun":9357,"Ġatmos":9358,"ĠSaf":9359,"Ġkonuyla":9360,"ĠiÅŁten":9361,"ĠneÅŁ":9362,"asÄ±dÄ±r":9363,"ĠDan":9364,"Ġetmem":9365,"ĠkarÅŁÄ±lÄ±ÄŁÄ±":9366,"ĠarayÄ±ÅŁ":9367,"Ġdert":9368,"Ġteklifi":9369,"Net":9370,"ĠHaft":9371,"ĠzamandÄ±r":9372,"ĠartmasÄ±":9373,"Ġstratejisi":9374,"SB":9375,"Ġyoluna":9376,"ĠsektÃ¶rde":9377,"ĠMÃľ":9378,"mik":9379,"Ġihmal":9380,"Ġdemo":9381,"Ġocak":9382,"ĠettiÄŁimiz":9383,"feri":9384,"ĠsÃ¶mÃ¼r":9385,"Ġsizlerle":9386,"Kah":9387,"ĠsÃ¶zler":9388,"Ġnazar":9389,"con":9390,"ĠHerkes":9391,"AynÄ±":9392,"ĠPap":9393,"Ġch":9394,"Ġhayli":9395,"FF":9396,"ĠtÄ±bbi":9397,"brek":9398,"ĠAra":9399,"ĠuyandÄ±r":9400,"ĠduyduÄŁu":9401,"Ġilerleyen":9402,"eysel":9403,"Ġprojenin":9404,"Ġkel":9405,"Ġreferans":9406,"TAN":9407,"Ġmemnuniyet":9408,"ĠgeÃ§erek":9409,"Ġisimler":9410,"Ġnereden":9411,"ĠOnu":9412,"ĠÅŁimdiden":9413,")\"":9414,"88":9415,"Ġveriyoruz":9416,"itasyon":9417,"ĠðŁĻ":9418,"Ġmesafe":9419,"Ġoradan":9420,"Ġduyul":9421,"ĠhayatÄ±nda":9422,"ĠbaÅŁÄ±nÄ±":9423,"ĠkÃ¼f":9424,"Ġseviyesine":9425,"ĠadÄ±mÄ±":9426,"ĠbÄ±rakÄ±n":9427,"Ġkendinize":9428,"ĠTamam":9429,"Ġelektrikli":9430,"Ġlam":9431,"Ġkavg":9432,"ĠyÄ±ldan":9433,"ĠbaÅŁladÄ±m":9434,"masyon":9435,"Ġplanda":9436,"Ġchat":9437,"Ġgibidir":9438,"ĠortamÄ±nda":9439,"ĠaÅŁamada":9440,"Ġfikr":9441,"ĠsÄ±ÄŁ":9442,"Ä±lmaya":9443,"ĠkahvaltÄ±":9444,"unum":9445,"ĠtartÄ±ÅŁma":9446,"ehr":9447,"ĠIÅŀ":9448,"ijyen":9449,"Ġteminat":9450,"____":9451,"ĠodalarÄ±":9452,"ĠKoc":9453,"ĠZiyaret":9454,"ita":9455,"ĠEdirne":9456,"UY":9457,"Ġotop":9458,"ĠfirmanÄ±n":9459,"ĠSaray":9460,"Mark":9461,"Ġuyk":9462,"Ġdaire":9463,"Ġikna":9464,"ens":9465,"ĠVad":9466,"Ġkoz":9467,"lamada":9468,"del":9469,"Ġgelebilir":9470,"Ã¢nÄ±":9471,"azz":9472,"ling":9473,"Ġlay":9474,"lusu":9475,"Ġverilerin":9476,"Ä£":9477,"ĠÃ§ak":9478,"Ġdemokras":9479,"ĠDÃ¶nÃ¼ÅŁ":9480,"Ġteknolojisi":9481,"Ġmatematik":9482,"ĠMadde":9483,"Ġyerinden":9484,"ĠbÃ¶lgenin":9485,"Ġbizleri":9486,"ĠinÃ§":9487,"pro":9488,"Ġeyalet":9489,"ĠÃ§eÅŁitleri":9490,"ĠgerÃ§eÄŁi":9491,"Ali":9492,"Ġyur":9493,"MAK":9494,"Ä°yi":9495,"ĠolaylarÄ±":9496,"Ä±lÄ±rken":9497,"Ġdisiplin":9498,"Ġard":9499,"ĠList":9500,"irmi":9501,"ĠUzmanÄ±":9502,"ĠCovid":9503,"ĠmÃ¼j":9504,"ĠyayÄ±nlandÄ±":9505,"onlar":9506,"Ġprotesto":9507,"Ã¼sÃ¼nÃ¼":9508,"acaklar":9509,"ĠsokaÄŁa":9510,"ies":9511,"inizle":9512,"ĠgÃ¶v":9513,"kale":9514,"Ġizleme":9515,"takÄ±m":9516,"ĠseÃ§ilen":9517,"Ch":9518,"Ä±ÅŁlÄ±":9519,"Ġpolitika":9520,"mon":9521,"iÃ§in":9522,"Ġlen":9523,"ĠÅŁiddetli":9524,"Ġtalimat":9525,"Milli":9526,"ĠanlatÄ±yor":9527,"aport":9528,"istler":9529,"ĠSizin":9530,"peryal":9531,"ĠKerim":9532,"Ġderg":9533,"ĠÃĤ":9534,"akende":9535,"lini":9536,"tah":9537,"yaz":9538,"Ġima":9539,"ĠÃ§oÄŁunlukla":9540,"ĠanlayÄ±ÅŁÄ±":9541,"ĠKem":9542,"ĠDok":9543,"lilerin":9544,"ĠPAR":9545,"imet":9546,"hiÅŁ":9547,"Ġonlarca":9548,"Ġhaberine":9549,"ĠSilah":9550,"Ġelbis":9551,"Ġnefret":9552,"Ä±ÄŁÄ±nÄ±n":9553,"ĠanlÄ±k":9554,"ĠSÄ±k":9555,"Ġsevgili":9556,"ĠbaÅŁtan":9557,"irdaÄŁ":9558,"cuz":9559,"Ġgirer":9560,"ĠmÃ¼st":9561,"ĠArslan":9562,"Ġmaz":9563,"ĠBoÄŁaz":9564,"Ġgemi":9565,"Ġreng":9566,"work":9567,"Ġizlemek":9568,"Ġizni":9569,"Ġendeks":9570,"ĠsektÃ¶rÃ¼nÃ¼n":9571,"Ġmecbur":9572,"Ä±lÄ±ÄŁÄ±nÄ±":9573,"ĠtamamladÄ±":9574,"ĠgÃ¼mÃ¼ÅŁ":9575,"Ġgelecekte":9576,"Ġyang":9577,"ĠPen":9578,"ĠgÃ¶rme":9579,"Ġediyorlar":9580,"ĠKategor":9581,"ĠuyarÄ±nca":9582,"ĠZiraat":9583,"ĠStratej":9584,"ĠToplant":9585,"Ġleh":9586,"ĠBes":9587,"ĠbastÄ±r":9588,"ĠFen":9589,"ĠDijital":9590,"ĠiÃ§erisine":9591,"ĠsÄ±ral":9592,"enter":9593,"))":9594,"ĠPay":9595,"ĠarkadaÅŁlÄ±k":9596,"Ġelini":9597,",âĢĿ":9598,"Ġgiyim":9599,"Ġgergin":9600,"Ġlezzetli":9601,"ĠnÃ¶bet":9602,"ĠoluÅŁturduÄŁu":9603,"ĠÃ§evresinde":9604,"ebir":9605,"Ġkutsal":9606,"ĠAS":9607,"Ġvermeden":9608,"Ġbununla":9609,"Ġvitamin":9610,"Ġduran":9611,"icisi":9612,"Ġperiy":9613,"Ãª":9614,"ĠUÃ§ak":9615,"sedÃ¼r":9616,"ÃľY":9617,"ĠDaÄŁÄ±":9618,"ear":9619,"Ġrandev":9620,"Ġprojeleri":9621,"ĠVAR":9622,"ĠgÃ¶reve":9623,"ĠUlu":9624,"ĠDavut":9625,"Ġkonse":9626,"YÃ¼ksek":9627,"ĠfirmalarÄ±n":9628,"ĠÄ°nan":9629,"ĠsÃ¶zlerine":9630,"Ġcemaat":9631,"ĠkomÅŁu":9632,"amil":9633,"uvalet":9634,"ĠKalkÄ±n":9635,"ĠbakÄ±ldÄ±ÄŁÄ±nda":9636,"ĠBunlardan":9637,"Ġkatli":9638,"ĠÃĩam":9639,"iriz":9640,"ĠkaldÄ±raÃ§":9641,"ĠbaÅŁa":9642,"ĠSn":9643,"ĠarÄ±yor":9644,"ĠÃ¶len":9645,"ĠbaÅŁladÄ±ÄŁ":9646,"ĠyÃ¼klen":9647,"ĠHÄ±zlÄ±":9648,"Ä±lmÄ±ÅŁtÄ±":9649,"Ġstrateji":9650,"ĠgÃ¶rÃ¼nen":9651,"ĠgÃ¶rebilirsiniz":9652,"Ġismini":9653,"Ġ49":9654,"iÅŁe":9655,"Ġfestival":9656,"Ġeseri":9657,"ĠyansÄ±m":9658,"ĠOkulu":9659,"ralya":9660,"ĠhaksÄ±z":9661,"ĠÅŀikayet":9662,"ĠGr":9663,"ĠmÃ¼sa":9664,"Ġpilot":9665,"Ġdetaylar":9666,"ĠMÃ¼cadele":9667,"Ġhurda":9668,"ĠgÃ¶stergesi":9669,"ĠÃĸte":9670,"Ġtopu":9671,"UB":9672,"Ġhepsini":9673,"ĠpaylaÅŁmak":9674,"ĠÃĸncelikle":9675,"Ã§Ã¼":9676,"ĠyurtdÄ±ÅŁ":9677,"ĠBalÄ±kesir":9678,"anÄ±tla":9679,"metik":9680,"Ġme":9681,"Ġharic":9682,"ĠdÃ¼nyasÄ±nda":9683,"Ġilgilendir":9684,"ĠhÄ±zÄ±":9685,"Ġlastik":9686,"SÃ¼r":9687,"ĠyÃ¼kselen":9688,"Sal":9689,"yeri":9690,"ÄŁrÄ":9691,"ÄŁrÄ±":9692,"Mah":9693,"Ġkararlar":9694,"Ġniye":9695,"Ġhangisi":9696,"ald":9697,"lip":9698,"odu":9699,"Ġhang":9700,"ĠÃ§atÄ±":9701,"ĠPost":9702,"ĠkurulmuÅŁ":9703,"Ġdilim":9704,"ĠartÄ±yor":9705,"ĠyayÄ±mlanan":9706,"2008":9707,"Ġsomut":9708,"ĠbugÃ¼nkÃ¼":9709,"Ġhedefi":9710,"AYA":9711,"ĠEfendi":9712,"Ġtazminat":9713,"Ġbiber":9714,"ĠolabileceÄŁini":9715,"Cevap":9716,"adÄ±kÃ¶y":9717,"ĠpaylaÅŁtÄ±":9718,"Ġmaske":9719,"ĠÃ¶zÃ¼r":9720,"ĠBÃ¼lent":9721,"ĠsÃ¼rdÃ¼":9722,"dy":9723,"Ġdevre":9724,"kÃ¢r":9725,"ĠaÃ§Ä±lmasÄ±":9726,"ĠyaptÄ±rÄ±m":9727,"ĠdÃ¼rÃ¼st":9728,"ĠBors":9729,"ĠUY":9730,"Ġtoplamda":9731,"omi":9732,"Ã¼ntÃ¼":9733,"Ġsandal":9734,"Ġokula":9735,"Ġneg":9736,"Ġfikri":9737,"Ġgelmez":9738,"ĠMakin":9739,"hid":9740,"ĠSEO":9741,"Ġtescil":9742,"Ġdevleti":9743,"osy":9744,")'":9745,"iyanet":9746,"ecilik":9747,"ĠArabistan":9748,"ĠBazen":9749,"Galatasaray":9750,"Ġtabak":9751,"Ġbildirim":9752,"by":9753,"antol":9754,"Ġ2004":9755,"ĠaracÄ±lÄ±ÄŁÄ±":9756,"bÃ¼r":9757,"ĠgÃ¶sterilen":9758,"Ġeks":9759,"ĠOÄŁuz":9760,"acÄ±n":9761,"parta":9762,"ĠkÄ±yafet":9763,"Re":9764,"ĠeÄŁil":9765,"RAM":9766,"udak":9767,"Ġnitelikli":9768,"Ã¼mÃ¼ze":9769,"ĠyÃ¼rÃ¼rlÃ¼ÄŁe":9770,"ĠBinomo":9771,"ĠgÃ¶Ã§men":9772,"Un":9773,"ĠKÃ¶pr":9774,"ĠKÄ±ÅŁ":9775,"Uzun":9776,"Ġarzu":9777,"ĠSiyah":9778,"OÄŀLU":9779,"Ġmutf":9780,"ĠYoksa":9781,"ĠbaÄŁlÄ±dÄ±r":9782,"ĠsorunlarÄ±n":9783,"cm":9784,"ĠboÅŁluk":9785,"ĠÄ±n":9786,"Ġtetik":9787,"ĠElbette":9788,"ĠinanÄ±yorum":9789,"ĠReklam":9790,"landÄ±rma":9791,"dere":9792,"ĠAdÄ±":9793,"79":9794,"ĠolmasÄ±ndan":9795,"ĠAslan":9796,"ĠgÃ¶zet":9797,"ĠartÄ±rmak":9798,"Ä±sÄ±ndaki":9799,"sever":9800,"ance":9801,"ĠÃ§alÄ±ÅŁmalarÄ±n":9802,"ĠHedef":9803,"Bizim":9804,"Sab":9805,"ĠDiy":9806,"HayÄ±r":9807,"Bakan":9808,"GÃ¼ven":9809,"ĠolmasÄ±n":9810,"ĠgÃ¶nderilen":9811,"ĠdÃ¶ndÃ¼r":9812,"Sin":9813,"ĠNATO":9814,"zaman":9815,"yak":9816,"KÄ±s":9817,"ĠtÄ±pkÄ±":9818,".(":9819,"ĠBU":9820,"BÃ¶yle":9821,"Frans":9822,"ĠMimar":9823,"Ġbilinc":9824,"Ġkonaklama":9825,"ĠihtiyaÃ§larÄ±nÄ±":9826,"Ġvitamini":9827,"Ġyaban":9828,"KÃ¶":9829,"ĠiÅŁtir":9830,"ĠSabah":9831,"halde":9832,"load":9833,"ĠsÃ¶k":9834,"ANBUL":9835,"Ġambalaj":9836,"lunun":9837,"ĠAziz":9838,"ĠEg":9839,"Ġiktid":9840,"Ġzem":9841,"ĠkaydÄ±":9842,"ĠuÄŁur":9843,"ĠbÃ¼tÃ§e":9844,"Ġsus":9845,"Sadece":9846,"Ġkimin":9847,"ĠQu":9848,"lamanÄ±n":9849,"Ġbozukluk":9850,"ĠKurtul":9851,"Ġpandemi":9852,"Ġorganik":9853,"ĠÃĩeÅŁit":9854,"ĠDurum":9855,"ĠÄ°talyan":9856,"ĠbÄ±raktÄ±":9857,"Ġpir":9858,"ase":9859,"Ġuydur":9860,"ĠSeÃ§im":9861,"Ġ42":9862,"ĠhesabÄ±ndan":9863,"sÃ¼n":9864,"Ġibadet":9865,"ĠÃ¶zgÃ¼n":9866,"ĠedildiÄŁini":9867,"Ver":9868,"ĠBayan":9869,"ullarÄ±":9870,"leyebilir":9871,"ĠyaratÄ±cÄ±":9872,"ĠBirinci":9873,"Ġihale":9874,"Ġetkisini":9875,"Ġpeygamber":9876,"Ġdediler":9877,"Ġmilletin":9878,"BÃ¼tÃ¼n":9879,"ĠDairesi":9880,"ĠyapÄ±ldÄ±ÄŁÄ±nÄ±":9881,"Ġdahilinde":9882,"emiyorum":9883,"Ġmetr":9884,"Ã¢lÃ¢":9885,"Ġverebilir":9886,"Ġmadenc":9887,"Ġedilmelidir":9888,"Ġolursak":9889,"Ġkg":9890,"esidir":9891,"ĠÃ§ub":9892,"MAD":9893,"Ġtarihte":9894,"adiÅŁ":9895,"ĠKoruma":9896,"ĠcÃ¼zdan":9897,"ĠYukarÄ±":9898,"ĠsÄ±radan":9899,"Ġbenden":9900,"cih":9901,"Ġdenli":9902,"Ġedenler":9903,"ĠÅŁahit":9904,"ĠYabancÄ±":9905,"Ġmanzar":9906,"Bor":9907,"Ġolabiliyor":9908,"Ġikamet":9909,"CÄ°":9910,"iyorsanÄ±z":9911,"ĠdeÄŁiÅŁimi":9912,"Ġgetirildi":9913,"ÂłĊ":9914,"obi":9915,"Ġrestoran":9916,"Ġidare":9917,"Ġkaynaklanan":9918,"faiye":9919,"Ġdoktora":9920,"ĠSc":9921,"ĠDEV":9922,"ĠAnne":9923,"ĠSaÄŁlÄ±ÄŁÄ±":9924,"ĠattÄ±ÄŁÄ±":9925,"ĠgÃ¶rÃ¼nÃ¼r":9926,"ild":9927,"ĠÃ§eyrek":9928,"Ġlaborat":9929,"ical":9930,"ĠOyuncu":9931,"ĠKoÅŁ":9932,"Ġrul":9933,"Ġdelil":9934,"ÅŁun":9935,"Ġsemin":9936,"ĠAlÄ±n":9937,"ĠverdiÄŁini":9938,"ĠTerÃ¶r":9939,"ĠÄ°LE":9940,"BaÄŁ":9941,"ĠgerÃ§ekleÅŁtirdi":9942,"76":9943,"ĠSize":9944,"Ġdefter":9945,"Ġdurumuna":9946,"Ġ<":9947,"ĠiÅŁit":9948,"culuk":9949,"Ġtac":9950,"Ã§Ä±sÄ±":9951,"Ġbom":9952,"mekle":9953,"ĠrÃ¼zgar":9954,"ĠgerekÃ§esiyle":9955,"dunuz":9956,"ĠRuh":9957,"ĠBakÄ±m":9958,"Ġsh":9959,"Ġtahsil":9960,"Tekn":9961,"ĠartÄ±ÅŁÄ±":9962,"****":9963,"ĠOK":9964,"ikler":9965,"ĠkullanÄ±cÄ±larÄ±":9966,"ĠSektÃ¶r":9967,"ĠHoca":9968,"Hep":9969,"ĠÃ§alÄ±ÅŁanlarÄ±":9970,"ĠBÃ¶ylelikle":9971,"ĠGÃ¼nÃ¼mÃ¼zde":9972,"uluÄŁu":9973,"ĠtÃ¼y":9974,"ĠBaÅŁak":9975,"HiÃ§":9976,"ĠyapÄ±larak":9977,"Ġsunuyoruz":9978,"ahil":9979,"Ġnis":9980,"ĠgÃ¶rÃ¼ldÃ¼":9981,"Ġajans":9982,"SeÃ§":9983,"ff":9984,"AÄŁ":9985,"ĠyalÄ±":9986,"ĠyapacaÄŁÄ±":9987,"ĠÃĸrgÃ¼tÃ¼":9988,"Ġutan":9989,"Ġvurgu":9990,"ĠSelim":9991,"doÄŁu":9992,"ĠuzmanÄ±":9993,"ErdoÄŁan":9994,"ĠHacÄ±":9995,"ĠKÄ±y":9996,"ĠÃ¼reten":9997,"ĠreÃ§":9998,"izce":9999,"Ãĸncelikle":10000,"ĠavantajlÄ±":10001,"ĠMahmut":10002,"EST":10003,"ĠYalÃ§Ä±n":10004,"KÄ±z":10005,"Ġhil":10006,"ĠatÄ±lan":10007,"ĠyatÄ±rÄ±mcÄ±larÄ±n":10008,"Ġforma":10009,"ington":10010,"Ġseyr":10011,"ĠmÃ¼zak":10012,"Ġkoydu":10013,"Ġoper":10014,"ĠÄ°nsanlar":10015,"ĠÃľl":10016,"ĠyapacaÄŁÄ±nÄ±z":10017,"onomik":10018,"ojistik":10019,"ĠÄ°stik":10020,"ĠetmiÅŁti":10021,"Ġgarip":10022,"TÃľRK":10023,"ĠsaÄŁlayacaktÄ±r":10024,"hatsApp":10025,"ĠOku":10026,"kÄ±ÅŁ":10027,"ĠfiyatlÄ±":10028,"ĠperformansÄ":10029,"ĠperformansÄ±":10030,"atan":10031,"Ġborc":10032,"Ġdekorasyon":10033,"ĠyÃ¼rÃ¼m":10034,"ĠdÃ¼":10035,"aly":10036,"FenerbahÃ§e":10037,"Ã¼lerek":10038,"ĠdoÄŁrusu":10039,"lÄ±ÄŁÄ±yla":10040,"Ġfilmin":10041,"Ġkoyun":10042,"Ġposta":10043,"Ä±ysa":10044,"alarca":10045,"ĠmesleÄŁ":10046,"Ġmesafede":10047,"ĠÅŁartlar":10048,"ÄŀÄ°T":10049,"ĠSokak":10050,"Ġsitemiz":10051,"mus":10052,"Ġbayr":10053,"ĠRed":10054,"ĠAfgan":10055,"paz":10056,"Ġmaddeler":10057,"lÃ¼ÄŁÃ¼nde":10058,"ĠolanlarÄ±n":10059,"Ġtarifi":10060,"ĠAlÄ±ÅŁ":10061,"Ġeuro":10062,"YukarÄ±":10063,"ĠaÄŁrÄ±sÄ±":10064,"sev":10065,"ĠdÃ¶ÅŁ":10066,"ĠdÃ¶ner":10067,"TS":10068,"birliÄŁi":10069,"ideki":10070,"Hak":10071,"Ġentegre":10072,"izmi":10073,"ÄŀI":10074,"Ġburun":10075,"ĠDÃ¶nem":10076,"Ġmuhtemel":10077,"ĠÃ¼lkeleri":10078,"Ġ2002":10079,"Ġdirek":10080,"ĠdÃ¶nÃ¼m":10081,"ĠdirektÃ¶r":10082,"dalÄ±k":10083,"ĠÄ°lÃ§":10084,"umuzda":10085,"Ġokundu":10086,"ĠÃ§alÄ±ÅŁÄ±rken":10087,"Ġistedik":10088,"Ġyapmadan":10089,"Hz":10090,"Ġgev":10091,"ĠuzaklaÅŁtÄ±r":10092,"ĠUlaÅŁ":10093,"Ġnik":10094,"edia":10095,"Ġsonradan":10096,"ĠKaymakam":10097,"Ġvol":10098,"Ùħ":10099,"ĠBEL":10100,"ĠolayÄ±n":10101,"Ġkapital":10102,"ĠportfÃ¶y":10103,"latma":10104,"ĠDub":10105,"ĠYaklaÅŁÄ±k":10106,"Ġyazan":10107,"inda":10108,"Ġsatan":10109,"astam":10110,"ĠParkÄ±":10111,"ĠDetay":10112,"ĠZar":10113,"ĠOrtadoÄŁu":10114,"ĠdÃ¼zel":10115,"amÄ±zÄ±n":10116,"ĠKilis":10117,"Ġseviyorum":10118,"Sit":10119,"Ġ46":10120,"atay":10121,"Almanya":10122,"ass":10123,"Ġare":10124,"Ġaittir":10125,"Ġtabir":10126,"Ġyoldan":10127,"oskova":10128,"ĠsÃ¼recini":10129,"ĠZam":10130,"ĠTÃ¼rkmen":10131,"Tube":10132,"ĠBorsa":10133,"ĠsaÄŁladÄ±":10134,"fli":10135,"YÃ¶n":10136,"DÃ¼nyanÄ±n":10137,"Ġfit":10138,"Ġmesleki":10139,"Ġibaret":10140,"98":10141,"ĠÃ§if":10142,"ĠuygulanmasÄ±":10143,"ĠÃ¶zelliklerini":10144,"ĠdÃ¼nyadaki":10145,"ĠOda":10146,"Ġ44":10147,"ĠprosedÃ¼r":10148,"ĠsÃ¶zlerini":10149,"Ġbayrak":10150,"Ġstil":10151,"Ġistemez":10152,"Ä±ÄŁÄ±na":10153,"ĠyÄ±llarÄ±nda":10154,"amamÄ±ÅŁ":10155,"âĤº":10156,"ĠyarattÄ±ÄŁÄ±":10157,"ĠnÃ¼kleer":10158,"ĠyarÄ±sÄ±":10159,"ĠgeliÅŁtirilen":10160,"Ġvicdan":10161,"Ġcesaret":10162,"Ġkucak":10163,"Ġbacak":10164,"ĠKaraman":10165,"Ġzorlan":10166,"Ġbardak":10167,"Ġcezaev":10168,"ĠBÃ¼r":10169,"Ġtemsilcisi":10170,"âĢº":10171,"TM":10172,"ekili":10173,"ĠkarÄ±ÅŁÄ±k":10174,"ĠSinan":10175,"Ġnegatif":10176,"ĠAcil":10177,"ĠcÃ¼mle":10178,"ĠKeÅŁ":10179,"tisiz":10180,"YayÄ±n":10181,"ĠiliÅŁkili":10182,"IYOR":10183,"lamayÄ±":10184,"ĠgeÃ§irdi":10185,"BeÅŁiktaÅŁ":10186,"Ġmasaj":10187,"ĠSuÃ§":10188,"Ġkiral":10189,"Ġtarafta":10190,"Ġmedeniyet":10191,"iÄŁit":10192,"ier":10193,"ĠnÄ±n":10194,"ĠsakÄ±n":10195,"ĠKalkÄ±nma":10196,"ĠÅŀey":10197,"Ãĸte":10198,"GiriÅŁ":10199,"ilmeye":10200,"Ġkonusundaki":10201,"Ġtavuk":10202,"Ġ2003":10203,"Ġdeneyimli":10204,"ĠSalih":10205,"yolu":10206,"ĠTakÄ±mÄ±":10207,"ĠÃľye":10208,"Ġdet":10209,"DÃ¼z":10210,"Ġlise":10211,"ĠsorumluluÄŁ":10212,"Ġreddet":10213,"ĠaÃ§Ä±klamasÄ±nda":10214,"sus":10215,"ĠBulgar":10216,"ĠgenÃ§ler":10217,"ĠrÃ¶portaj":10218,"Ġihtimali":10219,"ĠðŁĻĤ":10220,"YÃ¼z":10221,"hak":10222,"tra":10223,"Ġseviyesinde":10224,"ĠAlbay":10225,"Ġgazete":10226,"asus":10227,"tÃ¼m":10228,"Ġorganiz":10229,"ĠbaÅŁkenti":10230,"ĠvarlÄ±ÄŁÄ±nÄ±":10231,"ĠEfend":10232,"ĠHa":10233,"dilik":10234,"Ġilham":10235,"Ġzafer":10236,"ahya":10237,"Ġmuhalefet":10238,"ĠkÃ¶prÃ¼":10239,"ĠPersonel":10240,"Ġaldat":10241,"alarÄ±mÄ±z":10242,"Ġendek":10243,"ĠaldÄ±klarÄ±":10244,"ĠgirmiÅŁ":10245,"Ġboyun":10246,"ĠÄ°Ã§iÅŁleri":10247,"ĠfÄ":10248,"ĠTeÅŁkil":10249,"Ġcinsiyet":10250,"ĠÃĩavuÅŁ":10251,"alÄ±ÄŁÄ±":10252,"atch":10253,"Hem":10254,"Ġbilinmektedir":10255,"Yine":10256,"ĠOb":10257,"Ġekledi":10258,"ĠÄ°nÅŁallah":10259,"ymp":10260,"kz":10261,"ĠDam":10262,"\"\"\"":10263,"ĠfÄ±":10264,"afe":10265,"ĠkÄ±ymetli":10266,"Ġast":10267,"ĠHerhangi":10268,"ERK":10269,"piyat":10270,"dÄ±nÄ±z":10271,"Ä°MÄ°Z":10272,"cusu":10273,"Ġtitiz":10274,"ĠÃ¼yelerinin":10275,"ÙĬ":10276,"ĠolsaydÄ±":10277,"ĠaÃ§ar":10278,"Ġkek":10279,"viÃ§re":10280,"ĠkullanÄ±lmak":10281,"ĠzorundadÄ±r":10282,"ĠtaahhÃ¼t":10283,"ĠAkÄ±n":10284,"Ġmakale":10285,"ĠÃĸzdemir":10286,"ĠdÃ¼zenlenecek":10287,"Ġmesela":10288,"Ġthat":10289,"ĠYapÄ±lÄ±r":10290,"bakanÄ±":10291,"Ġistenilen":10292,"ĠfazlasÄ±nÄ±":10293,"ĠKud":10294,"ĠAfyon":10295,"ĠStar":10296,"ĠiyileÅŁ":10297,"Ġsaatlik":10298,"ĠTakip":10299,"ĠkardeÅŁi":10300,"ĠtÃ¼ketici":10301,"Ã¼minyum":10302,"antin":10303,"Ġbirinde":10304,"ĠgeÃ§iren":10305,"Ġgirerek":10306,"Ä°LÄ°":10307,"Ġbelirlemek":10308,"Ġhastane":10309,"ĠbaktÄ±":10310,"Ä±rnak":10311,"ĠBayrak":10312,"cÄ±larÄ±":10313,"ĠDayan":10314,"ĠMeh":10315,"Ġdinlen":10316,"mec":10317,"ĠBeni":10318,"Ġtemsilcileri":10319,"Ġkablo":10320,"ĠYargÄ±":10321,"over":10322,"melerine":10323,"val":10324,"Ġgerektiren":10325,"larÄ±mÄ±zda":10326,"ĠhÃ¼kÃ¼meti":10327,"Hakk":10328,"ĠsÃ¼rdÃ¼rÃ¼yor":10329,"asal":10330,"Ġetmekte":10331,"emeyecek":10332,"ĠanlatÄ±m":10333,"ĠsÃ¼recinin":10334,"ĠÅŁof":10335,"Ġ41":10336,"ĠgeliÅŁmeleri":10337,"ĠoynadÄ±ÄŁÄ±":10338,"ĠNelerdir":10339,"ĠAteÅŁ":10340,"Ġimam":10341,"ĠcihazÄ±":10342,"ÃľÃ§":10343,"ĠCamii":10344,"poz":10345,"Ġpersoneli":10346,"oÃ§":10347,"likten":10348,"ĠpolitikasÄ±":10349,"ora":10350,"Ġoynam":10351,"ĠÃĸdÃ¼lÃ¼":10352,"Ä±lmalÄ±dÄ±r":10353,"nav":10354,"ĠPal":10355,"ĠStad":10356,"ĠdeÄŁerini":10357,"ĠinsanlÄ±k":10358,"Ġisyan":10359,"ory":10360,"Ġmalzemeler":10361,"ĠsatÄ±cÄ±":10362,"Ġolgun":10363,"Ġceb":10364,"Ġherkesi":10365,"Ġimalat":10366,"ĠtÄ±kan":10367,"ĠdiÄŁeri":10368,"Ġizleyen":10369,"ĠBaba":10370,"bulans":10371,"ĠaÃ§Ä±klamalar":10372,"Ġkoca":10373,"ĠhÃ¢l":10374,"ĠÃ¶ncelikli":10375,"icileri":10376,"ĠcoÄŁrafy":10377,"Ġgezeg":10378,"Ġispat":10379,"ĠCumhurbaÅŁkanlÄ±ÄŁÄ±":10380,"enleri":10381,"lanacak":10382,"Ġisimleri":10383,"ĠHil":10384,"Ġgetirerek":10385,"ĠAyr":10386,"Ġrejim":10387,"ĠHolding":10388,"Ġkimdir":10389,"Ġalmadan":10390,"Ġmuhafaza":10391,"ĠAda":10392,"Ġserisi":10393,"Ġoyuncak":10394,"Ġmiras":10395,"Haf":10396,"ĠPet":10397,"sizin":10398,"Ġbilinir":10399,"encere":10400,"ĠbaÅŁvurusu":10401,"ĠmÃ¼sabak":10402,"asÄ±nÄ±z":10403,"Ġsenaryo":10404,"Ġmenf":10405,"Ã¼ldÃ¼ÄŁÃ¼":10406,"Ġbasketbol":10407,"ĠarkadaÅŁlarÄ±":10408,"ĠkalmasÄ±":10409,"Ġsuya":10410,"lerimi":10411,"ading":10412,"ÄŁday":10413,"ĠkullanÄ±ma":10414,"uki":10415,"ĠCengiz":10416,"uhaf":10417,"GE":10418,"ĠsÃ¼resince":10419,"Ġoyuna":10420,"ĠdÃ¶nÃ¼k":10421,"Ġbitti":10422,"Ġmahal":10423,"Ġdurumunu":10424,"ĠIP":10425,"Ġproblemi":10426,"Ġmidir":10427,"ayn":10428,"urya":10429,"ĠyakalandÄ±":10430,"GÃ¼ndem":10431,"barat":10432,"ĠGit":10433,"ĠbatÄ±":10434,"Ġalet":10435,"ĠBos":10436,"ney":10437,"ĠÃľnlÃ¼":10438,"Ġant":10439,"ĠbaÅŁarÄ±lar":10440,"ĠBurak":10441,"Ġhaberdar":10442,"ĠgÃ¶rÃ¼ntÃ¼l":10443,"ĠCEO":10444,"ĠTuran":10445,"ĠdÃ¼kkan":10446,"ĠBiraz":10447,"Ġdoku":10448,"ason":10449,"ĠtabanlÄ±":10450,"ĠVÃ¼c":10451,"dukÃ§a":10452,"Ġtoplanan":10453,"Ġoyuncusu":10454,"hab":10455,"ĠverilmiÅŁ":10456,"ĠiliÅŁkisi":10457,"ĠKAL":10458,"anbul":10459,"Ġepey":10460,"ĠTeb":10461,"ĠGÃ¶rÃ¼nt":10462,"Ġkutu":10463,"ĠyÃ¼rek":10464,"ĠÃ§Ä±kmaktadÄ±r":10465,"ĠÃ¶nemini":10466,"Ġgirip":10467,"ĠeÄŁitime":10468,"Ġedilemez":10469,"Ġkupon":10470,"Ġseverler":10471,"Ġheyet":10472,"72":10473,"ĠKel":10474,"oci":10475,"DK":10476,"Ġriv":10477,"ĠboÄŁaz":10478,"mÄ±z":10479,"ĠBÃ¼yÃ¼kel":10480,"Ġdenen":10481,"ĠAP":10482,"Ġalev":10483,"Ġsarf":10484,"Ġuydu":10485,"ĠdÃ¼ÅŁÃ¼nen":10486,"Ġantrenman":10487,"ĠCin":10488,"Ġistedikleri":10489,"Ġsahada":10490,"Ġparalar":10491,"Ġkuvvetli":10492,"Ġetmeden":10493,"ĠWord":10494,"ĠErmeni":10495,"duklarÄ±nÄ±":10496,"ĠyaÅŁadÄ±":10497,"ĠÃľretim":10498,"Mak":10499,"Neden":10500,"ĠgeliÅŁimi":10501,"Ġverip":10502,"ĠyazÄ±lmÄ±ÅŁ":10503,"Ã»l":10504,"abilirsin":10505,"Ġbilgilendirme":10506,"Ġdisk":10507,"Ġkesi":10508,"Ġnadir":10509,"ĠhastanÄ±n":10510,"iÅŁli":10511,"ĠIÅŀÄ°D":10512,"ĠOnur":10513,"ĠGÃ¶rÃ¼ÅŁ":10514,"uklu":10515,"luyor":10516,"ĠKAY":10517,"ĠChar":10518,"ĠbaÅŁlandÄ±":10519,"ĠEkonomik":10520,"lamanÄ±z":10521,"ĠsavaÅŁÄ":10522,"ĠsavaÅŁÄ±":10523,"lamaktadÄ±r":10524,"Ġistanbul":10525,"ĠTrade":10526,"PSS":10527,"ĠAdet":10528,"ĠSeb":10529,"Ġbelirlem":10530,"71":10531,"jinal":10532,"larÄ±mÄ±zdan":10533,"naf":10534,"ivan":10535,"Ġaksesuar":10536,"ĠmÃ¼te":10537,"ĠtoplantÄ±da":10538,"aci":10539,"langÄ±Ã§":10540,"ĠYaÅŁar":10541,"61":10542,"ĠBonus":10543,"ĠbirtakÄ±m":10544,"iliÄŁin":10545,"ĠKurt":10546,"GÄ°":10547,"ĠayrÄ±lan":10548,"Adana":10549,"ĠbaÅŁarÄ±yla":10550,"que":10551,"ĠÃĩank":10552,"ĠdeÄŁiÅŁtirmek":10553,"ĠMeydanÄ±":10554,"Ġemr":10555,"Ġsizinle":10556,"ĠRas":10557,"Ġerkekler":10558,"ĠbaÄŁlamda":10559,"ĠPRO":10560,"adiÅŁah":10561,"ĠMardin":10562,"Ġperde":10563,"ĠÃ§ekil":10564,"Ġyumurt":10565,"Ġbot":10566,"Ã¶nÃ¼":10567,"ĠÃ§Ä±r":10568,"Ġsiteniz":10569,"Ġkaleme":10570,"ĠarkadaÅŁÄ±m":10571,"Ġcihazlar":10572,"ĠdÃ¼ÅŁer":10573,"eld":10574,"Ġkurucu":10575,"ĠOyunlarÄ±":10576,"ĠGol":10577,"ĠLib":10578,"Ġkanat":10579,"ĠKÄ±rmÄ±zÄ±":10580,"ĠbaktÄ±ÄŁÄ±mÄ±zda":10581,"ĠaÄŁÄ±rlÄ±klÄ±":10582,"elikop":10583,"ĠWar":10584,"Ġmum":10585,"ĠSov":10586,"ike":10587,"Ġdenize":10588,"ĠÃĸzellikleri":10589,"ĠiÅŁveren":10590,"ĠDaire":10591,"Han":10592,"emektedir":10593,"tÃ¼ÄŁÃ¼":10594,"ĠmÄ±dÄ±r":10595,"Ã¼leb":10596,"LARIN":10597,"Ge":10598,"ĠBaÅŁvuru":10599,"Ġgereksiz":10600,"ĠAlp":10601,"losu":10602,"kender":10603,"Ġplaj":10604,"Ġsevilen":10605,"Ġgirecek":10606,"Ġbelgeler":10607,"Op":10608,"ĠsÃ¶zleÅŁmesi":10609,"ĠAnt":10610,"85":10611,"Ã¼el":10612,"Ġadresine":10613,"ĠdeÄŁilse":10614,"ÄŀÄ°TÄ°M":10615,"Ġkontr":10616,"ĠarayÃ¼z":10617,"ĠcezalandÄ±r":10618,"ĠNitekim":10619,"ĠDirektÃ¶rÃ¼":10620,"ĠbaÅŁlattÄ±":10621,"ĠsÃ¶zcÃ¼k":10622,"astamonu":10623,"ĠiÅŁley":10624,"ĠDost":10625,"ĠimkansÄ±z":10626,"ĠGenellikle":10627,"ĠaldÄ±ÄŁÄ±nÄ±z":10628,"ĠÃ§aÄŁdaÅŁ":10629,"Ġliraya":10630,"ĠyapÄ±ÅŁtÄ±r":10631,"ĠmÃ¼ÅŁterilerine":10632,"ĠhÃ¢kim":10633,"ranÄ±":10634,"ĠkaygÄ±":10635,"DER":10636,"igÃ¼r":10637,"Ġitiraf":10638,"itab":10639,"Ġeksiksiz":10640,"Ġcins":10641,"Ä°kinci":10642,"Ġhizmetlerini":10643,"ĠKullanÄ±m":10644,"ĠtecrÃ¼be":10645,"Ã¼nÃ¼zÃ¼":10646,"ĠhazÄ±rlanmÄ±ÅŁ":10647,"ĠdevamÄ":10648,"ĠdevamÄ±":10649,"ĠKonu":10650,"ĠlayÄ±k":10651,"Ø§ÙĦ":10652,"Ã½n":10653,"ĠolabileceÄŁi":10654,"leÅŁmiÅŁ":10655,"oley":10656,"ĠmÃ¼ÅŁ":10657,"Ġtarihinin":10658,"Ġgiderken":10659,"Ġailenin":10660,"Ġobj":10661,"Ġbeton":10662,"ĠÅŁeffaf":10663,"ĠDa":10664,"Ġpaketi":10665,"ĠyÃ¶netici":10666,"Ġkimseye":10667,"panyol":10668,"Ãĸnceki":10669,"Ġtutk":10670,"aktan":10671,"ĠFet":10672,"ĠkonuÅŁul":10673,"abey":10674,"Sar":10675,"Fi":10676,"ĠdÃ¶nen":10677,"ĠisteÄŁi":10678,"ĠÃ§ikol":10679,"ĠilÃ§esine":10680,"ĠfazlasÄ±yla":10681,"Ã®n":10682,"ĠBaÅŁsav":10683,"ĠÃ§Ä±ÄŁ":10684,"ĠyÃ¶ntemler":10685,"ĠDoÄŁum":10686,"Ġvekil":10687,"ĠBize":10688,"acaÄŁÄ±ndan":10689,"rib":10690,"ĠGeÃ§miÅŁ":10691,"mesin":10692,"Ġtutuklu":10693,"Ġduyulan":10694,"Herk":10695,"ĠbÃ¶lgelerde":10696,"Ġgayrimenkul":10697,"matik":10698,"ĠYÃ¶netmel":10699,"Ġmel":10700,"Ġkader":10701,"bilirsiniz":10702,"erg":10703,"ĠnoktalarÄ±":10704,"IY":10705,"Ġetkisiyle":10706,"ĠdavasÄ±":10707,"ĠoyuncularÄ±":10708,"ĠÃ§iÄŁ":10709,"Ġgerektirir":10710,"ĠtadÄ±nÄ±":10711,"ĠsayÄ±lÄ±r":10712,"ĠsektÃ¶rÃ¼n":10713,"ĠDevletleri":10714,"Ġatmosfer":10715,"ĠbÃ¶lgedeki":10716,"ĠÄ°YÄ°":10717,"Ġonlarla":10718,"Ä°NÄ°N":10719,"ĠyanÄ±l":10720,"Ġoynat":10721,"ĠAkÄ±llÄ±":10722,"liliÄŁini":10723,"Ð¸":10724,"Ġhepimiz":10725,"Ġfiltr":10726,"Ġediyordu":10727,"lasÄ±":10728,"Ġantik":10729,"Ġsorusuna":10730,"ĠmaÄŁlup":10731,"GÃ¶nderen":10732,"ĠihtiyaÃ§larÄ±":10733,"epe":10734,"KÄ°":10735,"DF":10736,"Ġartar":10737,"ĠKadir":10738,"ĠalgÄ±l":10739,"Ġmerdiven":10740,"acasÄ±":10741,"ĠGerÃ§ekten":10742,"ĠaÃ§Ä±lÄ±r":10743,"ilerinde":10744,"ĠKardeÅŁ":10745,"ayÄ±cÄ±":10746,"ĠbaÄŁlantÄ±lar":10747,"ĠkiÅŁiden":10748,"ĠÃĩÃ¶zÃ¼m":10749,"Okul":10750,"Ġfiyata":10751,"ĠMc":10752,"ĠmeÅŁhur":10753,"ĠhastalÄ±klarÄ±":10754,"Ġreak":10755,"GeÃ§tiÄŁimiz":10756,"OY":10757,"Ġilerlem":10758,"ĠbaÅŁardÄ±":10759,"ĠArda":10760,"ĠBoÅŁ":10761,"ĠÄ°Ã§erik":10762,"Ġtarihe":10763,"EFA":10764,"sc":10765,"Bahis":10766,"ĠmarkasÄ±":10767,"fe":10768,"ĠmÃ¼lt":10769,"ÃĤ":10770,"ĠhafÄ±z":10771,"ĠmÃ¼thiÅŁ":10772,"ĠdoÄŁumlu":10773,"ĠhaÅŁ":10774,"dinde":10775,"Ġsamimi":10776,"ĠKoordin":10777,"ĠiÄŁ":10778,"eleme":10779,"ĠFah":10780,"ciÄŁer":10781,"ean":10782,"ĠbÃ¶lgesel":10783,"Ġdikkati":10784,"mil":10785,"Ġ{":10786,"Ġikiye":10787,"ĠYAR":10788,"ĠrÄ±z":10789,"ĠverdiÄŁimiz":10790,"Ġbankalar":10791,"Ġsebze":10792,"malarÄ±nÄ±n":10793,"Ġdiyebiliriz":10794,"Ġkapak":10795,"ĠPop":10796,"Ġyetkilileri":10797,"Ä°k":10798,"Ġnihayet":10799,"ĠyazÄ±lan":10800,"lec":10801,"ĠÃ¶ÄŁrencisi":10802,"Ġbizde":10803,"ĠkadÄ±na":10804,"oÄŁuk":10805,"ĠNormal":10806,".Â»":10807,"ĠsÃ¼rdÃ¼ren":10808,"edat":10809,"ĠSuudi":10810,"ĠKanada":10811,"ĠSAN":10812,"Ġsergilen":10813,"ĠkararÄ±nÄ±":10814,"Ġanlama":10815,"ĠDekor":10816,"port":10817,"ĠGu":10818,"ĠHafta":10819,"elerimiz":10820,"aseb":10821,"ĠKoz":10822,"ĠyazmÄ±ÅŁ":10823,"ĠÃ§Ã¼r":10824,"ĠtÃ¼p":10825,"Ġkredisi":10826,"BeÄŁen":10827,"ularak":10828,"ĠSiteleri":10829,"Ġinanc":10830,"Ġkalitesini":10831,"ĠolacaksÄ±nÄ±z":10832,"Ġresmen":10833,"63":10834,"hy":10835,"ĠYAZ":10836,"ahattin":10837,"Ġbelirlendi":10838,"ĠKuvvetleri":10839,"biz":10840,"mazlÄ±k":10841,"Ġhijyen":10842,"Ġbelirsiz":10843,"GeÃ§en":10844,"ĠBiy":10845,"ĠKartal":10846,"ĠayÄ±nÄ±n":10847,"ĠÅŀubesi":10848,"ĠboÅŁalt":10849,"ĠBolu":10850,"Ġkanaat":10851,"Tem":10852,"emedi":10853,"ĠâĤº":10854,"Ġyetki":10855,"ĠJapon":10856,"Ã¢yet":10857,"tÄ±kÃ§a":10858,"ArtÄ±k":10859,"ĠanlamÄ±yla":10860,"Bul":10861,"ĠSS":10862,"box":10863,"ĠNor":10864,"ĠBlack":10865,"ĠyÃ¼ze":10866,"ĠGec":10867,"ĠÃ¼ste":10868,"mÃ¼ÅŁtÃ¼":10869,"liydi":10870,"ĠAksi":10871,"ĠGerekli":10872,"hem":10873,"ĠanÄ±m":10874,"Ġhamil":10875,"ĠBrez":10876,"ĠMari":10877,"ĠyatÄ±rÄ±mÄ±":10878,"ĠaÃ§tÄ±ÄŁÄ±":10879,"luÄŁunda":10880,"ĠGece":10881,"ÃĩÃ¼nkÃ¼":10882,"ĠparanÄ±n":10883,"UP":10884,"AYIN":10885,"ĠkullanÄ±ldÄ±ÄŁÄ±":10886,"Ġmilliyet":10887,"Ġettiklerini":10888,"Ġintihar":10889,"ĠSalonu":10890,"TIR":10891,"ĠulaÅŁan":10892,"idin":10893,"Ġbant":10894,"Yani":10895,"ĠiÃ§ecek":10896,"ĠKamp":10897,"ĠRo":10898,"ĠadlandÄ±rÄ±lan":10899,"ĠteÅŁkilat":10900,"Ä°slam":10901,"ĠKAD":10902,"!\"":10903,"Ġyapabilecek":10904,"ĠsÄ±kÃ§a":10905,"low":10906,"ĠuygulanÄ±r":10907,"Ġgazeteci":10908,"ĠbÃ¶lÃ¼mÃ¼nÃ¼":10909,"ĠkorkunÃ§":10910,"ekkÃ¼rler":10911,"ydÄ±":10912,"ĠdanÄ±ÅŁmanlÄ±k":10913,"ĠBi":10914,"ĠsÃ¼z":10915,"Ä°YET":10916,"ĠiÃ§erisindeki":10917,"Ġyaratan":10918,"ĠgeÃ§erlidir":10919,"ĠFi":10920,"itan":10921,"ĠsÄ±nÄ±fÄ":10922,"ĠsÄ±nÄ±fÄ±":10923,"ĠatÄ±l":10924,"Ġtatmin":10925,"Ġtitr":10926,"aÄŁÄ±ndan":10927,"ĠBelediyespor":10928,"Fir":10929,"ĠendiÅŁe":10930,"ĠmeÅŁru":10931,"Ġfazlad":10932,"ĠparÃ§alarÄ±":10933,"ĠKK":10934,"Cumhuriyet":10935,"ATI":10936,"Ġpomp":10937,"ĠdÄ±ÅŁar":10938,"Ġbilgiyi":10939,"ĠalmanÄ±z":10940,"etli":10941,"ĠBavul":10942,"Haz":10943,"eyerek":10944,"Ġakrab":10945,"Bunu":10946,"Ġharicinde":10947,"ĠkurulmasÄ±":10948,"Ġesk":10949,"ĠaldÄ±ÄŁÄ±mÄ±z":10950,"ĠgirdiÄŁi":10951,"ĠkarÅŁÄ±lamak":10952,"Ġkasab":10953,"arlÄ±k":10954,"BaÅŁbakan":10955,"Ġseyret":10956,"ĠEur":10957,"ĠhaklarÄ±nÄ±":10958,"ĠTelekom":10959,"mama":10960,"ĠUnut":10961,"Ġtv":10962,"USD":10963,"ĠartÄ±":10964,"acaat":10965,"Ġdonat":10966,"ArkadaÅŁ":10967,"Ġhissettir":10968,"ĠMilletler":10969,"ĠÃ§il":10970,"ĠyÃ¼zÃ¼ne":10971,"ĠbaÄŁlantÄ±lÄ±":10972,"ĠiÅŁlemini":10973,"ĠbilinÃ§li":10974,"ĠNakliyat":10975,"Ġriskli":10976,"ĠaraÅŁtÄ±rmacÄ±":10977,"ĠkaÃ§Ä±nÄ±lmaz":10978,"ĠHur":10979,"Ä±cÄ±lÄ±k":10980,"Ġreform":10981,"Ġbakmak":10982,"Ġformu":10983,"ĠHab":10984,"hisar":10985,"Ġheykel":10986,"ĠdÃ¼nyasÄ±nÄ±n":10987,"ĠayrÄ±ldÄ±":10988,"Ġyelpaz":10989,"Ã¼mÃ¼zÃ¼n":10990,"ĠMilyon":10991,"ĠtemizliÄŁi":10992,"Ġkira":10993,"ĠyÃ¼klÃ¼":10994,"ĠTa":10995,"ĠÃ§ekerek":10996,"ĠÄ°sveÃ§":10997,"Ġmevzuat":10998,"lenerek":10999,"ĠyapÄ±ya":11000,"Ġilgisi":11001,"larÄ±dÄ±r":11002,"acÄ±lÄ±ÄŁÄ±":11003,"ĠKonut":11004,"ĠgÃ¼ncelleme":11005,"fan":11006,"ĠsÄ±ralam":11007,"ited":11008,"Ġserv":11009,"Mod":11010,"Ġbirbirlerine":11011,"ĠalÄ±ndÄ±ÄŁÄ±":11012,"LÃľ":11013,"alarak":11014,"saÄŁ":11015,"ĠtÄ±klayarak":11016,"leÅŁen":11017,"Ġ64":11018,"Ġonlardan":11019,"off":11020,"Ġhastanede":11021,"urun":11022,"lanmaz":11023,"Ġiftar":11024,"ĠBalkan":11025,"ĠvarmÄ±ÅŁ":11026,"ĠiÅŁlemlerin":11027,"Ġadli":11028,"ĠGiresun":11029,"Ġhassasiyet":11030,"RA":11031,"ĠkÄ±lÄ±":11032,"Yan":11033,"atin":11034,"ĠsayÄ±l":11035,"ĠCity":11036,"ĠeksikliÄŁi":11037,"Ġsars":11038,"izin":11039,"Ġkarn":11040,"ĠÃ§alÄ±ÅŁmalara":11041,"kul":11042,"ĠZeyn":11043,"74":11044,"enlerin":11045,"ĠmÃ¼d":11046,"Ġbakarak":11047,"ersek":11048,"Ġithalat":11049,"ĠAday":11050,"ĠgÃ¼ndÃ¼r":11051,"eÄŁinden":11052,"medim":11053,"ilmesinin":11054,"raj":11055,"iteli":11056,"ĠÃ¶p":11057,"ALIÅŀ":11058,"Ġveriliyor":11059,"ĠtÄ±rman":11060,"Mehmet":11061,"ĠNes":11062,"Kategor":11063,"ĠAdresi":11064,"Ġmuc":11065,"Ġkeskin":11066,"Ġkoku":11067,"ĠtecrÃ¼beli":11068,"Ġebeveyn":11069,"iliÄŁinden":11070,"ĠkavramÄ":11071,"ĠkavramÄ±":11072,"HK":11073,"MEK":11074,"UluslararasÄ±":11075,"ĠOlan":11076,"2007":11077,"Ġsponsor":11078,"Gazi":11079,"ĠetkinliÄŁi":11080,"ĠaÃ§Ä±klanan":11081,"Kol":11082,"Ġkoyu":11083,"zir":11084,"ÂłÂłÂłÂłÂłÂł":11085,"Ġ43":11086,"ĠyakÄ±nda":11087,"ting":11088,"ĠBulut":11089,"ĠÃĸÄŁrenci":11090,"ĠÅŁartÄ±":11091,"Ġvesile":11092,"ĠÃ§alÄ±ÅŁmalarÄ±nÄ±n":11093,"Ġbirimleri":11094,"ĠcanÄ±m":11095,"Elekt":11096,"ĠdÃ¼nyasÄ±":11097,"ĠÃ¼yelerine":11098,"Ġaleyh":11099,"Ġhastalar":11100,"ĠyazÄ±sÄ±":11101,"Ġha":11102,"ĠmekÃ¢n":11103,"Ġbireylerin":11104,"rut":11105,"ĠOlymp":11106,"oleybol":11107,"ĠAM":11108,"ĠÃ¶ykÃ¼":11109,"Ġedebilecek":11110,"ĠgÃ¶ÄŁÃ¼s":11111,"Ġatlat":11112,"ANS":11113,"ĠgeÃ§tiÄŁi":11114,"tions":11115,"ĠMÃ¼n":11116,"ĠÅŁehirde":11117,"ĠiOS":11118,"IMIZ":11119,"ĠiÅŁlemlerinin":11120,"ĠÅŁimdiye":11121,"ĠdediÄŁimiz":11122,"ĠPlatformu":11123,"Ġzeytiny":11124,"ĠKolay":11125,"eyince":11126,"ĠtÃ¼ccar":11127,"Ä±yorlardÄ±":11128,"ĠkÄ±n":11129,"Ġdalga":11130,"salar":11131,"ĠSeyahat":11132,"use":11133,"ĠyÄ±llarÄ±n":11134,"ĠHAK":11135,"ĠYÃ¶ntem":11136,"ĠSÃ¼t":11137,"izli":11138,"Ġpap":11139,"ĠkitaplarÄ±":11140,"ĠÃĸy":11141,"ĠMax":11142,"Per":11143,"Ġlimon":11144,"ĠkÃ¼ltÃ¼rÃ¼":11145,"ela":11146,"Ã¶zel":11147,"ÄŁrul":11148,"ĠkatÄ±lmak":11149,"ĠModern":11150,"danÄ±n":11151,"Ġetmeleri":11152,"ĠmantÄ±klÄ±":11153,"andum":11154,"Ġkategorisinde":11155,"ĠCilt":11156,"layabilir":11157,"maye":11158,"ĠmaÃ§Ä±n":11159,"ladÄ±ktan":11160,"umun":11161,"ĠTeknoloj":11162,"Ġmisyon":11163,"ĠTanÄ±t":11164,"Ġolurlar":11165,"ĠkalmadÄ±":11166,"ics":11167,"AslÄ±nda":11168,"ĠÅŀampiyonasÄ±":11169,"duc":11170,"ĠSatÄ±n":11171,"ĠkaldÄ±rÄ±ldÄ±":11172,"ĠgÃ¼nÃ¼mÃ¼ze":11173,"ĠiÃ§e":11174,"ĠDÃ¼zce":11175,"ĠgÃ¼mrÃ¼k":11176,"Ġortalam":11177,"tesi":11178,"Ġiyisi":11179,"memektedir":11180,"Ġhesaba":11181,"ĠÃĸner":11182,"irse":11183,"aciÄŁer":11184,"eyecek":11185,"Ã¼mÃ¼zÃ¼":11186,"Ã¼ÄŁÃ¼":11187,"Ġna":11188,"cÄ±larÄ±n":11189,"ĠMaliye":11190,"ĠPor":11191,"ĠtÃ¼ken":11192,"incan":11193,"ĠaÃ§Ä±ÄŁa":11194,"ĠRize":11195,"zim":11196,"KÃ¼Ã§Ã¼k":11197,"Sonr":11198,"ĠModa":11199,"CO":11200,"ĠrazÄ±":11201,"Ġkesintisiz":11202,"Ġmant":11203,"mart":11204,"Ġyollar":11205,"âĢ¦\"":11206,"Ġrot":11207,"Ġtarihsel":11208,"ografi":11209,"Ġuzanan":11210,"ĠDes":11211,"ĠÃľniversite":11212,"LET":11213,"ĠkullanÄ±cÄ±lara":11214,"Ġmotosiklet":11215,"Ġnitelendir":11216,"ĠBlu":11217,"ĠaraÃ§larÄ±n":11218,"Ġyolun":11219,"Ġgetirilmesi":11220,"ĠYÃĸN":11221,"ĠÃ¶fk":11222,"Ġbilmiyor":11223,"Ġredded":11224,"Ġseviyeye":11225,"ĠKey":11226,"ĠMÃ¼slÃ¼m":11227,"ĠsÄ±ralan":11228,"Ġdayanan":11229,"Ġbran":11230,"ĠEkrem":11231,"ĠDeÄŁiÅŁik":11232,"Muh":11233,"Ġertelen":11234,"Ã¼nc":11235,"ĠprogramÄ±na":11236,"±cÄ±sÄ±":11237,"Ä±cÄ±sÄ±":11238,"gele":11239,"ĠsayfasÄ±nda":11240,"ĠSÃ¶zleÅŁmesi":11241,"ĠkaÄŁÄ±":11242,"abilmeniz":11243,"resel":11244,"lerimizde":11245,"Ġbulgu":11246,"osunu":11247,"Ġtaht":11248,"ĠKÃ¼rd":11249,"ĠyatÄ±rÄ±mlar":11250,"ew":11251,"elin":11252,"Ġekleyin":11253,"ĠgeÃ§ecek":11254,"ĠTEM":11255,"ĠProt":11256,"fon":11257,"ileriyle":11258,"ĠkatlÄ±":11259,"ĠÃ§alÄ±ÅŁanlarÄ±n":11260,"ĠTÃ¼ket":11261,"Ġkurdu":11262,"Ġdaim":11263,"Ġliman":11264,"89":11265,"ĠkampanyasÄ±":11266,"mazon":11267,"Ġkendimizi":11268,"acaÄŁÄ±nÄ±zÄ±":11269,"Ġhocam":11270,"Ġtehlike":11271,"ĠhesabÄ±nÄ±z":11272,"ĠZeytin":11273,"ĠÃ¶nder":11274,"Ġiktis":11275,"Ġerdi":11276,"iÄŁini":11277,"ĠÅŀart":11278,"ĠvazgeÃ§ilmez":11279,"ĠtasarlanmÄ±ÅŁ":11280,"ĠÅŁÃ¶":11281,"ĠOkunma":11282,"kay":11283,"Ġsemt":11284,"ĠsÃ¶yleyebiliriz":11285,"rettin":11286,"ĠsÃ¶yleyerek":11287,"ĠoluÅŁuyor":11288,"ORUM":11289,"Ġfes":11290,"ĠkuruluÅŁlarÄ±":11291,"ĠGÃ¶nÃ¼l":11292,"ĠÃĩoÄŁu":11293,"erleri":11294,"KUR":11295,"ĠyÃ¼zyÄ±lda":11296,"Ø±":11297,"fone":11298,"ĠsÃ¼rdÃ¼rdÃ¼":11299,"ĠEUR":11300,"ĠtutarÄ±":11301,"ĠTuz":11302,"Ġburadaki":11303,"ĠkurduÄŁu":11304,"ĠMoskova":11305,"ĠKesin":11306,"Ìĩ":11307,"Åŀirket":11308,"ĠkÄ±yÄ":11309,"ĠFay":11310,"ĠkÄ±yÄ±":11311,"Ġ81":11312,"400":11313,"TÄ°R":11314,"ahi":11315,"Ġevlat":11316,"Ġverdikleri":11317,"ĠgerÃ§ekleÅŁtirdiÄŁi":11318,"ĠdediÄŁ":11319,"nci":11320,"ĠTest":11321,"ĠbaÅŁlÄ±ÄŁÄ±":11322,"abiliyorsunuz":11323,"dÃ¼ÄŁÃ¼nde":11324,"ĠKomut":11325,"Ġbaraj":11326,"ĠkolaydÄ±r":11327,"ĠiÅŁÃ§iler":11328,"ĠyÄ±kama":11329,"Ġyazmak":11330,"Ġbenzersiz":11331,"Pan":11332,"Ä±ysanÄ±z":11333,"ĠonarÄ±m":11334,"ĠiÅŁken":11335,"Bin":11336,"ĠyazÄ±mÄ±zda":11337,"Konu":11338,"Ġifadesi":11339,"ĠsaÄŁlanan":11340,"ĠgeÃ§mesi":11341,"ĠRef":11342,"ĠYunus":11343,"irleri":11344,"ĠSÃ¼n":11345,"ĠoluÅŁmaktadÄ±r":11346,"ĠSÄ±cak":11347,"Ġsitelerinde":11348,"dÄ±ÄŁÄ±ndan":11349,"Ġsep":11350,"ĠÅŁeref":11351,"ĠdÃ¼zeni":11352,"ĠÄ°lÃ§esi":11353,"Ġdalgalan":11354,"hen":11355,"Ġatmak":11356,"ĠOs":11357,"ĠMavi":11358,"AltÄ±n":11359,"ĠgerÃ§ekleÅŁtirilecek":11360,"ĠfÄ±kr":11361,"Ġbirikim":11362,"Ġemanet":11363,"ĠkuÅŁk":11364,"ĠÄ°bn":11365,"ĠSoru":11366,"ĠOrada":11367,"ĠgeleceÄŁe":11368,"ĠgerÃ§ekleÅŁtirmek":11369,"ĠoluÅŁturuyor":11370,"ĠistediÄŁim":11371,"hale":11372,"ĠamaÃ§la":11373,"Az":11374,"Ä±rÄ±l":11375,"ĠGEN":11376,"ĠolacaÄŁÄ±na":11377,"ĠModelleri":11378,"Ġsantral":11379,"Ġdomates":11380,"Pr":11381,"Ġdepo":11382,"ĠdÃ¶rdÃ¼ncÃ¼":11383,"klar":11384,"ĠÃ¼retici":11385,"ĠHÃ¼kÃ¼met":11386,"ĠÃ¼lkeyi":11387,"Ac":11388,"ĠkadÄ±nÄ±":11389,"Ã¶ren":11390,"YK":11391,"idir":11392,"ĠprogramÄ±nda":11393,"Ġsizlerin":11394,"eck":11395,"ĠbaÄŁlantÄ±sÄ±":11396,"ĠtamamÄ±nÄ±":11397,"olos":11398,"afak":11399,"ladÄ±klarÄ±":11400,"Ġkurucusu":11401,"ĠÃ¼rÃ¼nlerini":11402,"Ġtuvalet":11403,"ĠAvustralya":11404,"Ġverirken":11405,"ukar":11406,"ĠaldÄ±ÄŁÄ±m":11407,"Ġtarihten":11408,"odafone":11409,"ĠÄ°nce":11410,"Ġderhal":11411,"ĠEdit":11412,"Ġsahibinin":11413,"ĠSoylu":11414,"Ġusta":11415,"ĠkuruÅŁ":11416,"ĠyapÄ±ÅŁ":11417,"Ġpik":11418,"Ġetmenin":11419,"Ġiv":11420,"ĠYolu":11421,"ĠbasÄ±nÃ§":11422,"Ã¡":11423,"ĠyÃ¶neticileri":11424,"Ġbelirtmek":11425,"ĠÅŁÃ¼phel":11426,"ĠBasketbol":11427,"ĠalÄ±ÅŁkanlÄ±k":11428,"ms":11429,"ĠBilgiler":11430,"ĠLÃ¼tfen":11431,"beyaz":11432,"ĠyaptÄ±ÄŁÄ±m":11433,"ĠMy":11434,"ĠgeÃ§irdiÄŁi":11435,"ĠbaÅŁlatÄ±lan":11436,"gn":11437,"lass":11438,"Ġoksi":11439,"Ġsezonu":11440,"ÌĪ":11441,"Ġmenfaat":11442,"SM":11443,"ĠÃ§Ä±l":11444,"amda":11445,"ĠbaÅŁlayarak":11446,"ĠkÃ¼tÃ¼phan":11447,"ĠkÃ¶ylÃ¼":11448,"ĠmÃ¼cadelesi":11449,"ĠdÃ¼ÅŁÃ¼nÃ¼yoruz":11450,"Ġkilometr":11451,"ĠgÃ¶rmez":11452,"tivasyon":11453,"ayollarÄ±":11454,"Mobil":11455,"ĠOna":11456,"Am":11457,"ĠBaÅŁbakanÄ±":11458,"Ġbag":11459,"Ġoturan":11460,"GÃ¼zel":11461,"ocam":11462,"73":11463,"avantaj":11464,"ĠOnlarÄ±n":11465,"tÃ¼ÄŁ":11466,"ĠhaftanÄ±n":11467,"ĠMe":11468,"ĠsorunlarÄ±nÄ±":11469,"ĠhesabÄ±nÄ±za":11470,"arlÄ±":11471,"ĠkoltuÄŁ":11472,"ĠZonguldak":11473,"Ġmotoru":11474,"ĠsÃ¼recin":11475,"RE":11476,"ĠÄ°sa":11477,"iral":11478,"Kaz":11479,"ĠKahramanmaraÅŁ":11480,"Com":11481,"erik":11482,"ĠgÃ¶zleri":11483,"ĠalÄ±nmÄ±ÅŁtÄ±r":11484,"ĠdeÄŁerlendirmeler":11485,"mayla":11486,"ĠpeÅŁinde":11487,"ĠÅŀeker":11488,"ĠBÃ¼y":11489,"ĠfÃ¼z":11490,"Mev":11491,"Ġkalmaz":11492,"Ġeklendi":11493,"dÄ±zÄ±":11494,"Ġviz":11495,"ĠnoktasÄ±na":11496,"ĠkullanÄ±lacak":11497,"Ġgittim":11498,"kif":11499,"ĠFel":11500,"weet":11501,"Gazet":11502,"Ya":11503,"ĠÃ§Ã¶zÃ¼nÃ¼r":11504,"Ġmineral":11505,"ĠhayatÄ±nÄ±n":11506,"minin":11507,"ĠbaÅŁlamadan":11508,"Ġba":11509,"ĠÃ¶ncÃ¼":11510,"TER":11511,"Ġfilmleri":11512,"artÄ±n":11513,"Ġfav":11514,"ĠErdem":11515,"ĠFuarÄ±":11516,"ĠGÃ¶khan":11517,"ĠdÃ¼ÅŁÃ¼nÃ¼n":11518,"ĠÄ±sÄ±n":11519,"Â°":11520,"baÄŁ":11521,"ĠdeÄŁerler":11522,"tiy":11523,"landÄ±ÄŁÄ±nÄ±":11524,"Ġelden":11525,"LAÅŀ":11526,"Ġhormon":11527,"Ġ2001":11528,"nal":11529,"Ġplanlanan":11530,"Ġklas":11531,"Ġbulma":11532,"ĠyaÄŁlÄ±":11533,"EÅŁ":11534,"!âĢĿ":11535,"lish":11536,"ĠgideceÄŁ":11537,"ĠBerlin":11538,"Ġtarafa":11539,"Ġoto":11540,"Ġbireyler":11541,"ĠCey":11542,"atih":11543,"talama":11544,"Ġvurdu":11545,"Ġailesinin":11546,"Ġmuam":11547,"Ġinternetten":11548,"ĠkÄ±smÄ±na":11549,"ĠMit":11550,"Ã¼lÃ¼ÄŁ":11551,"ĠtutuklandÄ±":11552,"ledim":11553,"ĠEV":11554,"ĠbÄ±rakÄ±p":11555,"ĠyÃ¼zÃ¼nÃ¼":11556,"way":11557,"Mut":11558,"ĠÃ¶nlemler":11559,"ĠiÅŁsiz":11560,"ĠemeÄŁi":11561,"ĠfÄ±rÄ±n":11562,"Ä°ngiltere":11563,"Ä±klÄ±k":11564,"ĠNis":11565,"ĠgiriÅŁi":11566,"ras":11567,"ĠedeceÄŁini":11568,"ĠgÃ¶nderildi":11569,"ĠgenÃ§lerin":11570,"Ġkuruldu":11571,"ĠYAÅŀ":11572,"Med":11573,"lig":11574,"sy":11575,"Ġfet":11576,"amazsÄ±nÄ±z":11577,"daydÄ±":11578,"ĠMuhar":11579,"Ġkonulu":11580,"Ġ800":11581,"ĠIII":11582,"Ġetmesini":11583,"Ġkitle":11584,"AKP":11585,"ĠGay":11586,"Ì§":11587,"ĠaÃ§Ä±klamaya":11588,"Ġbelirlenmesi":11589,"ĠdevamlÄ±":11590,"ĠbulunmamaktadÄ±r":11591,"OG":11592,"ĠgeleceÄŁini":11593,"Ġhev":11594,"ĠyaptÄ±ktan":11595,"ĠhakkÄ±na":11596,"Ġfatura":11597,"Ġkep":11598,"ĠElektronik":11599,"HAL":11600,"Ġboru":11601,"ness":11602,"ĠkuruluÅŁu":11603,"ĠAlanya":11604,"ĠÃ§eliÅŁ":11605,"Ġgecesi":11606,"Ġnaz":11607,"isim":11608,"ĠgitmiÅŁ":11609,"elikopter":11610,"Ġmaddeleri":11611,"Ġco":11612,"ĠKadÄ±kÃ¶y":11613,"Ġinsanlarla":11614,"Ġyirmi":11615,"ĠatÃ¶ly":11616,"Ġiltih":11617,"Ġintik":11618,"ĠsunulmaktadÄ±r":11619,"ĠsÃ¶ylediÄŁi":11620,"ĠvasÄ±tasÄ±yla":11621,"Ġdesen":11622,"Ġmuayene":11623,"Ġmakul":11624,"ĠtaÅŁÄ±r":11625,"ĠsaÄŁlayÄ±cÄ±":11626,"Ġkast":11627,"ĠGÃ¼venilir":11628,"ĠGER":11629,"saray":11630,"Tam":11631,"Ġetmeyin":11632,"ĠkÃ¼m":11633,"Prof":11634,"Ġalam":11635,"ĠkurumlarÄ±n":11636,"ĠyÃ¼kÃ¼mlÃ¼lÃ¼k":11637,"ĠTÃ¼rkler":11638,"Ġ52":11639,"Ġge":11640,"ĠgeÃ§miÅŁte":11641,"ozit":11642,"DÃ¼ÅŁ":11643,"ptom":11644,"ĠCihaz":11645,"ĠolanlarÄ±":11646,"ĠbÃ¶brek":11647,"ĠtanÄ±nan":11648,"ĠAmerikalÄ±":11649,"ĠBunlarÄ±":11650,"ĠmenÃ¼":11651,"ĠÃĩorum":11652,"Ġbelirlenir":11653,"ony":11654,"Ġmag":11655,"ĠMÃ¼dÃ¼rlÃ¼ÄŁ":11656,"ĠgelmiÅŁti":11657,"ĠToprak":11658,"62":11659,"ĠEkran":11660,"ĠdÃ¼ÅŁÃ¼nceler":11661,"cilerin":11662,"ĠÄ°ÅŁlemleri":11663,"Ġifadesini":11664,"ĠgÃ¶zÃ¼":11665,"ĠparasÄ±":11666,"ĠKDV":11667,"ĠkullanÄ±lÄ±yor":11668,"ĠYum":11669,"Ġklima":11670,"ĠFeth":11671,"ĠkardeÅŁim":11672,"Ġolmamak":11673,"ĠkÄ±zar":11674,"keme":11675,"Ã¼mde":11676,"ĠAhmed":11677,"mÃ®":11678,"gelen":11679,"Ġhe":11680,"Ġsade":11681,"ĠÅŁun":11682,"ĠrÃ¼ya":11683,"ĠsatÄ±lan":11684,"ĠKargo":11685,"ĠkonularÄ±nda":11686,"ECEK":11687,"ĠilaÃ§lar":11688,"Ġkendisinden":11689,"saspor":11690,"rul":11691,"ĠyaptÄ±klarÄ±nÄ±":11692,"ĠhÃ¼cre":11693,"Ã¼stri":11694,"ĠhÃ¼kÃ¼metin":11695,"ĠardÄ±":11696,"ART":11697,"NE":11698,"ĠkavuÅŁtur":11699,"ĠBonusu":11700,"Ġzihn":11701,"ozgat":11702,"Ġtakib":11703,"Ġsec":11704,"Ġfaaliyetlerini":11705,"ĠTed":11706,"ĠNerede":11707,"Ġfelaket":11708,"ĠyaÅŁar":11709,"Ã¼sÃ¼nde":11710,"lerimizden":11711,"Ġoperasyonu":11712,"ĠAdÄ±yaman":11713,"Koca":11714,"graf":11715,"Ġrahatlat":11716,"Merkez":11717,"Ġyorumu":11718,"Ġpres":11719,"ĠbaskÄ±n":11720,"ĠhaftasÄ±nda":11721,"ĠarasÄ±ndadÄ±r":11722,"ĠkÄ±t":11723,"ĠGelecek":11724,"Ġtespiti":11725,"ward":11726,"ĠÃľs":11727,"ĠKatÄ±lÄ±m":11728,"ingÃ¶l":11729,"ĠFÄ±rat":11730,"abildiÄŁi":11731,"Ġolmas":11732,"ĠYÄ±lÄ±":11733,"ilmeli":11734,"ĠÃ§amaÅŁÄ±r":11735,"Ġ2023":11736,"Ġordus":11737,"Ġayet":11738,"Ġkapsayan":11739,"Ġelbise":11740,"ĠbÃ¼rokr":11741,"TAL":11742,"here":11743,"ĠkurumlarÄ±":11744,"ĠkazanÄ±m":11745,"Ġharek":11746,"Ġkeyfini":11747,"ĠUN":11748,"read":11749,"300":11750,"ĠdoÄŁalgaz":11751,"ĠPil":11752,"Ã¢s":11753,"HY":11754,"Ġbelgeleri":11755,"ĠkararlarÄ±":11756,"ĠdÃ¶nemine":11757,"Ġhareketleri":11758,"arya":11759,"ĠÃ§alÄ±ÅŁanlar":11760,"Ġbulam":11761,"ĠyazÄ±lÄ±mÄ±":11762,"tÄ±nÄ±z":11763,"ĠilanlarÄ±":11764,"iÅŁle":11765,"ĠyÃ¼rÃ¼":11766,"Ġetsin":11767,"Ġokuyan":11768,"ĠPo":11769,"Ġvergisi":11770,"hep":11771,"ĠÃ¶tesinde":11772,"BAÅŀ":11773,"Ġyetmez":11774,"marÄ±m":11775,"ĠGÃľ":11776,"ĠVeri":11777,"Ġadil":11778,"amayacaÄŁÄ±":11779,"adis":11780,"Ġvas":11781,"Ġadmin":11782,"Ġyeterlidir":11783,"lenmektedir":11784,"ĠhastalÄ±ÄŁÄ±n":11785,"malarda":11786,"ĠKalite":11787,"Ã§ika":11788,"cesi":11789,"Ġpatron":11790,"Ġolduktan":11791,"Ġuygundur":11792,"Ġani":11793,"Ã¼cel":11794,"ĠtÃ¼ketimi":11795,"ĠpÃ¼r":11796,"ĠaldÄ±r":11797,"KaynakÃ§a":11798,"caya":11799,"Ġrady":11800,"ĠpuanÄ±":11801,"Hayat":11802,"baba":11803,"Post":11804,"ĠayaÄŁa":11805,"ĠIÃ§in":11806,"Ñģ":11807,"Ġaktaran":11808,"ĠKars":11809,"Ġtelaf":11810,"Bank":11811,"Ġpamuk":11812,"ARK":11813,"ĠkeÅŁfed":11814,"Ġsorusu":11815,"Ġambulans":11816,"Ġatarak":11817,"Ġmutlak":11818,"Sp":11819,"Ġhacmi":11820,"ĠTOP":11821,"MHP":11822,"Ġarazi":11823,"ĠteÅŁhis":11824,"ĠbaÅŁlÄ±ca":11825,"ĠÃ§Ã¶zÃ¼l":11826,"Ġbest":11827,"Ġemperyal":11828,"ehri":11829,"lerinizin":11830,"Ġvermez":11831,"ÃĸY":11832,"Ġbakter":11833,"oss":11834,"abilirim":11835,"don":11836,"mayacaktÄ±r":11837,"unuzda":11838,"Ġesir":11839,"Ġmemnuniyeti":11840,"Ġkopar":11841,"ĠaydÄ±r":11842,"Ġzan":11843,"Ġihrac":11844,"Ġsalonu":11845,"ĠMilliyet":11846,"Ä±tma":11847,"ĠUSB":11848,"Ġanayas":11849,"erin":11850,"ĠErol":11851,"ĠÅŀekil":11852,"Ġgeleni":11853,"ĠÃĩocuklar":11854,"ĠyenilikÃ§i":11855,"ĠÃ§ekilen":11856,"ĠHoÅŁ":11857,"Ġokuyucu":11858,"Ġtersine":11859,"Olay":11860,"Ġsizde":11861,"eliyiz":11862,"?'":11863,"alisyon":11864,"ĠOlim":11865,"ĠsonlandÄ±r":11866,"Ġetkinlikleri":11867,"osun":11868,"Ġherhalde":11869,"ĠoyuncularÄ±n":11870,"DevamÄ±nÄ±":11871,"ĠDavutoÄŁlu":11872,"Ġdiyorlar":11873,"ĠsalgÄ±nÄ±":11874,"Ġrivayet":11875,"ĠuyuÅŁ":11876,"ĠÃ¼zÃ¼l":11877,"ĠhazÄ±rladÄ±ÄŁÄ±":11878,"ĠtÃ¼f":11879,"ĠÄ°ÅŁletme":11880,"ĠTv":11881,"ĠMetal":11882,"Ä±lacaktÄ±r":11883,"ĠdolarÄ±":11884,"ĠgÃ¶receksiniz":11885,"ĠkonuÅŁmada":11886,"ĠAÅŀ":11887,"ĠDevam":11888,"Ġmevki":11889,"ĠmÃ¼racaat":11890,"mece":11891,"ĠPlus":11892,"ĠÃ¼cretli":11893,"fez":11894,"ĠaÃ§Ä±p":11895,"ĠyaÅŁandÄ±ÄŁÄ±":11896,"ĠEL":11897,"ĠSte":11898,"Ġlin":11899,"ĠÃ¶ÄŁrenim":11900,"ĠyazdÄ±r":11901,"ĠyÃ¶nelt":11902,"Ġmahkum":11903,"ĠÃ§alÄ±ÅŁmanÄ±n":11904,"Ġformat":11905,"mektir":11906,"ĠÄ°laÃ§":11907,"Ġkusursuz":11908,"sede":11909,"Ġgiriyor":11910,"ĠkullanÄ±ÅŁlÄ±":11911,"Ġhek":11912,"Ġgetirecek":11913,"veni":11914,"ilerimiz":11915,"ĠaÅŁÄ±k":11916,"ĠatÄ±ÅŁ":11917,"gÃ¼ven":11918,"Ġ54":11919,"ĠÅŀef":11920,"ĠsaÄŁlayarak":11921,"Ġkendime":11922,"ĠkÄ±smen":11923,"ĠNAS":11924,"ĠgÃ¶stererek":11925,"aklÄ±k":11926,"ashington":11927,"Ġsevdik":11928,"HAN":11929,"acan":11930,"Ġhavada":11931,"ĠbÃ¼yÃ¼yen":11932,"ĠalacaÄŁÄ±":11933,"ĠbardaÄŁÄ±":11934,"Ġthis":11935,"ĠEvren":11936,"AG":11937,"ĠmÃ¼ddet":11938,"Ġtahsis":11939,"ĠalgÄ±":11940,"Ġmuhalif":11941,"Ġfot":11942,"ĠBekir":11943,"ubat":11944,"aspor":11945,"epyeni":11946,"ĠSayf":11947,"Ġfabrika":11948,"ĠkullanÄ±cÄ±larÄ±na":11949,"ĠiÃ§ten":11950,"Bitcoin":11951,"ĠkÄ±yasla":11952,"ĠsÄ±nÄ±rÄ":11953,"ĠsÄ±nÄ±rÄ±":11954,"ĠtÄ±klayÄ±nÄ±z":11955,"ĠYouTube":11956,"Ġkont":11957,"ĠdilediÄŁiniz":11958,"Ġoyunda":11959,"Ġgereksinim":11960,"ĠiÅŁsizlik":11961,"ĠMarket":11962,"ĠAÄŁrÄ±":11963,"Ġolgu":11964,"ĠvermiÅŁtir":11965,"ĠyaÅŁamÄ":11966,"ĠyaÅŁamÄ±":11967,"Ġdurak":11968,"ĠHazret":11969,"ĠolasÄ±lÄ±k":11970,"ĠBAK":11971,"ĠavantajlarÄ±":11972,"Ġendeksi":11973,"ĠiÅŁg":11974,"ĠGiriÅŁim":11975,"ĠsaÄŁlayabilirsiniz":11976,"ĠkoÅŁullar":11977,"ĠTurgut":11978,"ĠSistemleri":11979,"uÃ§larÄ±":11980,"ĠyaÅŁamÄ±ÅŁ":11981,"ĠkanÄ±":11982,"ĠÄ°sviÃ§re":11983,"ĠSekreteri":11984,"ĠAyÅŁe":11985,"alÄ±yÄ±z":11986,"ĠgÃ¼Ã§leri":11987,"Ġhoca":11988,"uhan":11989,"ĠoÄŁlum":11990,"ĠTol":11991,"ĠRak":11992,"sch":11993,"Ã§inin":11994,"Ġzeka":11995,"Ġtahliye":11996,"ĠkitabÄ±n":11997,"Ġtansiyon":11998,"une":11999,"Ġkaydedildi":12000,"sion":12001,"orn":12002,"Twitter":12003,"inler":12004,"acaklarÄ±nÄ±":12005,"Ġertel":12006,"ĠÃ§Ä±kmÄ±ÅŁtÄ±r":12007,"ĠyaratÄ±":12008,"Ġdk":12009,"ĠBirlik":12010,"ĠgeÃ§in":12011,"Ùĳ":12012,"ĠKi":12013,"ÑĢ":12014,"Not":12015,"ĠRektÃ¶r":12016,"Ġmuhabbet":12017,"Ġileride":12018,"Ġasans":12019,"ĠhazÄ±rlanÄ±yor":12020,"ĠmeÅŁgul":12021,"Ġhaliyle":12022,"ĠhastalarÄ±n":12023,"Ġoturma":12024,"ĠYorumlarÄ±":12025,"?\"":12026,"ĠKuran":12027,"Ġkablosuz":12028,"ĠkiÅŁileri":12029,"Ġetmiyor":12030,"ĠKarÅŁÄ":12031,"ĠKarÅŁÄ±":12032,"Ġaksiyon":12033,"ĠdoÄŁu":12034,"ĠSendik":12035,"ĠPamuk":12036,"Ġverilerine":12037,"ahisar":12038,"lib":12039,"ĠyapmÄ±ÅŁtÄ±r":12040,"ĠbabasÄ±nÄ±n":12041,"ÙĪ":12042,"ĠsÃ¼recine":12043,"Ġuygulay":12044,"wei":12045,"ĠvakÄ±f":12046,"ĠkiralÄ±k":12047,"ĠBatman":12048,"ĠSigort":12049,"ĠcevabÄ±nÄ±":12050,"Ġkavga":12051,"ĠÃ§Ä±rp":12052,"ĠEkip":12053,"ĠÃ§Ä±karÄ±":12054,"OZ":12055,"ĠGre":12056,"onim":12057,"Ġkanseri":12058,"omen":12059,"Ġyaratmak":12060,"ĠgÃ¶rÃ¼ldÃ¼ÄŁÃ¼":12061,"Ġetap":12062,"oban":12063,"Ġ59":12064,"ĠEdin":12065,"Ä°ran":12066,"Ġboyutlu":12067,"Ġhamur":12068,"ĠadamlarÄ±":12069,"ĠsevdiÄŁi":12070,"ĠTekirdaÄŁ":12071,"Ġkurtarma":12072,"ĠadÄ±mlarÄ±":12073,"ellef":12074,"ĠoluÅŁturma":12075,"inter":12076,"ĠyapÄ±lmasÄ±nÄ±":12077,"86":12078,"arlarÄ±":12079,"Press":12080,"ĠbaÅŁkanlÄ±k":12081,"gir":12082,"Ġhemde":12083,"yor":12084,"ĠGeniÅŁ":12085,"dini":12086,"Ġruhsat":12087,"Ġedilecektir":12088,"ĠÃĩALIÅŀ":12089,"Ġistemiyorum":12090,"AydÄ±n":12091,"yken":12092,"Ä°letiÅŁim":12093,"ĠduyarlÄ±":12094,"Ä±lmasÄ±nÄ±n":12095,"Ġyapmam":12096,"Ġyour":12097,"arka":12098,"Ġkurma":12099,"Ġhel":12100,"EG":12101,"Ġmezunu":12102,"Ġkongr":12103,"Mustafa":12104,"ware":12105,"Ġmetrekare":12106,"pol":12107,"Ġ85":12108,"ĠÅŁekillendir":12109,"ĠBirkaÃ§":12110,"Kitap":12111,"Ġminik":12112,"ĠgÃ¶zlerini":12113,"Ġkitaplar":12114,"Ġoranla":12115,"ĠAfganistan":12116,"ĠkÄ±lÄ±n":12117,"ĠyÄ±p":12118,"ĠÄ°Z":12119,"roup":12120,"ĠaktÃ¶r":12121,"Ġonar":12122,"NasÄ±l":12123,"Ġimparator":12124,"ĠNil":12125,"ĠVakÄ±f":12126,"Ġgene":12127,"Ġrica":12128,"Ġlev":12129,"Ġsaray":12130,"Ġedelim":12131,"ĠgÃ¶revleri":12132,"ĠAdnan":12133,"ĠyollarÄ±nÄ±":12134,"ĠolanaÄŁÄ±":12135,"ĠSAY":12136,"ĠrolÃ¼":12137,"DS":12138,"Ġmodeller":12139,"ĠYazÄ±lÄ±m":12140,"miyorum":12141,"Ġkonunun":12142,"SayÄ±n":12143,"âĢ¦âĢ¦âĢ¦âĢ¦":12144,"CA":12145,"ĠsÃ¼nnet":12146,"df":12147,"ĠkalkÄ±ÅŁ":12148,"Ġkonsept":12149,"ĠÃĩel":12150,"ĠGelir":12151,"ĠÃ¶ÄŁle":12152,"Ġzik":12153,"Ġdokuz":12154,"avÃ¼z":12155,"Ġsent":12156,"ĠdeÄŁerlendirmek":12157,"td":12158,"ĠmÃ¼cadelede":12159,"Ġdestekleyen":12160,"ĠolaylarÄ±n":12161,"ĠdÃ¶nÃ¼p":12162,"lerimizle":12163,"ĠsorumluluÄŁu":12164,"ĠKiÅŁi":12165,"ĠKomutanlÄ±ÄŁÄ±":12166,"Ġfiyatlarla":12167,"ĠUcuz":12168,"Ma":12169,"basÄ±":12170,"ĠÃĸdeme":12171,"iper":12172,"Ä±plak":12173,"ĠTRT":12174,"ĠsÄ±Ã§":12175,"Ġsebz":12176,"Film":12177,"ĠsÄ±kÄ±ÅŁ":12178,"ĠSy":12179,"Ã¼nt":12180,"ĠbaÄŁÄ±ÅŁÄ±klÄ±k":12181,"ĠyazÄ±lar":12182,"Ġtransferi":12183,"ĠSigorta":12184,"Ġfed":12185,"ĠsÃ¼recek":12186,"Ġseverlerin":12187,"ĠsaÄŁlanÄ±r":12188,"Ġcadde":12189,"post":12190,"ĠÃ¼lkeden":12191,"Ġimaj":12192,"ayÄ±z":12193,"oza":12194,"ĠÃľmit":12195,"ĠyasaÄŁÄ±":12196,"adar":12197,"Ġbeyn":12198,"ĠMemur":12199,"Ġbulunmayan":12200,"lÄ±ÄŁÄ±mÄ±z":12201,"Ġgazetesi":12202,"Ġilim":12203,"Ġmacer":12204,"ĠDÃ¶v":12205,"taydÄ±":12206,"istiyan":12207,"YapÄ±lan":12208,"king":12209,"delik":12210,"Ġpatates":12211,"Ġopt":12212,"ĠÃľlkemizde":12213,"Ġnumara":12214,"Ġcerrahi":12215,"ning":12216,"Ġsisteminde":12217,"Ġperakende":12218,"ĠÃ§adÄ±r":12219,"ĠTatlÄ±":12220,"ĠTom":12221,"erkan":12222,"ĠbÄ±rakmak":12223,"Ġklinik":12224,"ĠgeliÅŁtirilmesi":12225,"ĠÃ¶zelliklere":12226,"Ġkade":12227,"Ġ1999":12228,"ĠkÄ±rsal":12229,"viv":12230,"Ġgerilim":12231,"ĠBaÄŁÄ±m":12232,"ĠÃ¶rnekleri":12233,"Ġriskini":12234,"Ġadaylar":12235,"Ġedilmesini":12236,"ĠAsker":12237,"ĠÄ°daresi":12238,"Ġmantar":12239,"Ġinsani":12240,"!!!":12241,"luÄŁunun":12242,"Ġkoymak":12243,"indedir":12244,"Ġkurallar":12245,"ĠEz":12246,"lenebilir":12247,"Ġzira":12248,"Ġ56":12249,"Ġsez":12250,"Ġpeynir":12251,"Ġsefere":12252,"alanÄ±":12253,"grama":12254,"Ä±cÄ±lar":12255,"ĠGÃ¶lÃ¼":12256,"ĠGelin":12257,"ĠÃ§Ä±karÄ±lan":12258,"ĠSÄ±nÄ±r":12259,"idor":12260,"ĠKKTC":12261,"larÄ±nÄ±zda":12262,"ĠkaldÄ±rÄ±lmasÄ±":12263,"Ahmet":12264,"ĠbiÃ§imi":12265,"ĠBaÅŁkanÄ±mÄ±z":12266,"Ãľst":12267,"ĠseÃ§imleri":12268,"Ä±laÅŁtÄ±r":12269,"ĠkullanÄ±mÄ±na":12270,"Ġoc":12271,"ĠTev":12272,"ĠFaruk":12273,"uzun":12274,"iret":12275,"tiniz":12276,"ĠÃľzerine":12277,"ĠMali":12278,"MASI":12279,"Ġdudak":12280,"Ġva":12281,"Ġetkileyici":12282,"Ã¼sÃ¼ne":12283,"ĠmutluluÄŁ":12284,"ĠÃ¶zelliÄŁini":12285,"Ġyazma":12286,"ĠayÄ±n":12287,"Ġmg":12288,"ĠalÄ±ndÄ±ÄŁÄ±nda":12289,"And":12290,"Ġgelsin":12291,"Ġberek":12292,"ĠKudÃ¼s":12293,"ĠbaÅŁlamÄ±ÅŁtÄ±":12294,"ĠSezon":12295,"ĠfiyatlarÄ±nÄ±":12296,"uyuz":12297,"ĠfÄ±rsatlarÄ±":12298,"Anadolu":12299,"ĠkÃ¶yÃ¼":12300,"Suriye":12301,"ĠkatÄ±lÄ±mÄ±yla":12302,"adam":12303,"ĠdoÄŁdu":12304,"Ġbekliyorum":12305,"ĠgÃ¶rmeye":12306,"ĠgruplarÄ±":12307,"Ġedemez":12308,"ĠOne":12309,"ĠVergi":12310,"osa":12311,"Ġsolunum":12312,"Ġtedbirleri":12313,"ĠÃ¶yk":12314,"Ġsitesinden":12315,"ĠkazanÄ±r":12316,"eneksel":12317,"Ġborcu":12318,"ĠsayfasÄ±":12319,"ĠgÃ¶rÃ¼lebilir":12320,"ĠyeryÃ¼z":12321,"Fiyat":12322,"ĠdeÄŁiÅŁtirme":12323,"ISI":12324,"Ãľniversit":12325,"buki":12326,"Ġask":12327,"ĠÃ¶ÄŁrencinin":12328,"ĠaltÄ±ndan":12329,"ĠgerÃ§ekleÅŁtiren":12330,"ĠarÄ±za":12331,"rÃ¼":12332,"Ġkronik":12333,"ĠgenÃ§lik":12334,"Ġimar":12335,"ĠÄ°slami":12336,"cunun":12337,"Ä°V":12338,"edisi":12339,"Ġrakib":12340,"ĠkaldÄ±rmak":12341,".''":12342,"ĠKÄ±l":12343,"ĠdÃ¼ÅŁÃ¼yor":12344,"ĠAlex":12345,"usa":12346,"Ġ~":12347,"uawei":12348,"GÃ¼l":12349,"ĠSÃ¼rekli":12350,"ĠMadrid":12351,"lediÄŁini":12352,"ĠZafer":12353,"iyeler":12354,"ĠNef":12355,"Ġglobal":12356,"Ġyoksun":12357,"ĠyoÄŁunlaÅŁ":12358,"ĠyaÅŁÄ±yoruz":12359,"ĠKUL":12360,"Ġmeselesi":12361,"ĠKadar":12362,"ĠÅŀeyh":12363,"ĠvuruÅŁ":12364,"Ġstratejileri":12365,"back":12366,"ĠyapÄ±yorum":12367,"Ġgelmiyor":12368,"ĠÃĩor":12369,"ĠÃ§oÄŁunluÄŁu":12370,"Ġbuzdol":12371,"ĠyÄ±kan":12372,"ush":12373,"Ġmevdu":12374,"Ġsitelerinin":12375,"ĠTÃ¼rkÃ§":12376,"Ġuf":12377,"ipp":12378,"Ġalerj":12379,"amayacaÄŁÄ±nÄ±":12380,"ĠOperasyon":12381,"ĠimkÃ¢nÄ±":12382,"Ġbilinmeyen":12383,"BÄ°R":12384,"Fakat":12385,"ediyesi":12386,"meliyiz":12387,"Ġhikaye":12388,"OJ":12389,"ĠEvde":12390,"ĠBanka":12391,"ĠsÃ¶ndÃ¼r":12392,"ĠÃ§im":12393,"Ġteslimat":12394,"ĠÃ§oÄŁal":12395,"Ġ51":12396,"Ġtavan":12397,"idd":12398,"Ġhissi":12399,"ĠfaydalarÄ±":12400,"Ġbomba":12401,"ademi":12402,"Sh":12403,"alarÄ±ndaki":12404,"ĠÃľz":12405,"leks":12406,"Ġkayg":12407,"ayeti":12408,"cular":12409,"leÅŁtirilmiÅŁ":12410,"flix":12411,"ĠKaymakamÄ±":12412,"ĠrÃ¼zg":12413,"ĠyardÄ±mcÄ±sÄ±":12414,"sor":12415,"ĠAnlat":12416,"ĠdÄ±ÅŁarÄ±dan":12417,"ĠFon":12418,"ĠsandÄ±k":12419,"ĠyÃ¼zyÄ±lÄ±n":12420,"ĠKuruluÅŁ":12421,"ĠgeliÅŁmesi":12422,"Ġdeh":12423,"Ġsayfada":12424,"Ġkentin":12425,"ĠbakÄ±mdan":12426,"MÃ¼ÅŁter":12427,"au":12428,"ĠsÃ¼rÃ¼ÅŁ":12429,"ĠEst":12430,"ĠOpsiyon":12431,"ove":12432,"masÄ±dÄ±r":12433,"Ġvaran":12434,"ĠkapÄ±sÄ±":12435,"ĠdemiÅŁti":12436,"Ġdiyoruz":12437,"ĠNE":12438,"Ġkuran":12439,"Ġfilmler":12440,"ĠAst":12441,"ĠhÄ±rsÄ±z":12442,"ĠDu":12443,"iliÄŁe":12444,"ĠGam":12445,"imal":12446,"Ġrandevu":12447,"Ġetkinlikler":12448,"Ġbuhar":12449,"Ġsitemizde":12450,"Ġbelirtileri":12451,"Ġihbar":12452,"ĠtopraÄŁa":12453,"ĠgÃ¶rÃ¼ntÃ¼ler":12454,"ĠbaÅŁladÄ±ÄŁÄ±nÄ±":12455,"ĠÃ¶rgÃ¼":12456,"Ġdenildi":12457,"Ġnedenleri":12458,"Ġhayati":12459,"ĠBakanlÄ±k":12460,"ĠÃ¼cretleri":12461,"ĠiÅŁlerini":12462,"Ġ700":12463,"ĠkÃ¶mÃ¼r":12464,"Ä°KA":12465,"lerince":12466,"ĠalÄ±yoruz":12467,"ĠÃĸzcan":12468,"Ġkesint":12469,"ĠkarÅŁÄ±lay":12470,"emedim":12471,"antolon":12472,"Ġsaptan":12473,"anÃ§":12474,"Ä±lÄ±mÄ±":12475,"ĠRehberi":12476,"Ġkatman":12477,"ĠBilin":12478,"Telefon":12479,"ĠyaÅŁamÄ±n":12480,"ĠNik":12481,"ĠArama":12482,"ĠyapÄ±lacaÄŁÄ±":12483,"ĠÃ§arpÄ±cÄ±":12484,"izme":12485,"Ġtrav":12486,"ĠdeÄŁiliz":12487,"ĠMini":12488,"Ġbilmeyen":12489,"ĠKAT":12490,"ĠSelÃ§uklu":12491,"abol":12492,"dasÄ±":12493,"ĠkÃ¶ÅŁe":12494,"ĠgittiÄŁi":12495,"ĠtÄ±rnak":12496,"Ġzarf":12497,"ĠsÃ¶zlÃ¼":12498,"ĠyapÄ±lmalÄ±dÄ±r":12499,"vesi":12500,"Ġdinlem":12501,"ojen":12502,"Ġvakti":12503,"ement":12504,"ĠOldu":12505,"Ġ99":12506,"ĠfarkÄ±ndalÄ±k":12507,"ĠGelen":12508,"Ġgelmek":12509,"ĠaldÄ±ktan":12510,"ĠedeceÄŁi":12511,"Ġyatan":12512,"Ġmiyim":12513,"ĠbaÅŁrol":12514,"Ber":12515,"Tan":12516,"iew":12517,"atÃ§Ä±":12518,"ĠKurumsal":12519,"Ġanlatmak":12520,"calÄ±k":12521,"Can":12522,"atma":12523,"ĠÅŁap":12524,"ĠiÅŁine":12525,"ĠBizler":12526,"Yurt":12527,"ĠkÄ±smÄ±nÄ±n":12528,"ĠgÃ¶rÃ¼ntÃ¼lÃ¼":12529,"oyun":12530,"ĠdÃ¼zeyinde":12531,"ĠGeÃ§tiÄŁimiz":12532,"ĠÃ¼nit":12533,"ĠCap":12534,"fesÃ¶r":12535,"ĠsuÃ§lu":12536,"Ġbalkon":12537,"ĠsevinÃ§":12538,"mod":12539,"ĠFatma":12540,"ĠatÄ±n":12541,"Ġeti":12542,"Ġdiyalog":12543,"ĠhesabÄ±na":12544,"ĠtanrÄ±":12545,"ĠgerÃ§ekleÅŁecek":12546,"Ġsofr":12547,"iÄŁinin":12548,"Ġilde":12549,"Ekonomi":12550,"ater":12551,"Ġmuhat":12552,"ĠgerektiÄŁine":12553,"ĠÃ§Ä±ktÄ±ÄŁÄ±nÄ±":12554,"ref":12555,"Ġ1990":12556,"ĠMÄ°L":12557,"ĠÅŁÃ¼phesiz":12558,"leÄŁi":12559,"Ġ53":12560,"ĠBUL":12561,"afet":12562,"ĠAvusturya":12563,"ĠKurban":12564,"SÃ¼per":12565,"Ġifadeleri":12566,"ĠPrens":12567,"Ġfrom":12568,"ĠbaÄŁÄ±rsak":12569,"ĠSuper":12570,"ĠgÃ¶nderdi":12571,"Ġpis":12572,"Ã¼sÃ¼nÃ¼n":12573,"Ġdog":12574,"Ġsorul":12575,"ĠDiyanet":12576,"ĠdosyalarÄ±":12577,"ĠBelg":12578,"AtatÃ¼rk":12579,"Ġbenims":12580,"ĠSayÄ±":12581,"aÃ§lÄ±":12582,"SI":12583,"Ġtakibi":12584,"ĠyapÄ±lacaktÄ±r":12585,"ĠÃĸlÃ¼m":12586,"akt":12587,"iet":12588,"daha":12589,"Ġtoplama":12590,"CU":12591,"Ġeli":12592,"Ã¼se":12593,"Ġrev":12594,"Ġvarken":12595,"ĠÄ°mamoÄŁlu":12596,"ĠÃĩakÄ±r":12597,"ĠKodu":12598,"ĠRestor":12599,"ĠfarkÄ±na":12600,"ĠiÅŁlemlerinde":12601,"Ġgrubun":12602,"Ġtuhaf":12603,"ilyon":12604,"Ġevrensel":12605,"ĠayÄ±rt":12606,"AÅŁaÄŁÄ±":12607,"lÃ¼kte":12608,"ĠPazarlama":12609,"ĠÃ¼":12610,"falt":12611,"Ġekm":12612,"kÃ¶":12613,"Ġgruplar":12614,"Ġolabilmektedir":12615,"ĠÃ¶nlemleri":12616,"Ġmisin":12617,"Ġdonan":12618,"ĠTez":12619,"irkin":12620,"ĠÄ±ÅŁÄ±n":12621,"Ġtedavisinde":12622,"Ġveda":12623,"ĠsoÄŁan":12624,"ato":12625,"ĠElb":12626,"ĠsÃ¶zde":12627,"ADI":12628,"ĠÃ§eyr":12629,"Ġmerkezleri":12630,"aliman":12631,"Ĥ¬":12632,"alya":12633,"ĠkadÄ±nlara":12634,"ll":12635,"allÄ±":12636,"ĠÃ¼yeliÄŁ":12637,"ĠSad":12638,"âĢ¦\"\"":12639,"Bilim":12640,"ANLI":12641,"Ġazaltmak":12642,"ĠÅŁehrinde":12643,"eneral":12644,"aze":12645,"Ġhain":12646,"deÄŁer":12647,"ĠEsas":12648,"ĠbaÅŁlÄ±":12649,"ĠSAÄŀ":12650,"ĠyapmanÄ±n":12651,"âĹ":12652,"ĠkurallarÄ±na":12653,"ĠdireniÅŁ":12654,"ĠbebeÄŁin":12655,"ĠvÃ¼cudun":12656,"ĠOlarak":12657,"Ġcazip":12658,"ĠÃĩIK":12659,"ĠAkÅŁam":12660,"usuyla":12661,"SE":12662,"KiÅŁisel":12663,"Ä±nÄ±p":12664,"leye":12665,"rekans":12666,"ĠtamamlandÄ±":12667,"ĠÃ§iÃ§":12668,"ĠFull":12669,"ĠyaÅŁadÄ±klarÄ±":12670,"ĠuygulamayÄ±":12671,"asp":12672,"ĠdeÄŁiÅŁir":12673,"ĠparÃ§alar":12674,"ĠPaket":12675,"yetik":12676,"Ġkapasitesi":12677,"able":12678,"ott":12679,"Ġ1980":12680,"Ġkurumu":12681,"ĠsÄ±rasÄ±yla":12682,"lenmiÅŁtir":12683,"ĠsÃ¼p":12684,"oksi":12685,"Ġtopluma":12686,"ĠLir":12687,"ĠRisk":12688,"ford":12689,"Ġvaat":12690,"astÄ±k":12691,"TAR":12692,"ĠIsparta":12693,"ĠyaptÄ±lar":12694,"ĠbildiÄŁi":12695,"Ġfacebook":12696,"ĠgiriÅŁimi":12697,"OVID":12698,"luÄŁuna":12699,"ĠgÃ¶lg":12700,"ĠseÃ§men":12701,"iÄŁde":12702,"ĠCemal":12703,"ĠkonuÅŁmasÄ±nda":12704,"MB":12705,"Ã¼zÃ¼n":12706,"ispor":12707,"Ġisabet":12708,"Ġmimari":12709,"Ġenstr":12710,"ĠyÃ¶nÃ¼nden":12711,"Ġgenetik":12712,"Ġdilerim":12713,"ĠÃ¶dÃ¼lÃ¼":12714,"Siyas":12715,"Met":12716,"Ġbuluyor":12717,"ĠcoÅŁk":12718,"Ġ68":12719,"ĠWe":12720,"Ã¼kemmel":12721,"Ġdersi":12722,"ĠKAP":12723,"emeye":12724,"ĠkaldÄ±m":12725,"Konya":12726,"Bilg":12727,"Ġkopy":12728,"Ġyerin":12729,"ĠtÃ¼n":12730,"Halk":12731,"ĠettiÄŁim":12732,"Ġemeklilik":12733,"KÄ":12734,"Ġtir":12735,"ĠavantajÄ":12736,"ĠavantajÄ±":12737,"Ä±lÄ±rsa":12738,"IST":12739,"Ġkot":12740,"ĠkararlÄ±":12741,"ĠÄ°skender":12742,"Ġ57":12743,"ĠYÄ±k":12744,"ĠtÃ¶reni":12745,"Turk":12746,"eÄŁince":12747,"navut":12748,"GÃ¶":12749,"ĠToplantÄ±sÄ±":12750,"Ġkilis":12751,"imizdeki":12752,"Ġilgisini":12753,"ĠetkileÅŁim":12754,"Ġfiz":12755,"Ġberaberlik":12756,"ĠDemirtaÅŁ":12757,"Ham":12758,"ĠyukarÄ±daki":12759,"ĠÃĸzkan":12760,"ĠBileti":12761,"ĠÅŁampiyonluk":12762,"ĠolmayacaktÄ±r":12763,"ski":12764,"Ġyemin":12765,"Ġinternette":12766,"ĠsÃ¶zleÅŁmeler":12767,"Ġ(%":12768,"Ġparam":12769,"ĠdayanÄ±k":12770,"ĠmaÄŁaza":12771,"ĠLED":12772,"age":12773,"ĠEsnaf":12774,"lenin":12775,"ĠÄ°spanyol":12776,"Ġbam":12777,"ĠliralÄ±k":12778,"ĠAVM":12779,"ĠkazanmÄ±ÅŁ":12780,"ĠâĨ":12781,"ĠÄĲ":12782,"Ġhalini":12783,"gov":12784,"Ġarm":12785,"ĠÃ§aÄŁrÄ±sÄ±":12786,"ĠkurÅŁun":12787,"AraÅŁtÄ±r":12788,"Ġduv":12789,"ĠtaÅŁÄ±maktadÄ±r":12790,"Ġiyidir":12791,"iirt":12792,"Ġokulda":12793,"Ġster":12794,"Ġotopark":12795,"Ġistediklerini":12796,"Ġoldular":12797,"ilemez":12798,"Ġsesini":12799,"ĠbuÄŁday":12800,"ĠKaldÄ±r":12801,"ĠPutin":12802,"ĠbuÃ§uk":12803,"cÄ±oÄŁlu":12804,"ĠoranÄ±nÄ±n":12805,"ederal":12806,"bab":12807,"Ġdepresyon":12808,"!)":12809,"ĠkazÄ":12810,"ĠkazÄ±":12811,"Ġiyilik":12812,"Ġkurut":12813,"Ġuygulamak":12814,"Ġadresinden":12815,"ĠTrafik":12816,"ĠGezi":12817,"ĠkandÄ±r":12818,"osya":12819,"Ġdezavantaj":12820,"eza":12821,"ĠgÃ¶revlisi":12822,"Ġduyan":12823,"lil":12824,"ĠyayÄ±nladÄ±":12825,"ĠyaÅŁadÄ±k":12826,"ladÄ±ÄŁÄ±nÄ±z":12827,"imasyon":12828,"ĠmÃ¼c":12829,"ont":12830,"ĠbahÃ§e":12831,"ĠyaÅŁta":12832,"ĠÃ¶te":12833,"ĠiÃ§me":12834,"ĠEve":12835,"Ġnazaran":12836,"ĠbranÅŁ":12837,"ĠsonuÃ§larÄ±nÄ±":12838,"ĠÃ§alÄ±ÅŁmada":12839,"ĠChat":12840,"ĠLin":12841,"ĠsÄ±nÄ±rsÄ±z":12842,"KARA":12843,"ĠAngel":12844,"ĠFazla":12845,"ĠbeÄŁeni":12846,"SonuÃ§":12847,"ĠasansÃ¶r":12848,"ĠBaÅŁakÅŁehir":12849,"ĠyazÄ±da":12850,"2006":12851,"Ġtarihlerinde":12852,"acÄ±lar":12853,"ĠyÃ¼kleme":12854,"Ġdestekler":12855,"ĠUmut":12856,"Ġkurtulmak":12857,"ĠbankacÄ±lÄ±k":12858,"Hav":12859,"taraf":12860,"ĠAnaliz":12861,"ĠÃ§Ã¶zmek":12862,"Ġortal":12863,"icil":12864,"Ġdurumdan":12865,"Ġhizmetlerin":12866,"ĠbÃ¶cek":12867,"ĠÃĸlÃ§":12868,"Ġzihinsel":12869,"ĠkÃ¼p":12870,"Ġkendiniz":12871,"ĠOtur":12872,"ĠSerdar":12873,"Madde":12874,"Ġihan":12875,"ĠÃľnal":12876,"ĠSÃ¶y":12877,"ĠÃ¼lkelere":12878,"Ġkatil":12879,"Ġlaboratuvar":12880,"ĠSiyaset":12881,"html":12882,"Ġeserleri":12883,"Ġkib":12884,"ĠÄ°stiklal":12885,"ĠihtiyacÄ±nÄ±":12886,"Ġfinansman":12887,"ĠBakÄ±r":12888,"Yol":12889,"ĠRadyo":12890,"kileri":12891,"ĠEngin":12892,"Ġaynen":12893,"ĠStandart":12894,"Ġgebelik":12895,"Ä°F":12896,"Ġburs":12897,"att":12898,"Ġimal":12899,"Ġmelek":12900,"Ġfiziki":12901,"ĠsayÄ±sÄ±z":12902,"ĠkÃ¢ÄŁ":12903,"Ä°LÄ°R":12904,"ĠÃ§Ä±karan":12905,"ĠOtomobil":12906,"Online":12907,"ĠÄ°f":12908,"akkak":12909,"Ä±yan":12910,"Ġhepimizin":12911,"Ùĩ":12912,"mun":12913,"ĠWorld":12914,"deler":12915,"lÃ¼t":12916,"ĠdoÄŁrultu":12917,"Ġokudum":12918,"hael":12919,"OsmanlÄ±":12920,"Ġekipler":12921,"ternational":12922,"ĠÄ°htiy":12923,"ĠdiÄŁerleri":12924,"ĠArapÃ§a":12925,"ĠBilimleri":12926,"Ġkenara":12927,"Ġmaddesinin":12928,"Ġemri":12929,"ĠdÃ¼zenlemeler":12930,"ĠMU":12931,"Ġslogan":12932,"ĠmÃ¼dÃ¼rÃ¼":12933,"ĠUm":12934,"Ġbahisleri":12935,"Ġfiil":12936,"Ã»r":12937,"MÃ¼":12938,"Ġbitkiler":12939,"Ġtakvim":12940,"EDÄ°":12941,"ĠEp":12942,"pas":12943,"ĠdÃ¼zenledi":12944,"ĠMutfak":12945,"ĠÄ±ÅŁÄ±ÄŁÄ±":12946,"ĠGeliÅŁtirme":12947,"ĠHikay":12948,"Ġaramak":12949,"ĠSonrasÄ±nda":12950,"Tes":12951,"sÃ¶z":12952,"Ä°LM":12953,"ĠAdÄ±m":12954,"Ġrep":12955,"ĠkÄ±lan":12956,"Ġgeldim":12957,"ĠFizik":12958,"ĠnamazÄ±":12959,"steri":12960,"biyotik":12961,"ĠÅŁaÅŁkÄ±n":12962,"Le":12963,"Ġkarara":12964,"ĠKapÄ":12965,"ĠKapÄ±":12966,"Ġgrev":12967,"tuÄŁrul":12968,"ĠfotoÄŁraflarÄ±":12969,"ĠÅŀÃ¼k":12970,"ĠbaÅŁladÄ±lar":12971,"icilerin":12972,"ĠMevcut":12973,"ĠYahudi":12974,"ĠdurumlarÄ±":12975,"Ġalign":12976,"Ġ72":12977,"Ġvermey":12978,"Ġtedbirler":12979,"Ġhuzurlu":12980,"ĠaÃ§Ä±n":12981,"ĠLink":12982,"ĠalkÄ±ÅŁ":12983,"ĠKongresi":12984,"Ġkomb":12985,"ĠgÃ¶rÃ¼yorum":12986,"Ġcild":12987,"ĠPiyasasÄ±":12988,"Ġfrag":12989,"ĠZamanÄ±":12990,"ĠSorun":12991,"ĠProfesyonel":12992,"SUN":12993,"Ġlistesinde":12994,"ĠAvrup":12995,"leki":12996,"ahit":12997,"AMAN":12998,"ĠFiyatÄ":12999,"ĠFiyatÄ±":13000,"ĠMusa":13001,"memiÅŁtir":13002,"ĠLibya":13003,"Ġaya":13004,"ahtarÄ±":13005,"CanlÄ±":13006,"ĠKural":13007,"rama":13008,"Ġbutonuna":13009,"ĠyazÄ±yor":13010,"Ġreaksiyon":13011,"Ġgraf":13012,"IV":13013,"ĠÃĩocuÄŁ":13014,"ĠiÅŁareti":13015,"Ġunvan":13016,"Ġsag":13017,"ĠyaÅŁamaya":13018,"umda":13019,"ĠKPSS":13020,"ĠolmaksÄ±zÄ±n":13021,"ĠfotoÄŁrafÄ":13022,"ĠfotoÄŁrafÄ±":13023,"Ġhayv":13024,"ĠihtiyacÄ±mÄ±z":13025,"mamalÄ±":13026,"Ġserin":13027,"Ġhissede":13028,"Ġbeklemek":13029,"dÃ®":13030,"ĠsÃ¶zÃ¼nÃ¼":13031,"Ã¼phe":13032,"indan":13033,"Ġlazer":13034,"ĠÃ§ekt":13035,"ĠgÃ¼b":13036,"ĠaktardÄ±":13037,"Ġbelirtiliyor":13038,"ĠyÃ¶netiminin":13039,"Ġkentinde":13040,"ĠdÃ¶neme":13041,"ivert":13042,"ĠAvukat":13043,"sir":13044,"ĠtarayÄ±cÄ±":13045,"Ġsistemler":13046,"ĠÃľrÃ¼nleri":13047,"Ġmaddesinde":13048,"GÃ¼nÃ¼mÃ¼zde":13049,"chain":13050,"ila":13051,"Ġdahaki":13052,"Is":13053,"ĠgereÄŁince":13054,"Ġdersleri":13055,"ĠTrend":13056,"Ġtoplumu":13057,"aktif":13058,"ĠoruÃ§":13059,"ĠzamanÄ±n":13060,"Home":13061,"sub":13062,"arm":13063,"fice":13064,"Ġgirmesi":13065,"ĠKitab":13066,"ĠyaÅŁÄ±nday":13067,"ĠbazÄ±nda":13068,"ĠBulgaristan":13069,"Ġsesle":13070,"Ġmasaya":13071,"Ġkokusu":13072,"ĠDÃ¶rt":13073,"ĠvatandaÅŁÄ":13074,"ĠvatandaÅŁÄ±":13075,"Ġdefalarca":13076,"ĠbakÄ±r":13077,"ĠÃ§Ä±kabilir":13078,"ĠGÃ¼ler":13079,"Ġtemizleme":13080,"TeÅŁ":13081,"KÃ¼ltÃ¼r":13082,"ĠkarÄ±ÅŁÄ±m":13083,"ĠKastamonu":13084,"lemi":13085,"ÑĤ":13086,"ifi":13087,"ĠKomutanÄ±":13088,"adÃ¼f":13089,"Ġyavru":13090,"Ġokulu":13091,"iba":13092,"kut":13093,"ĠAlÄ±ÅŁveriÅŁ":13094,"aydÄ±n":13095,"Ġoluyoruz":13096,"ĠVit":13097,"edd":13098,"ĠÅŁofÃ¶r":13099,"ĠÃĩukur":13100,"ĠEsen":13101,"ĠsÄ±kÄ±ÅŁtÄ±r":13102,"cim":13103,"Ġkadem":13104,"ĠsÄ±fat":13105,"Ġnisp":13106,"Ġvesil":13107,"ĠÄ°pek":13108,"Ġkorkut":13109,"ĠaÃ§arak":13110,"ĠÃ¼mit":13111,"Ġekonomisi":13112,"ĠdÃ¶kÃ¼l":13113,"ĠTUR":13114,"leyse":13115,"ĠÃĸÄŀ":13116,"ĠÃ§alÄ±ÅŁarak":13117,"ĠaÄŁÄ±":13118,"ĠyÄ±llarca":13119,"Ġbiliniyor":13120,"ĠMutlu":13121,"Ġpasaport":13122,"Ġengellemek":13123,"Ġret":13124,"Ġkentsel":13125,"Ġbuldum":13126,"uÄŁla":13127,"Ġsorgulama":13128,"Br":13129,"Ġitfaiye":13130,"ĠVekili":13131,"Ġje":13132,"-)":13133,"Ġmesele":13134,"teb":13135,"ĠÃ¶lÃ¼mÃ¼":13136,"Bas":13137,"ĠbelirlenmiÅŁ":13138,"laÅŁmÄ±ÅŁ":13139,"ĠÃ§eÅŁidi":13140,"ĠNas":13141,"Ġhikayesi":13142,"ĠyatÄ±rÄ±mlarÄ±":13143,"REN":13144,"ĠBelgesi":13145,"ĠÃ§alÄ±ÅŁmaktadÄ±r":13146,"Ġhic":13147,"Ġistemiyor":13148,"ahan":13149,"Ġkaplama":13150,"hatsapp":13151,"ĠKripto":13152,"Ġiseniz":13153,"ĠHakkÄ±":13154,"ĠÃ§alÄ±ÅŁÄ±yorum":13155,"ĠHastalÄ±klarÄ±":13156,"ĠEÄŀÄ°TÄ°M":13157,"my":13158,"Den":13159,"ĠaklÄ±ma":13160,"ĠBizans":13161,"Mas":13162,"Ġtayin":13163,"insan":13164,"Ġ180":13165,"Oyun":13166,"ĠyapÄ±yorlar":13167,"Ġstaj":13168,"ĠDÃ¼nyasÄ±":13169,"ĠÅŁarap":13170,"ĠverildiÄŁi":13171,"ĠVeli":13172,"ĠkÃ¶klÃ¼":13173,"lamÄ±ÅŁtÄ±r":13174,"kÃ¼dar":13175,"ĠdÃ¼ÅŁÃ¼nmek":13176,"ĠÅŁunlardÄ±r":13177,"orge":13178,"ĠkÃ¶kenli":13179,"lendiÄŁi":13180,"ript":13181,"ĠBilimler":13182,"--------":13183,"ĠSarayÄ±":13184,"ĠdakikalÄ±k":13185,"Say":13186,"ĠHarit":13187,"Ġetmeyen":13188,"Ġartarak":13189,"Ġmesai":13190,"ĠbÃ¶lÃ¼mÃ¼ne":13191,"Ġsemptom":13192,"ake":13193,"acÄ±nÄ±n":13194,"ĠSuriyeli":13195,"ĠBulun":13196,"ĠðŁĺ":13197,"alaÅŁ":13198,"ĠIM":13199,"ĠkazandÄ±ran":13200,"Ġmetro":13201,"Ġdikkatini":13202,"ezya":13203,"Ġenerjisi":13204,"ĠsayÄ±larÄ±":13205,"Dav":13206,"Ġkaba":13207,"ĠSU":13208,"Ä°srail":13209,"ĠdÃ¼ÅŁÃ¼nerek":13210,"ĠRom":13211,"ĠKarabÃ¼k":13212,"Ġsaatler":13213,"Ġkatliam":13214,"ĠanlaÅŁÄ±lÄ±r":13215,"MAZ":13216,"main":13217,"ĠyurttaÅŁ":13218,"ĠgÃ¶zle":13219,"Ã¶rek":13220,"ĠyaÅŁÄ±na":13221,"ĠbuluÅŁtu":13222,"ĠÅŁirketlerinin":13223,"ĠHÃ¼rriyet":13224,"ĠfigÃ¼r":13225,"Ġfakir":13226,"Buna":13227,"Ġhaml":13228,"Ġkonumda":13229,"Ġsatmak":13230,"ĠuygulamasÄ±nÄ±":13231,"Ġteknolojileri":13232,"Ġtalepleri":13233,"ersen":13234,"ĠmaÃ§a":13235,"ĠCoÅŁ":13236,"emde":13237,"Ġrefah":13238,"ĠsaldÄ±rgan":13239,"ĠgÃ¶nderdiÄŁi":13240,"ĠkeÅŁif":13241,"ĠgÃ¼ler":13242,"ĠdeÄŁiÅŁti":13243,"Ġhamile":13244,"ĠbaÅŁlamasÄ±":13245,"ĠakciÄŁer":13246,"Ä°C":13247,"ĠbinanÄ±n":13248,"Bal":13249,"ĠmÃ¼lkiyet":13250,"ĠeditÃ¶r":13251,"Ġbirebir":13252,"iÄŁine":13253,"Ġmoral":13254,"ĠdÄ±ÅŁÄ±ndan":13255,"ĠkullanÄ±cÄ±nÄ±n":13256,"Ġhelal":13257,"opar":13258,"ĠÅŁifre":13259,"Ġcenaze":13260,"lash":13261,"Ġbasamak":13262,"ound":13263,"Ä°NÄ°Z":13264,"Ġkonusunu":13265,"Ġekrana":13266,"Ġzordur":13267,"ĠKole":13268,"alp":13269,"Ġkonforlu":13270,"tiÅŁ":13271,"ĠÄ°ttifak":13272,"Ġaksi":13273,"Yerel":13274,"Ġekim":13275,"Ġplanlama":13276,"acivert":13277,"ĠToplantÄ±":13278,"ĠYeniden":13279,"ĠkolaylÄ±k":13280,"ĠKÃ¶k":13281,"Â®":13282,"cy":13283,"ÅŁÄ±k":13284,"ĠgÃ¼venliÄŁini":13285,"Ã¼yordu":13286,"ute":13287,"ĠvatandaÅŁlara":13288,"ĠkÄ±rÄ±l":13289,"Ġbiriktir":13290,"KÄ±":13291,"ĠhesaplarÄ±":13292,"ekiz":13293,"ĠgerÃ§ekÃ§i":13294,"ĠKomitesi":13295,"ĠplakalÄ±":13296,"ĠGÃ¼nde":13297,"ĠhatÄ±rlatan":13298,"Ġnar":13299,"Ġvan":13300,"ĠkarlÄ±":13301,"Ġyararlanmak":13302,"Ġzahmet":13303,"masya":13304,"ĠÅŁartlarda":13305,"Ġinceleyebilirsiniz":13306,"ĠPaul":13307,"ĠeÄŁitimin":13308,"Ġolmayabilir":13309,"ĠbaÄŁÄ±mlÄ±":13310,"ĠfÄ±ndÄ±k":13311,"ĠhazÄ±rlamak":13312,"Ġparaya":13313,"ĠKongre":13314,"ĠÃ¶ÄŁretmenler":13315,"Ġoksijen":13316,"Ġbeklentiler":13317,"ĠgetirmiÅŁ":13318,"Ġkonusudur":13319,"97":13320,"ogram":13321,"ĠkÄ±zÄ±n":13322,"Sey":13323,"ĠEng":13324,"esten":13325,"Ġhelikopter":13326,"ĠkonuÅŁmak":13327,"ĠherÅŁey":13328,"ĠGÃ¼len":13329,"Kom":13330,"Ġtalebinde":13331,"ĠgÃ¼Ã§lÃ¼k":13332,"mine":13333,"ĠMarka":13334,"Ġvarol":13335,"Ġadresini":13336,"Ġdayanarak":13337,"ĠarkasÄ±ndan":13338,"Bab":13339,"Åŀeh":13340,"ĠDuvar":13341,"emeleri":13342,"Ġvurgulan":13343,"nes":13344,"mazlar":13345,"Ġeserler":13346,"adasÄ±":13347,"ĠHAY":13348,"Ġpet":13349,"Ġnorm":13350,"ĠalanÄ±n":13351,"ĠCerrah":13352,"Ġkef":13353,"ĠbebeÄŁ":13354,"ĠYargÄ±tay":13355,"Ġeskiden":13356,"iyo":13357,"ĠortaklÄ±k":13358,"ĠPir":13359,"Ġtoplumda":13360,"tia":13361,"ĠburasÄ±":13362,"ĠÃ§Ä±kmaya":13363,"rap":13364,"Ġaileler":13365,"ĠBa":13366,"LEÅŀ":13367,"ĠWhatsApp":13368,"BalÄ±k":13369,"ĠÄ°liÅŁkiler":13370,"Ġpartinin":13371,"ĠyazÄ±yÄ±":13372,"Ġulus":13373,"ath":13374,"ĠsaygÄ±n":13375,"Ġmusun":13376,"Ä±rh":13377,"ĠÃ§oktan":13378,"ĠBrezilya":13379,"ĠKÃ¼resel":13380,"ĠÃ§ocuÄŁa":13381,"Ġ95":13382,"enci":13383,"ĠJack":13384,"ĠCami":13385,"Ġprensip":13386,"ĠolmadÄ±ÄŁÄ±na":13387,"ĠayrÄ±calÄ±k":13388,"ĠdÄ±ÅŁarÄ±da":13389,"ÃĸrneÄŁin":13390,"96":13391,"ĠSayÄ±sÄ±":13392,"MEN":13393,"ĠsayÄ±lan":13394,"ĠkadarÄ±yla":13395,"Ġidrar":13396,"Ġyepyeni":13397,"ĠgÃ¶rÃ¼nÃ¼ÅŁ":13398,"ations":13399,"ĠaÃ§abilir":13400,"Ġdostluk":13401,"Ġreg":13402,"ĠSMS":13403,"ĠÅŀif":13404,"ĠSGK":13405,"arÅŁ":13406,"ĠGlobal":13407,"ĠortaÄŁÄ±":13408,"Ġkonsan":13409,"ĠDÃ¼ÄŁÃ¼n":13410,"ĠÅŁehirler":13411,"ĠÅŁÃ¼kÃ¼r":13412,"Ġsitesini":13413,"81":13414,"Ġup":13415,"ule":13416,"ĠDemek":13417,"ĠÅŀar":13418,"ĠyÃ¶nÃ¼":13419,"Ġdegil":13420,"ĠSÃľR":13421,"Ġsenet":13422,"ool":13423,"Ġklav":13424,"Ġkorona":13425,"ĠgeÃ§irildi":13426,"ĠTerim":13427,"Ġalgorit":13428,"lop":13429,"Sonraki":13430,"ĠÅŁeylerin":13431,"ĠkanalÄ±":13432,"ĠkeÃ§":13433,"ĠkÄ±salt":13434,"tiz":13435,"Ġevli":13436,"ĠyÃ¼ksektir":13437,"iÄŁinde":13438,"Uygul":13439,"Ġneye":13440,"ĠSER":13441,"Ã¼ltÃ¼":13442,"ĠAntik":13443,"Ġgerekenler":13444,"Ã§Ä±nÄ±n":13445,"ĠmuhtaÃ§":13446,"larÄ±mÄ±n":13447,"ĠiÅŁlemlerinizi":13448,"ĠyÃ¶netmelik":13449,"ĠEh":13450,"ĠEmlak":13451,"ĠdeÄŁerlendirilmesi":13452,"Ġkaran":13453,"aliz":13454,"ilmesinde":13455,"Ġmuz":13456,"ĠÄ±ÅŁÄ±ÄŁÄ±nda":13457,"Ġyapabilmek":13458,"ĠEvi":13459,"ĠBirbir":13460,"ADA":13461,"Ġfas":13462,"Ġkenti":13463,"ĠBÃĸL":13464,"ĠBÃľY":13465,"Ã§ilere":13466,"ĠyayÄ±mlan":13467,"ĠbÃ¶lgesine":13468,"ĠgÃ¶sterge":13469,"NET":13470,"ekÃ¼l":13471,"ĠsavaÅŁÄ±n":13472,"ĠKelim":13473,"ĠÃ¶nÃ¼ndeki":13474,"ĠUEFA":13475,"ĠkÄ±lavuz":13476,"yah":13477,"ĠgÃ¼nlerinde":13478,"OKÄ°":13479,"ĠGem":13480,"Ġisteriz":13481,"ĠBahar":13482,"adÄ±lar":13483,"ĠBerk":13484,"Ġdestekli":13485,"Ġdib":13486,"Ã»m":13487,"ĠfakÃ¼lt":13488,"ĠaÃ§Ä±ktÄ±r":13489,"ida":13490,"Ð½":13491,"EHÄ°R":13492,"kam":13493,"ico":13494,"Con":13495,"ĠtecavÃ¼z":13496,"ĠseÃ§mek":13497,"Ġharik":13498,"ĠbaÅŁarÄ±sÄ±":13499,"istal":13500,"lÄ±ydÄ±":13501,"Ġ112":13502,"ĠAmazon":13503,"Ġmaddenin":13504,"Program":13505,"ĠyaÅŁadÄ±ÄŁÄ±mÄ±z":13506,"ĠformÃ¼l":13507,"YE":13508,"ĠÃĩekici":13509,"Ġsundu":13510,"ĠduÅŁ":13511,"larÄ±nÄ±zla":13512,"Beyaz":13513,"Kendi":13514,"Ġceh":13515,"Ġmotivasyon":13516,"ĠÃ§alÄ±ÅŁtÄ±ÄŁÄ±nÄ±":13517,"ayÄ±nca":13518,"ĠLid":13519,"Ġstandar":13520,"Mic":13521,"eyz":13522,"ĠÄ°hracat":13523,"YeÅŁil":13524,"ĠÃ§erÃ§evede":13525,"igh":13526,"ĠValiliÄŁi":13527,"Kurum":13528,"ated":13529,"ian":13530,"ĠsayÄ±n":13531,"Ġgelecektir":13532,"Ġkomutan":13533,"ĠbaÅŁlayabilirsiniz":13534,"ouse":13535,"ĠbinasÄ±":13536,"GerÃ§ek":13537,"avv":13538,"Ġvermiyor":13539,"ĠStu":13540,"ĠfarklÄ±dÄ±r":13541,"ĠAjans":13542,"Amerik":13543,"Ġproblemleri":13544,"87":13545,"ĠToto":13546,"Ġmuhabir":13547,"ĠPS":13548,"ĠÃ¼rÃ¼nlerinin":13549,"diÄŁine":13550,"Ġmasal":13551,"YD":13552,"ĠÃ§eker":13553,"ĠHarek":13554,"ĠmÃ¼kellef":13555,"dÃ¼kten":13556,"Sah":13557,"Ġedebilmek":13558,"KÃ¼r":13559,"ĠResim":13560,"Ġzamandan":13561,"ĠÃ¼stelik":13562,"ĠÄ°mparatorluÄŁu":13563,"elerindeki":13564,"baÅŁka":13565,"Ġlitre":13566,"Ġopsiyonlar":13567,"Ġtelefonla":13568,"Ġfos":13569,"ĠbaÅŁlayÄ±p":13570,"Ġtamamlayan":13571,"ĠSenin":13572,"lilere":13573,"Ġseyred":13574,"ĠanÄ±lan":13575,"cer":13576,"Ġolanlara":13577,"ĠZeynep":13578,"TP":13579,"ĠÃĩOK":13580,"ĠbarÄ±ndÄ±ran":13581,"Ġtermin":13582,"illiam":13583,"emediÄŁi":13584,"SaÃ§":13585,"SEL":13586,"ĠLevent":13587,"GÃ¶k":13588,"ĠyoÄŁunluk":13589,"ĠÃ¶bÃ¼r":13590,"Ġatar":13591,"Apple":13592,"Van":13593,"Ġprov":13594,"ĠRaporu":13595,"acaÄŁÄ±nÄ±n":13596,"Ġdeyip":13597,"Ġmetrekar":13598,"ĠRÄ±za":13599,"Ġtank":13600,"kurmay":13601,"ĠÅŁem":13602,"Ġederse":13603,"Ġetkisiz":13604,"Ġvermeyi":13605,"Ġsendrom":13606,"Fransa":13607,"ĠoluÅŁturulmasÄ±":13608,"Ġailesine":13609,"ĠvatandaÅŁÄ±n":13610,"Bana":13611,"gusu":13612,"ĠSanal":13613,"kurt":13614,"Ġseans":13615,"Ġded":13616,"Ġmobilya":13617,"ĠStan":13618,"ĠalÃ§ak":13619,"ĠgeÃ§ip":13620,"ĠRah":13621,"ĠmÃ¼slÃ¼man":13622,"Bun":13623,"leÅŁtirmek":13624,"ĠakÄ±ÅŁÄ±":13625,"Ġelimizden":13626,"Ġinter":13627,"ĠsÄ±nÄ±flandÄ±r":13628,"apur":13629,"ĠhastalÄ±klar":13630,"ĠÅŁuan":13631,"urat":13632,"sah":13633,"esk":13634,"ĠDernek":13635,"ĠTablo":13636,"Ġkurallara":13637,"ĠkapanÄ±ÅŁ":13638,"CD":13639,"Ġverdiler":13640,"Ġprogramlar":13641,"Ġhavayolu":13642,"Ġwas":13643,"ĠAkÅŁ":13644,"ĠBirleÅŁmiÅŁ":13645,"ĠbulunmuÅŁ":13646,"Ġsesleri":13647,"ĠdÃ¼zenleyen":13648,"ĠÅŁeklindeki":13649,"ĠkomÅŁ":13650,"ĠHizmetler":13651,"lana":13652,"Ġsistemde":13653,"Ġterap":13654,"ĠgÃ¶nl":13655,"ĠsÃ¶zcÃ¼":13656,"ĠÃ§ektiÄŁi":13657,"Ä±mÄ±zla":13658,"ĠgÃ¶kyÃ¼z":13659,"ĠKapalÄ±":13660,"ĠparÃ§alan":13661,"ĠKÄ±rÄ±k":13662,"ĠÃ§ocuklarÄ±nÄ±n":13663,"ĠYER":13664,"ĠbaÅŁarÄ±ya":13665,"ĠDÃ¼nyada":13666,"Ġmekanik":13667,"Ġreferandum":13668,"Yet":13669,"ĠÃ§ekirdek":13670,"ĠfiyatÄ±nÄ±n":13671,"Ġarayarak":13672,"stem":13673,"ty":13674,"Ġterim":13675,"ĠkurulmuÅŁtur":13676,"ĠÃ¼lkemize":13677,"Ġml":13678,"iha":13679,"Ġaranan":13680,"Ġmutl":13681,"ĠReal":13682,"abilecekleri":13683,"ĠbirÃ§":13684,"ĠBelir":13685,"Ä°MÄ°":13686,"ĠsaÄŁlÄ±ÄŁÄ±nÄ±":13687,"calan":13688,"ĠÄ°ÅŁÃ§i":13689,"Ġbini":13690,"lÄ±nÄ±n":13691,"ĠÃ§anta":13692,"iyye":13693,"Ġmasum":13694,"ĠÃ§et":13695,"ĠBAÅŀKAN":13696,"ĠWashington":13697,"ĠArk":13698,"ÉĻ":13699,"Ä±rsa":13700,"Ġdeplasmanda":13701,"deres":13702,"mo":13703,"ĠÄ°zmit":13704,"ĠÅŁebek":13705,"ĠsahasÄ±nda":13706,"ĠyaÅŁÄ±ndan":13707,"ĠTokat":13708,"Ġdesteklem":13709,"ĠiÅŁtirak":13710,"gÄ±c":13711,"barek":13712,"ĠSermaye":13713,"Ġcumhuriyet":13714,"END":13715,"ĠkimliÄŁi":13716,"âĢ²":13717,"ĠbÃ¶lgeler":13718,"deksi":13719,"ĠHazine":13720,"ĠÃ¶neriler":13721,"Ġruhsal":13722,"koz":13723,"ĠPolonya":13724,"Ġkuz":13725,"ĠoÄŁl":13726,"ĠgÃ¼lÃ¼ms":13727,"ĠgÃ¶rÃ¼ntÃ¼leri":13728,"Ġoyuncunun":13729,"ockchain":13730,"cam":13731,"cess":13732,"ĠistediÄŁimiz":13733,"ĠTAK":13734,"Ġuygulanacak":13735,"Ġhizmetini":13736,"ergah":13737,"Ġgibiydi":13738,"imer":13739,"ĠsÃ¼rer":13740,"Ġsonuca":13741,"ĠyapalÄ±m":13742,"ĠoperatÃ¶r":13743,"dis":13744,"ĠÅŀiir":13745,"ĠKÃ¼rdistan":13746,"Ġbitkisel":13747,"ĠSaldÄ±r":13748,"ĠkullanÄ±yorum":13749,"ĠDevrim":13750,"Ġhakikat":13751,"ĠEbu":13752,"Ġyakalay":13753,"Ġdezenf":13754,"ĠAut":13755,"ĠkalkÄ±n":13756,"ĠÃĩiz":13757,"ĠHy":13758,"rd":13759,"inizdeki":13760,"Ġuzmanlar":13761,"ARET":13762,"Ġbitim":13763,"ĠdoÄŁrultuda":13764,"84":13765,"ĠoluÅŁturmaktadÄ±r":13766,"ĠsÄ±nava":13767,"ĠsigortasÄ±":13768,"ĠaÅŁan":13769,"Ġrenkler":13770,"Ãľcret":13771,"Ġzorla":13772,"ĠkÃ¼fÃ¼r":13773,"Ġaylarda":13774,"ĠMÃ¼hendisliÄŁi":13775,"ĠSaÄŁlÄ±klÄ±":13776,"dirme":13777,"DiyarbakÄ±r":13778,"Ġzihniyet":13779,"PN":13780,"Ġteknikleri":13781,"ĠApp":13782,"ansal":13783,"juv":13784,"ĠHaftasÄ±":13785,"Ġtakdim":13786,"ĠkarÅŁÄ±tÄ±":13787,"Amerika":13788,"ĠSayÄ±lÄ±":13789,"ĠarttÄ±rmak":13790,"adas":13791,"ĠyoÄŁurt":13792,"93":13793,"ĠaÃ§Ä±lacak":13794,"ĠKorun":13795,"ĠÃ§alÄ±ÅŁmayÄ±":13796,"ĠkarÅŁÄ±nÄ±za":13797,"Ġyeme":13798,"ĠDalÄ±":13799,"Ġtezgah":13800,"ĠÃ§alÄ±ÅŁmalarÄ±nda":13801,"Ġmakineleri":13802,"ĠFirma":13803,"Ġhabere":13804,"ĠÃ¶teki":13805,"ĠdeyiÅŁle":13806,"ĠTelevizyon":13807,"mÄ±ÅŁlar":13808,"Fark":13809,"For":13810,"Ġgezi":13811,"ĠkararÄ±n":13812,"Tok":13813,"ĠistemiÅŁ":13814,"Ġkurt":13815,"ĠkaraciÄŁer":13816,"Ġmemuru":13817,"ĠSilahlÄ±":13818,"ĠiÅŁÃ§ilerin":13819,"tuÄŁunu":13820,"ĠsorularÄ±n":13821,"ĠAF":13822,"ĠfaydasÄ±":13823,"Ġkelimeler":13824,"ĠsÄ±navÄ":13825,"ĠsÄ±navÄ±":13826,"ĠYoutube":13827,"ĠKovid":13828,"ĠÅŁimdilik":13829,"ĠTurkcell":13830,"ĠalacaÄŁÄ±nÄ±z":13831,"ĠaydÄ±nlatma":13832,"ĠMars":13833,"Ġetnik":13834,"ĠgÃ¶rdÃ¼ÄŁÃ¼nÃ¼z":13835,"Ġbirlikt":13836,"ĠmeraklÄ±":13837,"ĠZiya":13838,"Dik":13839,"ĠdÃ¼kk":13840,"evler":13841,"site":13842,"ĠKahv":13843,"gon":13844,"ĠTrak":13845,"turk":13846,"Ġgerekebilir":13847,"Ġordusu":13848,"iyenin":13849,"ĠkendiliÄŁinden":13850,"ĠiÅŁlevsel":13851,"ĠdÃ¼nyasÄ±na":13852,"Ġkonumunda":13853,"ĠAvcÄ±":13854,"Fin":13855,"ĠKurtuluÅŁ":13856,"Ġsorunlara":13857,"âĹı":13858,"ĠnÃ¼fusu":13859,"ĠalanÄ±ndaki":13860,"Ġsergi":13861,"ĠPoker":13862,"Ġizn":13863,"ĠmÃ¼ÅŁterilerin":13864,"ĠÃ¼retmek":13865,"Ġkopyal":13866,"ĠBB":13867,"ĠDavid":13868,"ĠyÃ¶neticisi":13869,"ĠniÅŁ":13870,"ĠdolaylÄ±":13871,"ĠuygulamanÄ±n":13872,"wap":13873,"Ġandan":13874,"Ġtahvil":13875,"Ġokudu":13876,"Ġsezonunda":13877,"Erz":13878,"Ġgelmeye":13879,"ovasyon":13880,"ĠbÃ¶lgelerinde":13881,"eÄŁer":13882,"urlar":13883,"ĠbozukluÄŁu":13884,"TUR":13885,"tifika":13886,"ĠKampany":13887,"Ġsimg":13888,"ECE":13889,"MK":13890,"OBÄ°":13891,"Ġpartisi":13892,"Ġverecektir":13893,"ĠniÅŁan":13894,"Ġbine":13895,"hendisi":13896,"Ġeminim":13897,"ĠsÃ¶yleÅŁ":13898,"ĠgÃ¼vence":13899,"Ġneyse":13900,"ĠgÃ¶rÃ¼p":13901,"Zaman":13902,"Ġavuk":13903,"Ġgittik":13904,"ĠgeÃ§irilen":13905,"vir":13906,"Ġkurumun":13907,"ĠsÄ±kÄ±ntÄ±lar":13908,"ĠsevdiÄŁim":13909,"mayacaÄŁÄ±nÄ±":13910,"ĠyapÄ±nÄ±n":13911,"ĠkatkÄ±sÄ±":13912,"ĠYÃ¼ce":13913,
[...]
